#version: 0.2
Ġ t
Ġ Ġ
h e
Ġ a
i n
o n
Ġt he
r e
Ġ o
ĠĠ ĠĠ
e r
a t
e n
Ġ s
e d
Ġ c
i s
i t
Ġo f
Ġ p
i on
o r
Ġ w
a n
e s
Ġa n
a l
Ġ in
Ġ b
Ġt o
Ġ f
en t
Ġ d
in g
a r
i c
Ġt h
Ġan d
o u
ĠĠĠĠ ĠĠĠĠ
Ġ re
c t
a s
r o
Ġ m
l e
Ġ C
Ġ n
Ġ h
Ġ e
Ġth at
Ġ S
s t
Ġ A
o t
at ion
m ent
Ċ Ċ
Ġb e
i l
c e
i d
Ġo r
Ġ (
Ġ T
o m
v e
i m
s e
l y
u r
Ġc on
â Ģ
Ġf or
Ġ is
Ġs u
Ġ I
u t
Ġd e
l a
Ġp ro
u n
p p
an t
c h
Ġa s
i f
. .
at e
Ġ P
Ġ on
he r
Ġn ot
o l
r i
ĠĠĠĠĠĠĠĠ ĠĠĠĠĠĠĠĠ
e ct
Ġ M
it h
Ġ l
t er
Ġ D
Ġb y
i r
d er
a y
Ġw ith
v er
ou r
l l
q u
a d
Ġ it
a b
en d
Ġ g
i g
Ġw h
Ġ v
o w
Ġw as
Ġ R
e t
Ġ F
Ġe x
Ġa t
Ġ B
Ġs t
es t
. ĊĊ
- -
ĠT he
u l
e re
Ġ un
r a
es s
Ġ he
e c
ou n
Ġs h
Ġan y
2 0
Ġ L
Ġa pp
it y
ar t
u d
t her
Ġ N
re s
is t
g e
our t
u s
l d
Ġth is
i ve
Ġc om
Ġ E
i es
o s
er s
al l
Ġ O
Ġ H
. Ċ
Ġ W
a in
.. ..
re d
a m
ĠI n
f f
v id
1 9
e e
ic h
an d
or t
il l
in t
ion s
u st
' s
ou ld
ab le
e m
p t
i al
Ġh a
s u
âĢ Ļ
Ġsu ch
Ġwh ich
o c
Ġ j
_ _
at ed
ro m
t h
Ġcon t
ĠĠ Ġ
ar y
g h
Ġf a
o d
Ġa re
Ġf rom
i v
Ġre s
o re
Ġ U
Ġa d
ĠS t
c c
Ġ J
en ce
ar d
Ġ G
ic e
Ġha ve
Ġd is
c l
an ce
as e
p er
Ġa g
Ġc ourt
ĠC om
Ġa l
Ġ âĢ
Ġp art
Ġun der
re e
r u
Ġo ther
Ġde f
ic t
u se
ct ion
Ġsh all
if f
Ġw he
i e
Ġh is
it ion
a k
p l
ation s
or d
oun t
u m
âĢ Ŀ
âĢĻ s
Ġsu b
i re
ment s
ect ion
Ġin t
Ġ "
la int
p on
b er
Ġa ll
Ġthe re
u re
Ġ le
-- --
Ġp er
m in
Ġc h
e ll
l ic
an s
end ant
Ġcom p
0 0
Ġre qu
Ġh as
i ed
ĠâĢ ľ
e f
Ġit s
i p
Ġa m
f or
e l
ĠĠĠĠĠĠĠĠĠĠĠĠĠĠĠĠ ĠĠĠĠĠĠĠĠĠĠĠĠĠĠĠĠ
it t
m is
laint iff
a g
Ġa r
gh t
Ġn e
im e
la im
Ġ im
d u
Ġw ill
Ġa b
Ġ la
Ġ y
Ġd o
Ġh ad
) .
a c
a ge
20 0
ist r
Ġw ould
Ġcon s
Ġre c
1 0
Ġm ay
Ġn o
cl ud
Ġ r
Ġp ur
.... ....
e ar
an y
i b
Ġw e
Ġp re
o p
ul t
ig n
Ġbe en
u b
p os
at es
Ġa cc
mis s
Ġc laim
) ,
er al
20 1
o se
Ġm e
a ch
ou t
ĠR e
ĠA g
Ġt r
o ver
er v
Ġof f
a re
for m
Ġpro vid
o y
Ġw ere
t y
ĠC ourt
Ġt ime
Ġdef endant
as on
Ġc ase
if ic
ĠT h
__ __
u al
a use
ig h
Ġre p
er t
Ġ en
ou s
ad e
Ġre l
Ġ if
Ġ u
ree ment
ol l
Ġe vid
Ġo b
ri ght
Ġ [
Ġs p
c ed
i z
en s
Ġin d
. ,
e al
it ed
Ġf in
Ġas s
Ġj ud
o st
u e
om e
v is
Ġt ri
Ġre g
ers on
Ġla w
Ġ qu
Ġ ent
Ġevid ence
j ect
p ect
1 1
m itt
ĠCom p
Ġ right
oun d
Ġa ct
il ity
ĠĠĠĠ Ġ
Ġre ason
Ġfa ct
ĠĠĠĠ ĠĠ
ra ct
f ter
n t
pl oy
Ġ Â
ere d
ĠU n
Ġis su
it ies
Ġe m
Ġp ay
is e
. S
s o
res s
ff ect
an c
Ġb ut
or k
d ing
Ġt er
ic al
Ġg r
or y
Ġbe c
a id
Ġthe ir
res ent
ĠC on
1 2
Ġs o
Ġst ate
f ore
Ġm ade
Ġde c
Ġs e
or s
T he
ĠD e
Ġhe re
en c
Ġtri al
at ive
Ġ her
Ġapp lic
a il
ĠN o
in e
O N
am e
Ġm at
Ġp laintiff
Ġon e
Ġin c
Ġim p
E R
Ġo ut
Ġ k
Ġ .
Ġal so
ĠM r
Ġth an
a ct
ri b
n e
ut ion
if ied
Ġthe y
on e
Ġp r
igh t
ie w
ĠComp any
ou gh
Ġre f
Ġex p
Ġ V
Ġp erson
ĠA pp
id ent
Ġl i
ak e
se l
Ġor der
1 3
Ġwh o
19 9
a p
ĠSt ate
Ġpro per
Ġad d
ter min
Ġin v
w n
ĠA ct
ut h
Ġin clud
Ġsu pp
ut e
at ing
ere st
v en
. C
g u
Ġre m
i le
ce pt
m s
Ġd id
g ment
Ġat t
---- ----
Ġt est
Ġdis c
Ġ K
Ġm ot
ĠS ec
as t
) (
1 5
Ġu pon
ĠP ro
l ed
ire ct
Ġj ur
Ġc an
p h
Ġde termin
oll ow
Ġem ploy
as s
st it
ĠĠĠĠ ĠĠĠ
ing s
oc k
ĠAg reement
re t
uth or
on d
l ig
. "
Ġcom m
ce ed
on g
Ġwhe n
Ġm ust
ĠÂ §
T I
Ġag ain
Ġwhe ther
Ġcons id
miss ion
i a
Ġa fter
Ġ us
Ġy ear
Ġon ly
ĠS ection
Ġf ollow
it s
Ġbec ause
1 4
il ed
Ġa c
st ru
i red
Ġs ec
ar k
Ġs et
Ġapp ro
Ġtr ans
1 8
a x
Ġsp ec
ĠE x
he d
ĠA s
e x
Ġsh ould
as ed
ir st
le g
over n
v ent
du ct
Ġres pect
al ly
o od
is ion
is h
Ġjud gment
Ġint erest
Ġ est
mitt ed
an k
o g
Ġ $
t he
o int
end ed
Ġd es
Ġam ount
r y
Ġp ri
Ġe ach
ub lic
Ġin ter
Ġre ce
ĠC h
Ġs erv
ĠI t
Ġa ction
Ġin form
ĠD ef
: Ċ
Ġc l
o f
le ct
v ed
i ent
Ġe ffect
E N
ĠT r
Ġagain st
an ge
Ġp os
ell ant
. âĢĿ
Ġs ee
ff ic
istr ict
Ġa uthor
or p
Ġw ork
1 6
Ġdo es
Ġm ore
Ġst at
v iew
e ver
Ġt w
v ing
n ow
ĠC ir
Ġh im
Ġd ay
ĠS ee
Ġapp eal
Ġpro vis
Ġle g
i ous
ib le
19 8
Ġs he
ĠA n
3 0
ĠW e
ĊĊ Ċ
ic es
Ġres pon
ĠSt ates
id e
Ġo ver
Ġc ert
en se
i i
Ġex t
Ġrec ord
en eral
Ġar gu
o ve
t ain
Ġint o
ĠP art
ab ility
c k
Ġc ould
i ver
ĠA m
o k
ve l
ĠTh is
ĠUn ited
Ġw r
e en
pt ion
ĠA d
1 7
Ġbe fore
Ġthe se
Ġm an
Ġs aid
Ġp ol
et ition
ĠĠĠĠĠĠĠĠĠĠĠĠĠĠĠĠ ĠĠĠĠĠĠĠĠ
Ġprovid ed
Ġs ection
Ġpro ceed
ro w
........ ........
Ġd ate
ĠP laintiff
ict ion
e w
ĠS u
Ġwith out
in ess
2 5
ur ing
Ġal leg
Ġl im
Ġqu est
Ġmot ion
Ġcont ract
Ġo wn
Ġwhe re
Ġbe t
O R
at er
E S
l an
i od
Ġsupp ort
Ġth ose
) ;
Ġwith in
overn ment
Ġch ar
n ess
w ard
Ġd irect
Ġinform ation
Ġrequ ire
Ġc oun
____ ____
m an
m ed
en ef
ur ther
Ġab out
Ġpur su
ation al
e es
us iness
un d
ab l
Ġf irst
Ġtw o
Ġrequ ired
enc y
ed eral
ow ever
s on
= =
Ġproper ty
p art
Ġp la
ur n
il d
c on
b t
A N
in ed
00 0
ĠN ot
ĠIn d
Ġgr ant
Ġs ame
em ber
Ġpart y
y s
m on
oc u
Ġ use
er c
Ġp ublic
Ġconsid er
E D
Ġres ult
Ġrequ est
min istr
ere n
Ġpart ies
Ġo p
ĠC o
it e
w een
Ġre view
ac k
Ġthe m
Ġissu e
Ġsub ject
er r
re n
Ġmat ter
en der
Ġthe n
20 2
Ġcon f
Ġnot ice
Ġv al
Ġa ff
h ip
2 4
Ġp resent
Ġpart ic
if y
Ġ Y
m e
Ġcon c
I S
in c
l ess
Ġbet ween
orp or
ĠI d
Ġd en
Ġdec ision
ec ess
anc es
Ġs c
le ment
Ġsh ow
Ġwh at
Ġs ome
Ġg iv
Ġc r
er red
Ġbe l
Ġoff ic
k e
im in
ĉ Ġ
Ġb enef
i ol
Ġpursu ant
Ġcon d
ol d
I N
Ġs ent
ir c
2 3
Ġc ost
re at
Ġp ar
Ġt ax
Ġclaim s
f ul
2 8
Ġper iod
Ġm ake
Ġin s
E C
Ġpri or
ĠRe g
Ġf iled
ra ph
p ri
ol der
Ġe qu
Ġk now
pos ed
âĢ Ķ
Ġfor m
c ess
an g
TI ON
ĠDef endant
) .ĊĊ
A R
ot h
Ġfollow ing
ĠA r
Ġquest ion
o ard
as es
5 0
a w
Ġright s
ĠO F
Ġrep ort
ul ar
ĊĊ ĊĊ
Ġfa il
p ort
Ġ ver
Ġo cc
iv ed
ar r
Ġbe ing
le ar
Ġo ur
cl us
Ġne w
Ġre le
r ough
ĠIn c
iz ed
4 0
ĠH e
a v
( a
Ġde l
Ġc irc
2 6
i vid
red it
Ġb usiness
Ġv iol
Ġest abl
il y
ar ing
ic le
ĠS ub
Ġacc ord
ĠCom mission
Ġg u
Ġn ecess
on y
A L
I n
Ġinclud ing
ec ut
Ġc ount
Ġf urther
Ġcon stit
Ġn um
n er
2 7
Ġre t
Ġter ms
Ġy ou
Ġa v
Ġag reement
ent ion
Ġst and
or row
2 9
Ġs ign
er n
Ġ ra
ate ly
o b
Ġob lig
st ant
Ġcoun sel
t o
a ir
Ġsu m
al e
Ġd iff
Ġm on
Ġreg ard
Ġth rough
Ġreason able
ter n
Ġyear s
as is
Ġt ak
Ġd istrict
Ġ ru
Ġrep resent
le t
is d
Ġf ound
or ne
n ot
ag es
i an
Ġch ild
ant s
Ġg eneral
Ġpos s
Ġo per
st and
is hed
it ions
Ġp etition
Ġd uring
Ġjur y
it her
ot her
Ġapp ellant
` `
19 7
ĠT H
Ġin j
Ġacc ount
Ġne ed
ie f
ĠO n
v ant
Ġru le
er ial
Ġc ar
ĠI f
Ġadd ition
ĠF or
Ġu p
u res
end ment
e p
Ġm in
i x
Ġ -
eren ce
. )
I T
Ġcont in
ag raph
v al
( b
Ġmat erial
at or
Ġd ist
2 2
Ġcon duct
m ber
Ġpro t
it al
Ġ err
Ġp res
Ġhe ld
Ġapplic able
I C
Ġreg ul
g ra
Ġper form
Ġs im
Ġ ro
ur ity
ou se
A T
ab ly
Ġc lear
Ġpay ment
ific ation
ĠS h
Ġapplic ation
Ġme ans
Ġ ``
it ing
ĠM ar
isd iction
ow er
s id
Ġprovis ions
Ġpol ic
od e
c rib
ĠA t
Ġd ocu
ffic ient
U R
Ġin stru
e op
b y
ou ght
w ise
ĠB orrow
Ġ &
g ed
âĢ ľ
Ġex ist
Ġus ed
Ġdis miss
ent s
Ġb oth
in ion
Ġprovid e
Ġp oint
t s
Ġn on
Ġgiv en
ĠL e
Ġm y
ĠThe re
Ġpr inc
Ġd ue
Ġc ause
Ġent it
Ġd am
st ances
ur ities
a res
ĠTr ust
Ġl oc
Ġb ased
Ġex cept
p r
Ġj ust
un ity
p e
Ġother wise
2 1
Ġcirc um
p ose
Ġjur isdiction
at her
Ġday s
st r
part ment
ĠAg ent
u ll
ĠL o
ĠL ender
Ġnecess ary
Ġfin ding
pos es
eop le
Ġme an
is ter
Ġnum ber
Ġinv est
b ers
-------- --------
p ar
Ġc ol
ĠJ ud
c es
Ġm ark
6 0
Ġall ow
ivid ual
Ġcont ro
Ġconc ern
at ure
Ġp h
as h
ĠC O
Ġfact s
im ony
ĠĠĠĠĠĠĠĠ Ġ
m it
y st
g es
Ġc o
Ġcont ain
Ġpro b
Ġinv ol
ver s
Ġhe aring
g an
us ed
Ġspec ific
EN T
vel op
Ġc or
Ġb r
Ġex erc
Ġt ra
ro s
Ġcomp laint
Ġter min
; Ċ
l and
Ġpro cess
he n
ĠC l
Ġe vent
Ġst ated
Ġmon th
ial ly
itt en
Ġleg al
f t
Ġstat ute
Ġav ail
3 5
ĠS erv
Ġ *
Ġin f
ess ion
Ġm ain
Ġfor th
Ġf ore
ĠI N
it le
ĠA cc
Ġcost s
ĠN ew
Ġ ident
i ary
at ory
are nt
Ġp aid
Ġp le
) .Ċ
ĠR es
Ġpartic ular
Ġb asis
ĠA l
Ġw ell
ĠO r
Ġtrans f
yst em
ar m
Ġt e
Ġind ividual
Ġappro pri
Ġr ul
Ġrece ived
Ġadd ress
a ve
Ġcert ain
Ġtest imony
Ġd ut
Ġsub stant
in d
Ġex am
Ġag ree
Ġc ap
u le
ĠC ount
orne y
Ġalleg ed
.ĊĊ Ċ
Ġentit led
a ult
Ġac cept
ĠB oard
ur y
orpor ation
at h
Ġne g
ic k
Ġl o
Ġauthor ity
Ġas k
Ġg ood
h ib
ak ing
Ġc ases
g et
is ed
ministr ative
3 6
Ġcon v
Ġpur ch
) Ċ
if e
stand ing
Ġun t
Ġg o
Ġcircum stances
Ġsub se
Ġop inion
end ing
ir m
ĠTH E
ĠS e
Ġpar agraph
ĠĠĠĠĠĠĠĠĠĠĠĠĠĠĠĠĠĠĠĠĠĠĠĠĠĠĠĠĠĠĠĠ ĠĠĠĠĠĠĠĠĠĠĠĠĠĠĠĠĠĠĠĠĠĠĠĠĠĠĠĠĠĠĠĠ
mitt ee
Ġaccord ance
Ġab ove
re nt
Ġth ree
ir d
ĠB ank
w ay
Ġpur poses
in k
Ġocc ur
Ġt ake
Ġfin d
Ġcon stru
. E
c il
t icle
P A
ĠA N
ĠG overnment
ĠBorrow er
4 5
Ġs ur
Ġl and
Ġh owever
' '
it ation
Ġwr itten
Ġprovis ion
Ġstate ment
3 8
Ġdefendant s
Ġag re
Ġrem ain
Ġpur pose
se c
Ġc a
em pt
t on
ĠS c
Ġe ven
3 7
Ġm ed
Ġcon clud
ur ance
ip al
iv es
Ġass ign
4 7
ĠC al
Ġw ay
i o
u ly
ros s
us s
end s
Ġo pp
Ġsec ond
Ġavail able
n ing
ĠR ule
ĠW h
oc i
p re
Ġstand ard
ĠD ate
Ġf und
em bers
at is
Ġcan not
re g
ens es
ĠG r
Ġrespon d
arr ant
Ġpro posed
ib ility
Ġam ended
. A
Ġpolic y
Ġme et
3 1
it ness
I I
Ġrele vant
. R
o h
o ol
atis f
Ġapp ly
ĠF ederal
3 9
ĠC ode
is l
u g
ent ly
Ġc are
ĠE n
Ġext ent
is on
Ġ '
== ==
et h
i er
a f
Ġcon n
crib ed
ĠCon t
Ġsum m
Ġserv ice
Ġserv ices
ow n
in al
ĠĠĠĠĠĠĠĠ ĠĠĠ
Ġexp ress
in ce
ĠTh at
Ġn or
os s
ĠP lan
Ġgr ound
Ġs ay
Ġerr or
il ar
Ġthere of
i or
Ġe ither
g o
Ġthere fore
o ber
: ĊĊ
Ġg overnment
Ġtak en
ret ion
for ce
Ġdis p
Ġp lan
Ġl ong
Ġc ur
Ġsu fficient
j ud
sel f
ĠL aw
4 9
Ġcontin u
ĠE m
ĠM in
ĠD istrict
Ġapp l
Ġn ow
Ġproceed ings
Ġunt il
Ġind ic
Ġp l
ĠI s
anc ial
Ġpla ce
ret ary
Ġdes ign
v ious
ar ant
4 8
Ġl ess
Ġs atisf
ĠSt ock
Ġm is
ar l
Ġli ke
Ġw a
Ġtr ust
Ġv iew
Ġfail ure
ul ation
Ġter m
Ġappropri ate
Ġass ert
ĠG u
Ġob tain
th ough
Ġh on
Ġp ract
Ġden ied
, Ċ
Ġor d
Ġval ue
ĠAs s
ct ions
Ġdisc retion
Ġplaintiff s
Ġs er
Ġcon clus
ut es
4 6
Ġass ess
Ġde velop
Ġgrant ed
Ġrequire ments
gra m
ĠDe partment
Ġb re
g g
r on
Ġw itness
Ġex per
Ġapp ear
ĠH owever
ad ing
Ġb ank
Ġsee k
Ġc all
ou p
un e
Ġob ject
ecut ive
ol ding
su m
Ġf ederal
Ġs ystem
Ġan other
ur al
Ġcomp any
om m
Ġle t
et y
Ġbe h
Ġcomp let
ĠM c
u it
le ction
cl os
ut ed
Ġcond itions
* *
Ġjud ge
Ġ end
Ġli ability
Ġargu ment
u c
5 5
ive ly
Ġdetermin ed
Ġm o
Ġissu ed
Ġconsid ered
ĠCount y
Ġa ward
L E
Ġc ust
. W
Ġpri v
e b
Ġfa iled
Ġpro ced
ĠM ay
ĠCom mon
su re
ĠD r
d en
u red
ĠâĢ Ķ
Ġrespon s
ere nt
ict ed
al f
ĉ ĠĠ
ig ation
Ġdam ages
Ġinc re
ur ch
in s
ĠSec retary
Ġp ower
Ġtest ified
r ic
Ġret urn
Ġs ale
in es
Ġfin al
Ġestabl ish
Ġb ill
Ġset t
A S
ĠT o
he s
Ġprovid es
Ġact iv
i ance
Ġsent ence
Ġor ig
A C
un der
an u
Ġqu al
Ġe ver
Ġemploy ment
Ġp eople
ĠC oun
en n
Ġc redit
stit ution
in ation
Ġha ving
Ġissu es
Ġm od
ĠLo an
Ġb u
Ġc re
Ġsim ilar
ic ial
is ing
Ġbel ie
one y
Ġf ull
Ġaddition al
19 6
ual ly
M ENT
la use
imin al
Ġdisc uss
er ic
Ġconn ection
od y
Ġimp ort
ing ly
ĠCom mittee
7 0
Ġf ees
re ct
ch ange
a ction
le y
Ġst ock
Ġ ve
iz ation
Ġwh ile
older s
Ġrel ief
Ġmark et
our se
eal th
Ġreason s
Ġdel iver
at a
Ġprot ect
al s
3 3
cc ess
ĠĠĠĠĠĠĠĠĠĠĠĠĠĠĠĠ Ġ
w ith
ch ool
v es
Ġsumm ary
c y
Ġ Q
Ġcons ent
Ġver y
om p
Ġpro du
Ġexerc ise
Ġm ost
ĠP er
is c
ut ory
ĠJud ge
ort h
Ġleg isl
g ress
Ġg ive
Ġoblig ations
.C t
Ġun less
iv il
pre me
Ġcond ition
s w
led ge
em n
Ġa ffect
Ġp ass
Ġp at
ĠA ll
er g
age ment
Ġl ist
Ġan n
ex t
og n
ĠSec urities
ot ing
M r
Ġe lect
Ġdiff erent
Ġimp ro
A TION
9 0
ĠJ une
Ġinclud e
Ġf il
a j
he re
ce mber
Ġfa v
Ġm ight
is k
un ic
8 0
Ġde t
Ġch ange
ar ge
4 2
________ ________
Ġatt orney
Ġen g
ĠApp ellant
Ġlim ited
ĠMar ch
ĠTrust ee
Ġab s
Ġh and
Ġf ra
R O
Â ¶
ĠSub sid
Ġcl ass
in ing
ĠB r
r ation
p ec
ĠÂ ¶
ar n
ent ial
Ġdetermin e
ĠCom m
a pp
Ġb ur
Ġ( âĢľ
Ġb ack
ĠEm ploy
or n
im es
Ġsu p
Ġent ered
i res
Ġcontro l
ĠAN D
ĠDe cember
ic ip
Ġoffic er
Ġre du
Ġlet ter
ĠB ut
5 6
anu ary
Ġp ort
ĠPart y
la w
T h
Ġdetermin ation
- d
ĠĠĠĠĠĠĠĠ ĠĠ
Ġc op
Ġan al
ĠO ff
Ġh ow
ĠP r
all en
Ġhere in
Ġas se
al th
p le
l es
Ġmean ing
Ġde bt
med i
ĠAr ticle
ĠTr ans
Ġfollow s
ĠJ uly
- c
Ġbenef it
a u
ĠP erson
ĠĠĠĠĠĠĠĠ ĠĠĠĠĠ
ar ies
en ant
Ġreason ably
Ġst r
ĠJ anuary
Ġconsider ation
Ġac qu
oh n
Ġmain tain
t e
................ ................
( c
a red
Ġdut y
ord s
ĠA pr
ĠEx ecutive
Ġpartic ip
Ġen force
b it
ĠC ity
. D
ĠSe pt
Ġm embers
Ġtransf er
1 00
ĠO ct
Ġm oney
ĠS he
Ġpos ition
Ġcourt s
Ġde m
Ġsh ares
Ġrel ated
Ġd ra
Ġmed ical
ĠAm eric
ort g
Ġt ru
Ġl oss
u ation
Ġdes cribed
Ġfin ancial
ers hip
Ġpro duct
Ġcomm on
ĠSu preme
Ġth ird
Ġf un
Ġin st
c ent
Ġde em
ĠF in
ens ation
clud ing
R E
Ġin it
Ġre al
Ġprinc ipal
Ġl ic
T H
e ed
ĠOr der
4 4
ĠAm endment
Ġc ourse
ar s
Ġle ast
u ch
u p
Ġse par
ad y
ĠDefendant s
Ġcons ist
ver se
Ġpre vious
U S
pos ition
Ġregard ing
ĠApr il
ar ily
Ġl ater
r al
Ġref erred
Ġdocu ments
G E
ĠG eneral
ment al
Ġt reat
Ġad o
Ġhe alth
Ġass ist
er ing
ol og
Ġbenef its
al es
at eral
âĢ ĵ
Ġdef ined
Ġmonth s
Ġpro sec
Ġr ate
a fter
Ġchild ren
Ġnot e
Ġcur rent
g in
t al
Ġch allen
se e
Ġn ame
Ġw arrant
ĠSept ember
ĠOct ober
ĠC redit
Ġins urance
Ġam endment
ĠD irect
ĠR E
Ġloc al
Ġf l
ĠP re
Ġproceed ing
Ġse ver
Ġs ince
ie ld
Ġestabl ished
Ġbel ow
Ġcont r
c ri
ĠM s
Ġc al
Ġsup ra
Ġagre ed
Ġpro m
Ġsu ccess
ac hed
Ġperson al
ĠA ug
ĠM ember
Ġargu es
Ġex ecut
Ġth ink
ĠT er
Ġr isk
Ġemploy ee
ĠâĢ ĺ
Ġviol ation
Ġad v
7 5
il i
IN G
iz e
Ġb ro
y ing
Ġstate ments
Ġrec ogn
6 6
ĠApp eal
gg est
Ġdist rib
Ġsu it
, "
op e
ch n
p ret
ens ion
Ġcom pl
Ġm aking
Ġan sw
ĠM an
3 4
ir on
Ġdocu ment
Ġinj ury
ĠRe p
Ġlim it
j ust
Ġapp oint
ĠJ ohn
Ġm any
Ġfav or
il ding
ĠĠĠĠĠĠĠĠ ĠĠĠĠĠĠĠ
Ġcr iminal
Ġsu ggest
Ġp ost
Ġsec urity
Ġt itle
ĠL i
Ġim medi
u ro
Ġcor rect
ent ure
Ġl ast
Ġde al
Ġpro gram
e g
Ġy our
Ġm er
ĠL and
ĠAcc ord
Ġemploy ees
ĠF eb
Ġrul es
Ġever y
s h
ĠF irst
Ġag ency
o id
Ġso le
Ġle vel
C A
Ġpro f
a ce
Ġf am
os ing
ĠAd ministrative
ĠPlaintiff s
Ġsub mitted
Ġde cl
ĠO R
ri ef
Ġeffect ive
ical ly
Ġdef ense
i pl
ific ate
ot ion
Ġres ol
Ġs it
ĠAug ust
ific ant
ĠIn t
Ġve h
ĠNo ve
Ġs af
over y
il ities
ĠNove mber
ac y
Ġre st
ĠS en
Ġgu il
Ġval id
ol ic
ĠS o
L L
ru pt
Ġper cent
con om
s p
Ġchar ge
ru ary
Ġ ed
Ġstat utory
Ġinc ome
Ġh igh
Ġv ar
Ġatt empt
Ġp ut
aj or
Ġhere by
v iron
Ġrem ed
Ġperform ance
Ġpol ice
ĠH ouse
ĠO ffic
Ġf ile
Ġam end
T R
mis es
la y
ĠCir c
Ġl an
Ġpurch ase
ĠAn d
im um
ĠĠĠĠĠĠĠĠ ĠĠĠĠĠĠ
Ġact ions
ĠMin ister
Ġpre p
enc ing
Ġare a
Ġor gan
Ġpay ments
Ġp arent
Ġc over
is s
ove red
Ġcontain ed
7 8
3 2
Ġsh are
Ġexp la
ir med
el le
Ġman ner
Ġs chool
er 's
v est
ĠFeb ruary
ĠD ocu
ĠC ol
oll ateral
Ġrel ating
ag ed
5 8
e qu
Ġh ome
p ro
iver s
Ġorig inal
Ġoffic ers
Ġch ang
Ġlaw s
Ġl it
Ġph ys
Ġsubstant ial
Ġc orporation
Ġregul ations
ot e
ĉ ĉ
Ġm ar
Ġent ire
5 9
Ġexp enses
Ġbur den
Ġne ver
Ġacc ess
- t
s erv
Ġto tal
ly ing
Ġinter pret
Ġpresent ed
Ġh old
ĠP res
un t
Ġspec ial
ut ions
t en
Ġconstit ution
Ġbre ach
i am
k now
iv ing
istr ation
Ġsu per
ĠP urch
Ġask ed
ĠY ork
Ġpre jud
Ġre ad
ĠĠĠĠĠĠĠĠ ĠĠĠĠ
Ġdeem ed
Ġinclud ed
Ġref erence
gu age
Ġperson s
ii i
Ġn ature
ys is
enc es
he du
hedu le
Ġme as
Ġdefendant 's
end ent
Ġspec ified
Ġneg lig
P P
ĠS T
Ġw ant
Ġfa ir
Ġint ended
Ġtermin ation
Ġf ut
iv ision
Ġbeh alf
Ġde ath
b or
Ġdis clos
a h
Ġf ee
Ġb ar
ĠW ill
Ġl ight
Ġ( "
in ary
ive red
ou th
ĠSu pp
al k
ĠPart icip
ne w
Ġar bit
go ing
ĠCirc uit
it or
ru g
I ON
Ġo mitted
se qu
Ġfund s
ri al
Ġappl ied
Ġrem o
Ġh our
Ġrequ ires
ĠNot es
ĠNot e
Ġopp ort
ĠSec urity
ortg age
ĠT ex
ĠN ational
Ġado pt
o ok
Ġrece ive
Ġapplic ant
en ced
Ġdef in
Ġrequest ed
." ĊĊ
Ġest ate
Ġasse ts
Ġc ent
ĠA ff
it ive
Ġlan guage
Ġla ck
Ġpr ice
Ġg et
Ġre str
pon d
Ġre n
Ġrel ations
- f
Ġoblig ation
Ġcont rib
Ġc lause
Ġinvol ved
l ord
ĠThe y
Ġproper ly
ĠIs su
ĠUn der
19 5
i aries
ter s
b ur
im ate
Ġsubse qu
Ġconclus ion
ĠB u
5 7
d ay
ate g
Ġd ri
Ġinterest s
, âĢĿ
a ff
Ġposs ession
ee k
Ġb rief
Ġop en
Ġst ates
Ġfinding s
Ġsign ificant
Ġcourt 's
Ġd ou
Ġoff ice
Ġmatter s
Ġfil ing
ic s
ĠIn s
i ation
L C
Ġnot ed
Ġt y
ĠGu arant
ĠServ ice
ict im
Ġde mon
Ġpr im
ĠE uro
on s
Ġrespond ent
.E d
g er
Ġpre vent
Ġdemon str
Ġde p
I D
6 8
Ġf ive
Ġfor ce
ĠT enant
Ġd own
C E
ident ial
Ġbr ought
Ġper mitted
Ġhere under
Ġe conom
Ġrequire ment
Ġfa c
Ġrecord s
Ġr ather
ol id
Ġf our
ĠB ro
Ġd ata
Ġequ al
Ġcomp ensation
ĠOff ice
Ġfut ure
Ġc he
h ing
Ġdel ivered
A pp
Ġs m
ĠS EC
an e
Ġst ud
Ġpay able
Ġg en
ĠCoun cil
R A
I A
Ġint ent
in cluding
ĠSh ares
re et
g reg
Ġm uch
Ġknow ledge
Ġa ut
ĠâĢ ĵ
ver t
i ence
ĠO b
19 3
Ġm ajor
Ġto ld
hib it
Ġbec ome
re st
4 1
Ġclear ly
D ER
Ġcol lect
e ad
ot t
Ġsubse ction
Ġd ated
Ġs ix
Ġm eth
en al
Ġsever al
ict ions
ĠPro per
ĠAt t
Ġm ere
Ġguil ty
miss ions
6 9
Ġf ul
Ġin su
ĠB y
Ġex ec
l er
Ġamount s
ĠJ ust
Ġv ol
Ġre d
Ġport ion
ĠW hen
Ġex pect
r ing
im ately
Ġposs ible
b le
Ġoccur red
Ġcount ry
Ġe t
7 9
Ġle ave
Ġconv iction
Ġinc ur
Ġauthor ized
Ġimmedi ately
ub l
Ġaff irm
ĠA D
Ġm ember
. --
F R
x t
Ġcomp et
ec ause
Ġv ictim
Ġm ill
Ġwho le
Ġcop y
Ġprob le
Ġs ell
am p
Ġc ross
ĠR est
Ġs ought
t t
Ġconstru ction
oc ial
Ġdem and
os p
y er
b e
Ġfra ud
Ġass oci
Ġg overn
ĠR ec
ion al
Ġd one
Ġpro ject
- C
I R
r imin
Ġdirect ly
W e
ve y
0 1
Ġsec urities
w are
Ġp ot
ul ations
e v
ify ing
Ġad vis
ay ment
Ġimport ant
ip le
ri es
re ady
ĠS m
Ġtreat ment
Ġtru e
Ġanal ysis
Ġhere of
Ġcust om
Ġex pl
ĠC orp
Ġv is
âĢĿ )
ul es
Ġactiv ities
Ġconstit ute
ĠA L
ĠC laim
I t
Ġbelie ve
ĠC r
Ġcr it
Ġ Z
ĠCon gress
Ġb oard
ĠP a
i pt
Ġal ready
Ġe ff
Ġrespon se
==== ====
Ġexecut ed
get her
Ġto gether
j ection
ĠApp lic
.A pp
Ġrec omm
Ġoff ense
is ions
Ġveh icle
Ġgeneral ly
Ġdet ail
ĠC ar
/ or
Ġl ife
Ġwr iting
ĠPres ident
U N
Ġact ual
ĠW ith
Ġrelations hip
Ġcomplet e
ĠT ax
d ict
rupt cy
Ġb l
Ġab le
ĠTh us
Ġw eek
ing ton
em ption
Ġn ational
f act
ĠD ec
( d
Ġte chn
Ġrel ation
Ġdevelop ment
i um
ear ch
t ies
ministr ation
ĠD is
Ġd rug
ro du
Ġopport unity
Ġst ill
l p
ak er
Ġoffic ial
o per
Ġ`` (
Ġsu ff
Ġgr oup
- m
us es
Ġad ministrative
Th is
ĠR ight
ĠĠĠĠĠĠĠĠĠĠĠĠĠĠĠĠ ĠĠĠ
Ġquest ions
el f
6 5
Ġalleg ations
Ġt en
ĠC ert
g r
Ġt re
Ġac know
7 7
Ġeff ort
ĠInd enture
ac ity
id ed
Ġth us
Ġconstitution al
ir ing
Ġit self
ri end
ĠF l
Ġjud icial
Ġlo ok
Ġun re
Ġcontin ue
' t
ĠA fter
bt ed
Ġdismiss ed
Ġexist ing
Ġsepar ate
ock et
Ġdisp ute
Ġra ised
Ġim m
ĠT O
Ġcont ends
Ġver dict
Ġne xt
un al
id av
Ġadd ed
ist ered
la ce
Ġex ceed
at ter
Ġca used
v ol
ĠI m
s ide
der s
ĠP etition
Ġconclud ed
Ġw ords
at ives
Ġcomp ly
ful ly
Ġc it
act er
ĠC ON
Ġind ep
ĠLand lord
Ġconcern ing
ĠI ll
Ġb al
8 8
T S
Ġh ouse
Ġle ft
Ġimp act
Ġpetition er
Ġpro of
s pect
Ġl ine
ĠParticip ant
Ġdis ch
Ġground s
or m
Ġc ash
Ġorder s
Ġh arm
our ces
9 9
Ġb est
ĠOffic er
d ition
st ain
st ate
ĠI I
ĠIn vest
ic ult
Ġad equ
Ġmeth od
Ġprot ection
ak es
Ġen sure
Ġde pos
Ġbu ilding
Ġper mit
Ġansw er
ĠS ell
Ġar r
Ġcal c
Ġab use
Ġcom ment
Ġrece ipt
4 3
act ions
Ġknow n
Ġcontr ary
Ġpre ced
Ġw ater
Ġm et
ĠSt at
I d
Ġmeet ing
w h
Ġdo ct
ĠB ill
Ġind ust
Ġpriv ate
ĠEuro pe
Ġfore going
19 4
Ġdou bt
Ġappro val
Ġgo ing
s y
Ġam ong
ĠT rib
ĠC orporation
Ġfact ors
l ict
ĠProper ty
Ġchar ged
Ġse x
Ġassess ment
Ġhe lp
ĠThe se
t ing
as er
Ġcompl iance
ven ue
ĠN O
am es
Ġcap ital
c om
in ding
c ing
ĊĊ ĊĊĊ
6 7
Ġsu stain
ĠL LC
Ġdef ault
e y
ee p
Ġar rest
Ġim posed
em p
ĠAccord ingly
ĠSubsid iary
ĠD a
Ġthere to
Ġfam ily
at ors
C H
on t
Ġinter n
Ġt imes
Ġwh y
Ġex clus
ent al
Ġclaim ant
ĠĠĠĠĠĠĠĠĠĠĠĠĠĠĠĠĠĠĠĠĠĠĠĠ Ġ
Ġout standing
ĠS pec
Ġh ist
Ġcon sum
ĠF urther
Ġpro pos
Ġh olding
ĠM ed
Ġconclud e
Ġappear s
Ġcomm unic
S A
l ine
Ġchar ges
l imin
Ġple ad
Ġt urn
ĠH ealth
is es
l ing
Ġappro ved
Ġc ivil
Ġmill ion
Ġcom mission
ĠIn tern
Ġchar acter
st ance
Ġre ject
Ġad just
Ġtrans action
as k
er ve
e as
ĠF r
Ġent er
Ġdut ies
Ġcount y
Ġcr ime
ĠAl though
Ġdiff icult
Ġspecific ally
Ġp enal
ul ated
Ġal tern
Ġsh ort
Ġto ok
Ġed uc
Ġit em
ĠJust ice
Ġcall ed
Ġimp lement
Ġf ree
l i
Ġexper t
ffect ive
Ġpr ison
UR T
Ġaff idav
Ġdeliver y
ru ct
Ġdetermin ing
ĠInt erest
pt ions
Ġtak ing
Ġman agement
Ġc red
ĠO ption
n ership
Ġen c
Ġim pl
Ġoff er
h olders
ĠF OR
Ġcom ments
ect ions
Ġact s
Ġag ent
Ġlim itation
Ġser ious
Ġagree ments
osp ital
elle e
ĠEx change
Ġe val
Ġregul ation
- b
Ġpract ice
Ġ erred
greg ate
Ġint ention
e bted
Ġagre es
Ġth reat
O n
Ġind emn
AT E
Ġf ar
Ġown er
ĠC ent
Ġal though
Ġassist ance
h io
Ġfa ith
Ġrem and
Ġhere to
Ġple a
Ġe arl
Ġincre ase
Ġj ob
ro l
Ġneglig ence
ip ment
erc ial
ĠL t
ĠSec ond
um an
Ġ id
Ġallow ed
Ġent ity
I L
ĠD IS
ĠB usiness
PA GE
Ġprevious ly
eren ces
ĠAn y
S ection
en ed
ĠCO URT
Ġf ire
Ġus ing
ĠWill iam
ĠW L
at t
Ġlike ly
ĠM ich
Ġoper ation
w w
Ġsm all
Ġdec isions
Ġcar ri
Ġident ified
C C
ra w
ĠRe port
Ġre vers
ĠâĢľ [
Ġle ase
Ġob serv
ĠP h
ard s
Ġpro hib
? ĊĊ
Ġg re
ap ter
Ġemploy er
Ġsign ed
Ġcom mitted
Ġar t
with standing
enc ies
Ġ ir
Ġref lect
Ġli able
Ġpres um
p ly
Ġexam ple
Ġobtain ed
Ġhour s
ow ers
Ġg reat
ĠB ecause
Ġincur red
Ġconc ur
A A
M P
I V
in a
os ed
ĠTex as
D E
Ġcert ificate
u es
Ġplaintiff 's
th ing
Ġcap acity
Ġs ing
Ġconsist ent
ĠH older
ĠA uthor
ĠC ollateral
ebted ness
Ġful ly
Ġcar ry
Ġp ubl
an n
Ġgiv ing
Ġtr ade
ĠMr s
ed u
o or
Ġother s
Ġacc ident
Ġcont act
Ġsu sp
Ġcom e
Ġnot hing
y ond
ĠEn g
if orn
Ġj oint
Ġdefin ition
o v
ĠLt d
. ]
Ġde g
Ġauthor ities
ĠE C
Ġs old
8 9
et t
Ġord ered
Ġwr ong
um b
iforn ia
ĠServ ices
Ġst ep
A s
ell ate
Ġcons ult
Ġex cess
Ġm and
le x
ĠAppeal s
ĠAmeric an
Ġob jection
air s
ĠSc hedule
ĠDef ault
Ġ |
Ġconf lict
Ġsaf ety
Ġsett lement
w ealth
Ġar ising
viron mental
ĠAL J
an ies
Ġbe yond
Ġ ess
ĠT e
Ġint rodu
Ġprejud ice
Ġcon sequ
olog y
ĠNot ice
. âĢĻ
u fact
er ation
Ġcont ext
T ER
Ġde lay
Ġappeal s
Ġpot ential
ĠOb lig
is m
cri ption
Ġav oid
em pl
Ġth ough
Ġwitness es
ĠRes pond
Ġdisc rimin
Ġappl ies
Ġaff irmed
ĠSm ith
Ġad verse
5 00
en ess
ĠAcc ount
Ġad mitted
form ation
ĠThere fore
Ġarr ange
ĠU N
Ġag gregate
ĠF und
Ġearl ier
Ġstandard s
Ġrele ase
Ġcomp la
Ġvar ious
Ġst ri
Ġan t
Ġfact ual
ĠN or
Ġinc ident
Ġres id
Ġimpro ve
ĠDocu ments
qu oting
Ġclaim ed
Ġsatisf ied
Ġlimit ations
it able
ar ly
Ġex change
Ġman ufact
ĠDe bt
Ġqu ot
Ġstat us
. g
Ġshow ing
Ġf el
ĠCal ifornia
ĠPro ced
Ġre nt
le man
ĠCont ract
Ġwa iver
Ġsuper vis
ĠReg ulation
Ġenforce ment
ic ation
Ġcomm unity
Ġsc he
ĠLe ase
Ġas su
o pp
Ġlegisl ation
Ġshow n
Ġchang es
- s
orpor ate
Ġbr ing
. J
Ġfa cil
le ments
ward s
ĠM otion
I G
; ĊĊ
S E
ll ed
Ġb ound
ĠS outh
, ĊĊ
Ġmot her
Ġsubsequ ent
Ġreg istration
ĠC an
Ġe lig
0 2
ĠC ivil
Ġf e
Ġoff ered
er k
ab ilities
. '
" )
Ġm ortgage
Ġphys ical
Ġexpress ly
ĠR ules
as ter
Ġaccept ed
ĠL et
Ġseek ing
O C
Ġproced ures
Ġprovid ing
o x
Ġo ption
ĠRight s
o ot
on es
Ġinit ial
Ġlic ense
w ork
Ġwith d
---------------- ----------------
19 2
ĠM ore
Ġin qu
ĠWh ile
Ġout side
un ction
ef endant
Ġm akes
Ġabs ence
Ġm ult
Ġte le
Ġl arge
ĠCommon wealth
ĠT itle
ph asis
Ġb ond
Ġp un
Ġs earch
F OR
.. .
Ġwh om
ĠEurope an
Ġwork ing
ang er
) ).
he ther
con t
Ġgu arant
Ġform er
Ġsing le
ĠLe g
Ġexec ution
ĠE d
Ġindep endent
Ġunder stand
y n
Ġsupp lement
ER E
Ġcontinu ed
Ġserv ed
ĠP ublic
Ġpro ve
Ġexpla ined
Ġsubstant ially
ĠE ach
Ġbal ance
Ġcl ose
Ġactiv ity
ĠEmploy ee
ĠF ed
Ġde ed
Ġtrans actions
Ġm il
ipl es
ĠSubsid iaries
Ġdam age
Ġg ave
Ġinvest igation
Ġacknow led
O L
mitt ing
Ġdecl ar
i ency
Ġhim self
Ġproduct s
) ĊĊ
ic les
Ġsim ply
Ġk ind
S t
ĠLo ans
d ered
ĠW ash
g ue
ĠC t
19 1
ĠS ch
8 5
ĠM ark
Ġmajor ity
ĠPart ies
Ġaut om
ert ain
emp or
A n
Ġs om
ĠS p
ĠE qu
. P
Ġact ually
b and
Ġindic ated
Ġlit igation
- p
Ġa ware
Ġrec over
Ġ" [
ĠUn ion
M M
ut or
ĠRest r
Ġp ast
ĠP eople
re en
Ġf all
Ġtax es
Ġche ck
Ġgu id
Ġappro ach
Ġthere in
Ġlo an
if t
Ġa ir
Ġcoun ter
ĠTrib unal
Ġre tain
Ġm ail
Ġm ention
ĠAtt orney
ĠC ap
Ġbe gin
Ġadopt ed
ĠSell er
Ġare as
Ġconcern ed
qu id
um ber
ĠN orth
Ġpla ced
Ġab ility
Ġnot es
Ġr un
7 6
Ġd om
Ġf urn
g ing
Ġdirect ed
Ġrespons ible
vent ion
a z
h am
Ġassign ment
Ġdistrib ution
ĠH on
ren ce
ĠW est
Ġw ife
Ġb ody
Ġinclud es
Ġsupport ed
Ġown ed
Ġ es
Ġpre mises
Ġs ide
S T
Ġsit uation
Ġn et
Ġeconom ic
Ġ X
ĠCon s
ĠCommission er
Ġdeg ree
Ġsub mit
in o
Ġcont empl
ĠPer iod
Ġexcept ion
Ġrul ing
le ge
m its
est ed
our ce
ministr ator
ĠÂ £
Ġinstru ctions
Ġde v
Ġc overed
ĠP ar
om es
ĠD E
ĠRe qu
isc al
AN D
Ġcon vers
Ġc ity
Ġwh ose
en g
Ġsent encing
Ġresult s
ĉĠ ĉĠ
9 5
Ġcom b
- Ċ
Ġsc ope
o ff
Ġcomm it
Ġreg istered
Ġs ales
Ġden ial
ĠA PP
Ġ ,
h old
10 1
x imately
Ġunder t
Ġha pp
ron t
ĠD ist
Ġf ix
ĠO ne
Ġinterpret ation
Ġrespect ive
Ġlist ed
em or
Ġargu ments
( e
ĠA ust
ĠAss oci
Ġa ge
Ġne ither
Ġcust ody
ther n
9 8
Ġv ac
1 20
ĠGr oup
ĠLender s
o le
bur se
Ġmere ly
Ġhist ory
Ġdiscuss ed
way s
Ġdec ided
Ġgre ater
ĠĠĠĠĠĠĠĠĠĠĠĠĠĠĠĠĠĠĠĠĠĠĠĠ ĠĠ
ĠSu per
Ġdo ing
Ġfail s
ĠW ork
Ġdisc overy
ud get
Ġde b
Ġent ry
h older
ĠU S
Ġaltern ative
ĠĠĠĠĠĠĠĠĠĠĠĠĠĠĠĠ ĠĠĠĠĠ
Ġwe ight
ĠCon stitution
Ġe lection
Ġocc up
ĠA G
Ġpolic ies
L A
Ġf re
a ving
ĠG e
E x
se t
ĠTer m
it ary
Ġinvest ment
Ġbank ruptcy
Ġd ivid
s c
pon s
ĠD ay
Ġw ent
. m
Ġvol unt
Ġh ab
Ġremed y
ĠIn formation
Ġinvest ig
ar c
Ġreport s
Ġaffidav it
D A
Ġord inary
ent leman
ĠReg ulations
Ġprinc iples
1 10
Ġc ited
Ġproced ure
at ic
Ġst art
ourt h
Ġexist ence
Ġfore ign
ĠĠĠĠĠĠĠĠĠĠĠĠĠĠĠĠ ĠĠ
Ġ ut
ĠAn n
Ġequ ity
Ġp ending
ĠI II
ĠO hio
Ġremain ing
< PAGE
Ġm ove
us band
iv al
0 5
ag er
ĠAff ili
Ġp owers
T ex
ĠE vent
ĠIn ter
Ġm ur
Ġch o
Ġjust ice
Ġaffect ed
Ġen act
or ld
Ġindividual s
ĠPetition er
ag ing
oc ation
âĢĿ ),
Ġhe ard
Ġproceed s
ar ch
ĠDirect or
Ġchallen ge
ĠA C
Ġto o
ĠQ u
itt le
Ġdis s
ĠDe p
ĠP RO
Ġdesign ated
Ġs w
Ġh ig
0 3
ĠW arrant
Ġth ings
anc ing
Ġlong er
y ear
Ġco ven
Ġk eep
Ġ /
Ġl ot
Ġrecomm end
Ġprotect ed
Ġany thing
ĠSu ch
orne ys
Ġeng aged
Ġpoint s
Ġa ver
ron ic
ĠP at
] ,
c iting
U D
es see
Ġprim ary
Ġdismiss al
er y
Ġsche me
Ġst ay
ĠR o
Ġinstru ction
Ġhe ad
Ġfa ce
miss ible
Ġinstru ment
ĠD oc
ĠS U
ĠWash ington
Ġdis ability
a cc
ĠCh ief
Ġconduct ed
Ġro ad
ch ie
ĠRespond ent
ĠRestr icted
Ġpriv ile
Ġun f
Ġindust ry
Ġneg ot
Ġ ur
Ġunre ason
Ġo w
Ġprom pt
- ex
ater ial
Ġloc ated
al se
ax imum
Ġapp arent
Ġcre ated
Ġamend ments
an ch
ĠCl osing
Ġtime ly
I B
ĠV al
Ġst aff
la ck
Ġann ual
ĠM ill
ĠAd dition
ct ed
ĠM embers
Ġsub stance
Ġun d
Ġargu ed
Ġf ather
ĠMan agement
Ġperform ed
Ġocc as
Ġwr it
Ġcol lection
Ġcover age
Ġex clud
ĠC ase
Ġneed s
ES S
Ġinf l
r ine
ĠM o
ad a
Ġthere after
Ġequ ipment
9 7
us ing
ĠG l
ar ter
Ġty pe
Ġexam ination
m b
Ġfun ction
10 2
Ġcontract s
Ġeduc ation
ĠB ar
- re
Ġcomp anies
ĠD o
Ġeffort s
S ec
Ġsub d
Ġresult ing
Ġpat ent
ĠR ate
m ore
0 4
Ġpl ans
Ġmeas ures
Ġresol ution
c ome
id ing
Ġsole ly
ĠL im
Ġm ental
Ġh ar
Ġd uly
ĠOR DER
ĠR ef
ĠB e
ĠR el
ĠĠĠĠĠĠĠĠĠĠĠĠĠĠĠĠĠĠĠĠĠĠĠĠ ĠĠĠĠĠ
Ġacc ru
Ġpol it
Ġstand ing
ir y
> ĊĊ
ĠJohn son
Ġrespons ibility
ĠĠĠĠĠĠĠĠĠĠĠĠĠĠĠĠ ĠĠĠĠ
Ġarbit ration
ĠProced ure
f ord
ivers ity
ĠA S
th at
Ġre se
Ġimpro per
5 2
Ġdisclos ure
ul ed
Ġreport ed
Ġun c
ĠGr ant
ĠIssu er
ĠS w
ĠEx hibit
8 7
ĠCl ass
9 6
Ġprosec ution
Ġmin d
Ġpubl ished
am ed
Ġd edu
Ġgood s
I M
ten ance
Ġas sum
Ġprof ession
ĠAuthor ity
AN T
Ġexpect ed
Ġpla in
p s
ic ated
- year
ĠĠĠĠĠĠĠĠĠĠĠĠĠĠĠĠĠĠĠĠĠĠĠĠ ĠĠĠ
Ġconstru ed
Ġassign ed
Ġden ying
Ġmo ved
u pp
b s
Ġappro ximately
Ġatt ached
i pp
ĠPro t
Ġh ospital
ĠC FR
Ġfind s
Ġtrans port
Ġprinc iple
Ġprep ared
Ġor al
Ġcit iz
ĠĠĠĠĠĠĠĠĠĠĠĠĠĠĠĠ ĠĠĠĠĠĠĠ
A B
Ġmaterial s
Ġcomm ercial
10 4
Ġp red
Ġre vis
Ġre v
ĠSt reet
p ay
Ġqual ified
Ġcirc uit
Ġfor ward
AT ES
Ġalleg es
Ġa chie
10 6
Ġrel ied
Ġs ocial
ĠP l
ĠInd emn
og raph
Ġdirect ors
as ing
Ġto day
Ġcont ention
Ġser ve
Ġins ert
Ġapp ellate
ĠA c
Ġtrust ee
gra ms
Ġdisch arge
oun g
at ural
Ã ©
ok e
f e
ous ing
Ġmin imum
Ġemploy ed
Ġaccord ing
Ġshow s
ro g
E L
5 1
Ġcons olid
ĠĠĠĠĠĠĠĠĠĠĠĠĠĠĠĠ ĠĠĠĠĠĠ
Ġd anger
Ġbro ad
11 1
Ġproble m
ĠE PA
Ġf alse
I P
ĠW il
Ġarbit r
Ġun able
.ĊĊ ĊĊ
v ail
ĠSt and
arn ed
ut y
Ġe l
8 6
0 6
ĠCont rol
ĠM or
Ġv ote
est ic
Ġmur der
Ġk new
Ġst ruct
ĠF riend
ient s
Ġ \
Ġsex ual
ĠP age
h olding
A M
an ced
Ġind irect
Ġaddress ed
ĠPurch aser
ir t
h a
ĠD es
Ġf ew
Ġviol ated
Ġb inding
Ġc e
Ġexp ense
it ure
ĠBro wn
Ġremo val
Ġcon vey
f erred
Ġmer its
ia ment
Ġref used
ut ing
P laintiff
Ġoper ations
is ition
Ġmin or
p ir
Ġinj ur
ĠL ab
Ġadequ ate
ĠI S
Ġper man
Ġinform ed
Ġdoct rine
om in
ic it
ĠH ar
Ġassert ed
ĠP ri
Ġc ame
P R
Ġp ers
S W
ish ing
F F
10 3
Ġpart nership
Ġar gue
S U
ĠA R
19 0
ĠL a
- h
i able
ĠPro duct
Ġw om
Ġcontempl ated
f er
ist ent
er ce
/ /
ĠP ay
o red
ĠS pe
Ġappoint ed
ĠInd ebtedness
ĠMore over
ĠO ther
ef ore
Ġrecogn ized
Ġs l
IT ED
Ġatt orneys
Ġact ing
ĠM iss
Ġren dered
Ġgrant ing
Ġw ord
Ġstr ong
re w
Ġbec ame
Ġevent s
ĠIns urance
Ġreturn ed
ĠS im
Ġbet ter
Ġelig ible
r it
Ġdec la
il leg
C O
ĠB l
Ġa ud
ous ly
Ġinst all
un ities
Ġr ange
Ġassoci ated
Ġinc ons
ĠAust ral
Ġy et
âĢĶ Ċ
Ġprodu ction
ĠInd ian
an a
ĠFor m
Ġe lements
ĠAg ency
Ġd ire
ĠL ic
ro ad
Ġon ce
ĠK ing
id a
Ġsu re
ific ations
stit ute
Ġdist in
Ġown ership
ĠA ir
Ġnor m
Ġb ook
Ġre ach
ĠS er
Ġp age
TI C
Ġfact or
Ġs ite
Ġ ill
emor and
Ġdec ree
ve re
ĠState ment
ĠĠĠĠĠĠĠĠĠĠĠĠĠĠĠĠĠĠĠĠĠĠĠĠ ĠĠĠĠĠĠ
- in
iz ing
Ġparticular ly
Ġ ult
Ġconv icted
Ġfail ing
ph one
Ġp ain
TR IC
10 5
ĠOblig ations
Ġf iscal
el ines
el s
limin ary
ĠPr ice
Ġwithd raw
Ġinvol ving
ĠComp laint
Ġexper ience
Ġass ault
Ġtre ated
ĠCoun sel
Ġmot ions
Ġrec on
ĠP ol
Ġpenal ty
Ġad jud
Ġli quid
Ġr ates
Ġseek s
or 's
Ġc ateg
Ġlegisl ative
anc y
Ġrequest s
ĠU pon
ĠP e
ent y
Ġcomplet ed
âĢ ¦
Ġest im
r s
Ġ illeg
AR T
w ell
ic iary
ĠE X
Ġissu ance
oll ars
sel ves
a per
ĠEC F
U n
Ġh usband
Ġl ittle
ĠF ac
Ġincre ased
Ġm aximum
Ġtra ining
Ġtermin ate
Ġdiscrimin ation
Ġar ound
ĠGe or
Ġitem s
Ġ z
Ġcre ate
Ġinsu fficient
Ġsub sid
0 7
ag istr
Ġassert s
E X
ire ment
eth ing
Ġf irm
N o
p ite
Ġs k
Ġconcern s
Ġunder lying
ĠAmeric a
ĠPro gram
en e
Ġinjur ies
Ġdef ect
os ition
Ġsur v
Ġli en
ne y
Ġpro spect
Ġir re
Ġe lement
Ġsp e
Ġdis position
r ist
ffic iency
Ġrec overy
Ġtermin ated
ĠD ivision
us al
- S
Ġty p
um m
ig ration
Ġc orporate
ĠĠĠĠĠĠĠĠĠĠĠĠĠĠĠĠĠĠĠĠĠĠĠĠ ĠĠĠĠĠĠĠ
i ber
- A
E M
ĠC or
Ġord in
Ġse lect
Ġs elf
Ġcontinu ing
ing u
Ġsay s
ĠR ober
: //
ĠM e
Ġeval u
5 4
Ġneed ed
Ġexpress ed
Ġthere by
5 3
Ġconf idential
ĠB ur
Ġs an
Ġj o
Ġh older
Ġt ext
ĠGuarant or
Ġre im
oc al
om s
Ġt empor
Ġtransf erred
? Ċ
Ġtr ad
ĠA ward
ĠP ark
ĠL ord
ĠA M
Ġaccount s
Ġex c
ĠDocu ment
em ploy
Ġorig in
Ġad ministration
D oc
Ġrec ent
Ġun law
Ġs al
Ġra ise
Ġsaf e
b ut
Ġfacil ities
AR Y
er ia
if ies
ĠW here
Ġnegot i
Ġ {
ĉĉ ĉ
ĠO p
Ġrequ iring
ap s
ĠReg istr
Ġinst ead
ĠF ore
f erence
ir ty
y l
Ġt ort
B y
ĠWilliam s
r ison
ĠT R
ER S
Ġmention ed
11 2
Ġregul atory
ĠCap ital
Ġl ower
ag n
Ġun p
Ġpre m
min ation
Ġres erv
Ġre new
Ġh uman
ĠFl or
ĠRe view
con duct
c he
al d
tern al
g y
( s
ĠV ol
al id
Ġro le
o res
re as
TRIC T
Ġappellant s
Ġd er
k t
Ġpolit ical
Ġinqu iry
Ġrepresent ation
n el
Ġd on
ĉĠ ĉ
Ġr ise
gr ound
ĠM ass
- P
Ġar ticle
Ġdra w
Ġg as
Ġde ce
k ing
Ġproble ms
Ġle ad
ol ute
viron ment
Ġreject ed
is hes
Ġexist s
I f
0 8
. L
ĠĠĠĠĠĠĠĠĠĠĠĠĠĠĠĠĠĠĠĠĠĠĠĠ ĠĠĠĠ
Ġqual ity
ist s
ĠM y
ll ing
emorand um
Ġsom ething
qu e
Ġsustain ed
. e
ĠSen ate
Ġthe ory
Ġsee ms
C L
Ġag ents
ign ed
Ġrepresent ative
] he
ĠN e
ĠCert ificate
s ion
arl iament
Ġpre c
Ġsuff ered
ĠLet ter
Ġmain tenance
0 9
ĠC lause
Ġapp ellee
Ġra il
Ġacqu ired
Ġrevers ed
Ġs olic
Ġcont ent
Ġd i
Ġrepresent ed
ar get
ĠĠĠĠĠĠĠĠĠĠĠĠĠĠĠĠĠĠĠĠĠĠĠĠĠĠĠĠĠĠĠĠ ĠĠĠ
app ro
Ġpro grams
se y
Ġf oc
ĠM at
Ġfac ility
es sel
Ġinv alid
ĠJ ones
ĠTh ird
ĠH ere
ĠH olders
Ġal one
Ġpropos al
Ġsupp l
Ġimp air
Ġinsu red
15 0
le ase
Ġtri b
Ġdec ide
Ġal ong
ific ates
Ġfun ding
---- ĊĊ
ĠY ou
App ellant
Ġd est
Ġoper ating
re p
ĠP ayment
TH ER
ĠP R
11 5
Ġstat utes
ct ive
. Y
Ġcurrent ly
id ge
Ġdemonstr ate
Ġreg ular
ob al
Ġinj unction
Ġess ential
ord in
ra ft
ĠN umber
Ġobserv ed
ĠSpe aker
Ġredu ction
ol ution
6 1
Ġconsider ing
um e
ĠN on
ĠFlor ida
Ġind ict
ish ment
ĠT ra
ĠP arliament
ĠWh at
ĠIntern ational
erg ency
. M
. ''
Ġredu ced
an el
Ġrese arch
Ġmar ri
i ans
RE E
ect ed
Ġs aw
F or
12 5
ĠSEC TION
- M
D efendant
Ġoff ender
10 9
T r
ĠH is
Ġa way
Ġm ist
Ġwa ived
. F
Ġt alk
erg er
du c
agistr ate
u ck
Ġn amed
Ġm or
Ġas ide
Ġst op
Ġt ell
âĢĿ ).
um p
ĠPre mises
Ġb ase
unic ipal
Ġdis ag
Ġaver age
Ġl ow
ĠM ot
ĠAd ministration
ob ile
Ġcert ified
11 3
Ġremed ies
Ġinvol ve
ĠB enef
Ġredu ce
" ),
Ġser ies
Ġen ough
Ġreview ed
ĠDIS TRICT
Ġmaintain ed
Ġfe et
Ġdire ction
vol ving
Ġhe ar
Ġst reet
Ġremo ved
ĊĊĊĊ ĊĊ
The re
Ġcom mittee
Ġmod ified
Ġref er
Ġparent s
il le
Ġmanufact ure
ĠM art
ĠE U
ĠS E
Ġcontain s
Ġrece iving
Ġequ itable
om as
Ġag encies
Ġappellant 's
Ġse en
Ġpass ed
3 00
Ġappoint ment
Ġsuccess or
Ġfollow ed
ill ed
10 7
Ġatt ack
Ġ i
k er
or der
Ġf ig
Â §
Ġrestr ictions
Ġro b
ĠD uring
S EC
ĠS ystem
ĠR ich
Ġres ources
wh ich
Ġprosec utor
ĠAssoci ation
c o
Ġposs ess
O P
ĠA b
ĠPurch ase
Ġe arly
Ġpurch ased
id es
su b
au gh
end ar
Ġmot or
Ġst ating
Ġm en
Ġext ension
ance ll
Ġprompt ly
if th
L R
Ġatt ention
ĠO per
6 3
S ee
ĠT w
erg y
Ġident ify
Ġth ought
Ġrepresent ations
Ġthem selves
Ġth irty
Ġcomp ar
d e
Ġapplic ations
Ġabs olute
Ġacc ur
l ated
cl ose
C on
sy ch
. N
13 0
======== ========
Ġconclus ions
Ġcarri ed
Ġtw enty
Ġres ident
I LL
ĠP olic
A P
Ġin stit
Ġann oun
10 8
ĠP enn
Ġpreced ing
Ġaward ed
Ġsatisf y
v an
] ĊĊ
clos ure
ĠO wn
st on
ĠS an
C h
Ġvalid ity
g l
E AL
er ated
Ġattempt ed
ĠMark et
Ġmin utes
Ġrep e
ĠW H
Ġre ached
Ġhig her
Ġnecess arily
-- Ċ
ĠG reen
ĠJud gment
Ġs ource
eng th
Ġs ense
7 2
ĠRep resent
Ġmeas ure
ĠComm unity
Ġar ri
ĠH er
Ġcomm ence
Ġremain s
Ġo ld
C R
Ġwork ers
Ġprodu ced
iz es
re c
.ĊĊ ĊĊĊ
Ġfel ony
Ġpre liminary
Ġal ways
ĠIN C
orpor ated
Ġinit i
M S
Ġbegin ning
cri pt
ĠG entleman
Ġw ar
arr ants
12 1
ĠDe velop
ig u
ĠAd ministrator
ĠAccord ing
Ġa id
ĠCom mit
Ġ )Ċ
Ġdiscuss ion
Ġmis conduct
u ine
Ġcl ar
ent ially
e ared
Ġex empt
at ch
.S upp
Ġof ten
6 2
ĠC iv
Ġilleg al
ĠReg istration
ĠBu yer
law are
Ġcompet ent
om pl
EN D
Ġen h
N ot
IT Y
ĠM aterial
Ġimm unity
ĠBr it
11 7
Ġlim its
Ġn atural
ĠC ust
ĠE R
l or
is ation
Ġs ections
Ġh y
A D
Ġal lege
und red
Ġunreason able
ĠReg ister
Ġal ter
Ġacc used
ĠP ur
Ġadv ance
ĠĠĠĠĠĠĠĠĠĠĠĠĠĠĠĠĠĠĠĠĠĠĠĠĠĠĠĠĠĠĠĠ Ġ
7 1
n o
Ġun it
Ġla bor
Ġin stitution
ĠST ATES
Ġg un
Ġsub mission
n ers
Ġp et
Ġbec omes
ĠEx p
ĠFin ancial
V E
Ġgovernment al
** **
Ġw orld
Ġh tt
Ġde ad
Ġcredit ors
Ġexerc ised
Ġtax pay
ĠĠĠĠĠĠĠĠĠĠĠĠĠĠĠĠĠĠĠĠĠĠĠĠĠĠĠĠĠĠĠĠĠĠĠĠĠĠĠĠĠĠĠĠĠĠĠĠĠĠĠĠĠĠĠĠĠĠĠĠĠĠĠĠ ĠĠĠĠĠĠĠĠĠĠĠĠĠĠĠĠĠĠĠĠĠĠĠĠĠĠĠĠĠĠĠĠĠĠĠĠĠĠĠĠĠĠĠĠĠĠĠĠĠĠĠĠĠĠĠĠĠĠĠĠĠĠĠĠ
Ġext ended
Ġtra ffic
Ġinf ring
Ġmark s
Ġimp rison
Ġindict ment
Ġst ip
T E
em phasis
Ġrel ative
our n
Ġb udget
âĢ ĺ
Ġde pri
11 4
st ood
ĠĠĠĠĠĠĠĠĠĠĠĠĠĠĠĠĠĠĠĠĠĠĠĠĠĠĠĠĠĠĠĠ ĠĠ
ĠF R
ĠAs se
Ġresid ence
Ġde partment
Ġin sure
or se
( f
ĠCh ange
Ġover r
Ġdra ft
Ġdepos it
- of
Ġexpl an
18 9
y m
Ġequ ival
.) ĊĊ
Ġb ad
Ġin e
Ġin stant
he ld
Ġaff ord
Ġadv ice
9 1
Ġsupp ly
Ġ #
Ġloc ation
ĠL ou
Ġent ities
Ġrep lace
Ġc ut
or ies
ĠM on
in ions
stru ction
Ġro om
Ġbe gan
Ġre ly
ĠU K
6 4
Ġsett ing
par agraph
Ġcrit eria
12 2
m ost
ĠW IT
Ġproced ural
Ġcor res
9 3
Ġdeclar ation
ch an
ĠS ocial
ĠJ ames
T A
âĢĻ t
ĠC ur
Ġob vious
Ġdeb ate
Ġdes crib
vid ence
Ġen ergy
ĠNot withstanding
Ġli abilities
Ġsc hed
Ġconf irm
Ġh ope
Ġgen uine
Ġp op
ist ing
Ġac ross
O S
ĠR et
ĠAm ount
Ġd iv
Ġstep s
2 25
Ġpre clud
ĠE l
Ġinter view
ap e
Ġg row
Ġperman ent
am b
Ġsub missions
Ġdes cription
Ġg ain
a el
Ġdebt or
Ġintern ational
Ġext end
Ġbeh av
Ġerr one
ĠH igh
F IC
ĠI V
ĠV ir
w here
11 6
ĠM ortgage
Ġprofession al
ĠN Y
Ġpart s
Ġpres ence
U M
Ġc ollateral
A r
REE MENT
ĠSpec ial
H S
Ġincons istent
Ġact ed
Ġsubsequ ently
ĠE duc
is her
Ġn one
Ġprob ation
Ġp ark
ĠE nt
act ory
ĠDe laware
h ood
c laim
-ex am
Ġfix ed
Ġg ra
Ġprem ium
w e
abl es
Ġv oid
ĠB E
8 3
Ġconstit utes
Ġrepresent atives
u el
Ġv essel
Ġunlaw ful
Ġelect ronic
Ġdef ic
on a
port ion
ĠCon f
Ġstr ateg
Ġad mission
Ġ{ Â¶
] .
ĠRe volving
k ins
Ġunder standing
ro p
Ġem ail
ĠJ ack
Ġpres cribed
Ġeffect s
Ġl ength
Ġapp eared
ĠTer mination
Ġl ost
ĠTh omas
Ġtele phone
Ġex emption
ress ion
9 2
v o
ur s
ĠD el
Ġenc our
f ield
________________ ________________
ro wn
ens ed
li ke
Ġsec ure
Ġbelie ved
9 4
Ġel se
Ġdiff erence
ĠSh are
- B
Ġpresum ption
Ġdirect or
ĠN et
Ġco oper
i k
ĠFin ally
Ġcount s
Ġreim burse
Ġqu ant
ĠH ow
14 0
Ġsystem s
ĠCon n
ino is
ĠC he
Ġst age
Ġcount ries
l s
........ ....
Ġpublic ation
Ġp e
Ġimp ose
Ġparticip ation
ens ive
13 2
Ġint eg
Ġinfl u
n 't
ĠSen ior
go v
U L
Ġcompla in
Ġ <
ĠM ary
W h
Ġg ross
7 3
ĠDa vid
Ġsupport ing
ĠCh ild
ĠE ffective
ĠT reas
Ġorgan ization
Ġren der
Ġintrodu ced
11 8
" .
ner gy
ud e
Ġunder stood
A m
Ġwork ed
ĠAss ist
en ing
st er
8 1
ĠSc ott
Ġdesign ed
ĠWh ite
Ġprivile ge
ĠEx cept
Ġappeal ed
le an
Ġm al
Ġviol ations
TI ES
is p
Ġcal endar
- R
Ġevid ent
Ġreport ing
ĠAG REEMENT
ill ing
Ġcop ies
air man
Ġso on
Ġim pos
.) Ċ
Ġpract ices
Ġtempor ary
omp any
Ġen j
Ġmult iple
Ġprodu ce
ri g
Ġsuggest ed
Ġindic ate
ĠDa vis
Ġv ot
Ġs ect
Ġresult ed
Ġh ard
Ġcontro lled
ĠAd v
Ġre ve
ĠVir gin
Ġmer it
12 9
Ġchang ed
ic ed
13 3
Ġvolunt ary
Ġdece ased
as ic
re hen
ĠN SW
ent h
14 4
Ġla b
25 0
ĠS chool
iv eness
ĠD O
Ġobject ions
12 8
Ġnot ify
v i
8 4
clus ion
Ġexclus ive
P ro
Ġparagraph s
ol ly
Ġsec ured
Ġen vironmental
Ġop inions
Ġtru ck
-d ay
Ġaffirm ative
ric ult
Ġp sych
Ġplead ings
gra v
12 3
the less
Ġd r
Ġas pect
qu al
Ġsit u
ee ch
Ġcl ient
ĠIll inois
se ction
. gov
1 19
13 1
ĠD C
a der
ĠDevelop ment
l in
ĠPolic y
Ġimprison ment
ĠC H
( i
Ġe ight
Ġprob able
Ġcons pir
Ġthrough out
Ġl atter
ĠL ocal
ĠRober t
Ġdist ingu
Ġadjust ment
Ġl iving
r ick
Ġtechn ical
Ġphys ic
Ġm ut
II I
et ary
Ġinst ance
Ġpur port
Ġtri ed
Ġproper ties
Ġentire ly
7 4
ww w
Ġdom estic
ĠH arr
Ġv irt
Ġadvis ed
] Ċ
Ġofficial s
ĠP arent
Ġpl us
A Y
omm od
Ġpro gress
EC F
Ġf arm
Ġparticip ate
ark s
8 2
v ille
Ġrecord ed
su ant
Ġch apter
Ġins p
Ġo ptions
n ecess
ĠPro ject
ĠN E
Ġarrange ments
Ġreview ing
Ġdisch ar
Ġposs ibility
w ood
Ġaff ili
Ġatt rib
Ġthere on
Ġden y
ĉ The
Ġo il
m en
Ġext ra
Ġmil itary
ate ver
A l
ain e
Ġun con
Ġdisclos ed
S C
sy l
he t
ĠEn vironmental
g ments
Ġf r
TIC LE
ro ll
Ġnorm al
ul ate
ĠBu ilding
van ia
Ġobject ive
Ġoper ate
ĠLeg isl
N E
Ġfor ms
ĠH olding
m es
Ġwom en
ib ly
ĠE nergy
Ġf ront
Ġexp end
ĠLou is
Ġcitiz ens
ne x
ĠUN ITED
Ġg ot
ow s
ĠSer ies
ĠRep ublic
Ġgr and
A d
Ġp aper
ĠLaw s
Ġdel iber
Ġh olders
ur b
ess or
Ġimpl ied
Ġe ase
Ġf ield
Ġcl osing
syl vania
Ġhab eas
Ġfavor able
Ġpre vail
ĠCan ada
ĠFac ility
ĠS ince
12 4
Ġcon ced
ig ence
Ġl ie
Ġcred ibility
n es
o e
Ġpreced ent
Ġm ach
er ous
ĠMill er
Ġchallen ges
ĠV e
Ġm unicipal
oci ety
Ġl ate
ĠDirect ors
Ġassu me
ĠIn st
h aps
at s
ĠEmploy ment
ĠAm ended
ĠDe pos
ĠR ed
Ġequival ent
ĠCent er
ĠO P
- D
ĠE ven
Ġins pect
Ġf oot
A W
ĠT enn
Ġeng ine
Ġconv ictions
ĠProt ection
Ġin n
Ġca uses
Ġme chan
e pt
- O
ĠG overn
Ġwe a
ad ed
Ġacqu isition
18 8
ĠP ac
Ġdis pos
Ġdri ver
or gan
18 0
ĠM ont
Ġaccount ing
ill s
Ġfl oor
ĠR em
Ġcon vert
) )
Ġdevelop ed
Ġtest ify
ĠB Y
Ġd ollars
Ġre verse
Ġindirect ly
Ġviol ence
Ġsent enced
Ġcoven ants
ĠCh apter
ber y
Ġown ers
ĠInd eed
Ġcontrib ution
Ġsubd ivision
Ġv oting
A G
Ġfun ctions
oll ar
Ġf ood
13 4
ĠAss ign
in n
if est
ĠRe venue
- w
Ġfor fe
ĠApplic ant
Ġth ing
Ġall oc
Ġcl erk
Ġem b
Ġdis close
Ġpre t
AR D
ĠInd ust
IS A
in son
Ġoff ence
ha ust
Ġh alf
Ġag grav
Ġh ousing
err ing
Ġp ack
ĠPenn sylvania
Ġam b
ab led
ĠG a
Ġph ot
it ations
N G
ul atory
Ġem ergency
ĠF iled
Ġestablish ing
Ġoccas ion
Ġcomp ut
ĠCh rist
Ġrem ove
ĠRe ce
Ġcon ven
Ġr at
Ġexpla in
w hether
u ght
r is
ĠTrans port
k i
ĠCourt 's
e ment
Ġse ven
Ġinsp ection
ĠS umm
Ġdetail ed
ĠS al
Ġli k
Ġh undred
4 00
Ġt arget
Ġcomm enced
ond on
Ġoccur rence
> Ċ
ĠĠĠĠĠĠĠĠĠĠĠĠĠĠĠĠĠĠĠĠĠĠĠĠĠĠĠĠĠĠĠĠ ĠĠĠĠĠ
Ġde part
Ġexplan ation
Ġeval uation
reg ard
ĠĠĠĠĠĠĠĠĠĠĠĠĠĠĠĠĠĠĠĠĠĠĠĠĠĠĠĠĠĠĠĠ ĠĠĠĠĠĠĠ
Ġdrug s
a mental
Ġexcept ions
ES T
Ġweek s
ĠComp ensation
Ġconsequ ences
ĠE lect
ĠH ome
Ġcalc ulated
Ġen vironment
it ors
ĠB ase
ĠW al
FOR M
Ġmod ification
ic o
Ġunf air
" ,
Ġacc ommod
Ġleg ally
Ġd il
Ġref usal
Ġpers u
ĠLim ited
Ġne ar
Ġinc orporated
Ġaccru ed
13 5
Ġassess ed
Ġto wn
Ġcustom ers
Ġcommunic ation
12 7
Ġqu ite
R S
Ġli ber
ra in
Ġine ffective
T C
12 6
ren cy
Ġconspir acy
ĠMed ic
ĠVirgin ia
Ġbe ar
ir ation
Ġcontro vers
ĠSub ject
ĠServ ic
c ertain
ĠM other
u ven
ĠR ob
ĠS ections
Ġarrange ment
ad o
Ġalleg ing
Ġsufficient ly
Ġacknowled ged
il la
Ġconvers ion
ĠL E
ĠPol ice
Ġtra vel
and on
c hed
ĠS af
Ġmon itor
m er
Ġlegisl ature
su it
Ġquot ation
iz ations
ĠC ost
Ġland s
ak en
Ġre in
ac hes
Ġb orrow
Ġdes pite
Ġm it
ĠTrans fer
ber t
Ġdri ving
Ġb od
Ġcert ification
ĠĠĠĠĠĠĠĠĠĠĠĠĠĠĠĠĠĠĠĠĠĠĠĠĠĠĠĠĠĠĠĠ ĠĠĠĠ
ib ilities
Ġsatisf actory
Ġfraud ul
Ġalleg ation
Ġmo ving
Ġexper i
us h
ri z
ĠUn iversity
pec ially
rep resent
Ġdeal ing
** *
ac her
Ġoff enses
P S
y ers
Ġlevel s
ec k
Ġexp iration
Ġcom pon
ĠY ear
Ġad min
- l
Ġdetermin es
ition al
Ġt im
ĠDec ision
Ġg l
Ġpro mis
Ġdra wn
Ġpercent age
ĠâĢ ¦
Ġleg it
Ġb id
ĠCr iminal
Ġdo or
Ġexec ute
ĠP ort
Ġeng age
Ġs ound
ot al
ĠP ty
Ġdecla red
ĠD isc
Ġindic ates
ic ate
Ġsubstant ive
ĠJ er
Ġrespond ents
ere e
c oh
- ter
Ġinj ured
Ġple ading
Ġplan ning
( g
C om
13 6
E m
m y
Ġsc hedule
ĠFurther more
ĠAr t
Ġpr ices
Ġrele ased
Ġp p
ĠEduc ation
if orm
Ġintern al
O M
Ġexclud ed
Ġrec ently
ĊĊĊĊ ĊĊĊĊ
. âĢĶ
est ing
am s
h ab
ĠPro ceed
Ġalleged ly
ĠIn it
pl es
-b ased
Ġqu arter
ĠSen ator
Ġnot withstanding
ĠS H
Ġunp aid
Ġperson nel
ĠApp ro
Ġr out
Ġrepe ated
Ġapply ing
Ġallow ing
B L
ific ally
ĠĠĠĠĠĠĠĠĠĠĠĠĠĠĠĠĠĠĠĠĠĠĠĠĠĠĠĠĠĠĠĠ ĠĠĠĠĠĠ
Ġen able
) :
ĠâĢ ¢
Ġstr ict
ear ing
Ġgu ard
form ance
Ġdisc ipl
ĠAustral ia
Ġcontain ing
S ub
Ġad j
ĠF rom
Ġschool s
Ġl og
ĠW ood
Ġrecon sid
vis ion
or ter
m ark
le vant
Ġe as
Ġar ise
Ġloss es
I AL
ro om
ĠCom pl
Ġstud y
Ġrespect s
g ain
Ġtest ing
Ġshow ed
Ġow ed
Ġachie ve
ĠClaim s
necess ary
Ġfre qu
Ġcertain ly
ĠMich ael
ist ics
Ġwant ed
ĠAffili ates
et s
Ġcommunic ations
Ġguid ance
elle es
ĠF re
Ġnot ices
Ġp ension
ĠE ast
Ġsupport s
IS S
Ġremand ed
ĠF ourth
Ġcoun cil
ĠW ar
Ġad vert
Ġprohib ited
id d
ent ive
her iff
Ġrel iance
Ġbel ief
Ġper f
Ġes c
Ġcont end
ĠNor thern
ens ions
ĠO ur
r or
m ew
ri e
im al
Ġstruct ure
40 4
Ġsp eech
ĠAPP EAL
a pt
Ġext re
h ouse
ĠJack son
O W
Ġy oung
rib ution
es tern
ĠJ J
Ġsett led
T o
Ġe limin
18 7
ĠIm m
Ġlo ans
Ġw alk
16 0
Ġcho ice
ĠL ondon
Ġinf erence
ous and
Ġwh atever
ĠO pp
P OR
Ġ :
Ġletter s
d om
Ġw ish
ĠClaim ant
ĠAddition al
ĠI T
Ġgovern ing
ĠOp inion
Ġn ames
Ġn ight
Ġform al
id uc
Ġabs ent
Ġimplement ation
mew ork
part y
- con
Ġstud ents
Ġsp eed
ĠDirect ive
. B
- G
Ġmand atory
Ġgrant s
ĠPr inc
Ġex haust
Ġper mits
ĠA f
Ġ )
Ġet c
Ġcomp ens
. I
ow a
Ġerrone ous
uven ile
Ġthere under
Ġlit ig
Ġsupplement al
Ġl ed
vant age
ĠW ell
ĠW ales
ĠCO MP
Ġassoci ation
ĠTe chn
in ternal
Ġimmedi ate
Ġpro c
ĠI re
Ġatt ach
R e
i j
T Y
Ġf ri
" ).
ĠBrit ish
ĠComm erce
ĠTreas ury
Ġt ask
Ġex ecutive
ĠPre ferred
Ġt able
Ġsay ing
Ġcomplaint s
he ad
Ġimport ance
In d
Ġinstru ments
Ġbusiness es
ĠBank ruptcy
Ġtak es
Ġwork s
Ġcrit ical
itt ing
le ag
Ġno vo
ĠG er
Ġrep air
I E
ĠP ost
Ġk ey
Ġle arned
ro y
ou l
R C
ĠE st
Ġes pecially
ay lor
Ġin m
U C
Ġper mission
ĠSuper ior
Ġt be
Ġconstit uted
Ġex act
Ġstri ke
Ġse q
ĠG ood
Ġr ational
Ġno ble
Ġe arn
Ġ ign
ĠTr ade
Ġpat ient
Ġhtt p
Ġsect or
20 5
t in
ĠD em
Ġpl ant
Ġinter ven
Ġrob bery
ĠCl erk
ip s
ĠA nt
Ġinterest ed
ĠR iver
IS ION
Ġcert ificates
Ġman ifest
AC T
Ġrepresent s
ĠCar ol
ĠS ur
ĠEmploy er
Ġs on
Ġident ification
ar i
ĠW hether
ĠF air
Ġatt end
ig an
Ġf ell
ĠSupp lement
m ing
ul ative
ĠGl obal
Ġto p
Ġestim ated
Ġcontract or
Ġcarry ing
Ġcommit ment
Ġrestr ict
Ġspe ak
Ġperiod s
Ġl ink
Ġdis e
ĠM ur
mon s
Ġveh icles
ĠA T
Ġcol leag
ĠPro f
ĠH am
ract ice
] ;
Ġant icip
Ġregard less
der son
en ch
ĠW is
in der
15 2
Ġinstru cted
ĠA re
ee l
Ġas certain
Ġenh ance
Ġred emption
Ġb i
Ġrel ig
Ġd ocket
ĠRo ad
ot a
Ġal most
Ġp anel
ure au
D e
Ġse vere
ĠTrans action
13 7
Ġoccur s
Ġassu med
Ġab andon
Ġdec re
Ġtr uth
Ġgiv es
ĠAN Y
ĠS O
al ty
Ġconf irmed
Ġaccord ingly
Ġf riend
olog ical
F C
ollow ing
Ġmonth ly
ĠD et
Ġl ive
Ġeconom y
Ġde leg
Ġt end
ou ri
ĠLab or
ĉĠĠ ĉĠ
Ġaccept ance
Ġun ion
ĠT own
Ġtra ck
-ter m
ul g
elf are
Ġpart ial
la m
ĠRec ord
. ),
A t
Ġneglig ent
Ġsub s
Ġus es
Ġpro position
Ġval u
Ġcr imes
Ġfurn ished
Ġb asic
Ġbelie ves
n a
ĠIre land
ĠInvest ment
ĠTH IS
| |
Ġcontrib utions
Ġmethod s
................................ ................
ĠEng land
am ily
ĠO k
ĠB lack
l o
Ġd u
ĠFr ank
Ġexist ed
r ay
Ġmarri age
Ġv ested
ĠPri or
ap ers
Ġult imately
Ġerr ors
Ġexclus ion
Ġref erences
- F
ber g
c hes
ĠA riz
Ġinter f
Ġsu spect
e in
ĠPro vid
iduc iary
Ġobtain ing
E A
ĠAff airs
ĠO f
ĠR ail
Ġadequ ately
ĠR ather
Ġthreat ened
Ġr ad
AN CE
Ġrel ates
Ġs en
c ol
ĠER ISA
-exam ination
sh all
f rom
Q U
ra p
la uses
13 9
Ġnum bers
Ġpro portion
it z
Ġcontract ual
U T
us ion
Ġjud gments
ĠCh arl
Ġ ;
.âĢĿ Ċ
Ġprior ity
Ġs ym
Ġretain ed
ut able
ree ments
Ġy ield
ĠJ UD
en a
land s
18 6
Ġcon form
Ġdetail s
ĠST ATE
Ġgovern ed
ced ent
Ġexpl icit
u ff
Ġun its
Ġrespond ed
Ġproject s
appro pri
Ġreg ister
Ġevident iary
ress ed
ĠInst ead
ĠD ocket
Ġen for
cont ract
ĠRich ard
." Ċ
ĠPur suant
Ġdis regard
Ġst ru
Ġw arrants
Ġcontrovers y
Ġun necessary
Ġpay ing
ri ev
Ġjob s
Ġ| |
ĠPart nership
Ġchallen ged
Ġhand s
Ġcon cept
ĠC are
Ġs ources
Ġjust ify
ĠB efore
ĠWil son
Ġc ode
Ġal coh
ĠH ill
ĠH uman
Ġsent ences
ĠB ased
ect ive
AN S
Ġv ide
Ġselect ed
Ġnot ified
Ġto wards
Ġconsolid ated
ĠDep uty
Ġpla y
Ġrecomm ended
Ġex hib
Ġmod ify
i en
âĢ ¢
- law
est ion
ĠM il
Ġc ell
Ġrest ra
ĉĠĠ ĉ
13 8
ĠCO MM
Ġcomp etition
ĠDebt or
Ġst ore
Ġfraudul ent
Ġsu c
Ġout come
Ġordin ance
Ġbenef iciary
Ġbl ood
Ġdischar ged
ĠAddition ally
Ġtrans cript
d o
Ġacknowled ges
ĠSec ured
/ C
Ġremain ed
ver y
ĠAffili ate
pos ure
re ction
ĠHolding s
Ġph one
Ġinsure r
ad em
6 00
ĠF arm
Ġh om
ĠGu id
mb ly
Ġtr ading
Ġcommence ment
Ġcomb ination
Ġpoint ed
Ġresol ve
Ġm erger
IN ION
pr ise
Ġpart ner
Ġado ption
Ġacc ompl
Ġreason ing
Ġw ind
ĠWH ERE
Ġver sion
ĠSpec ifically
ĠS ir
ĠC A
ĠA ction
ĠT rial
Ġ ide
Ġw id
stitution al
re am
ĠE ffect
ian a
Ġoff ering
la ced
Ġbar red
Ġrecommend ations
Ġph r
ĠB oth
Ġbel ong
Ġlegit imate
J ud
Ġbook s
ans as
TI NG
Ġst ation
ĠV II
ĠE N
ĉ N
ĠMan ager
ĠL essee
Ġlaw ful
Ġfor um
Ġle v
Ġrepresent ing
ĠFore ign
at ically
ound s
ĠG ra
tin ent
Ġsub stitute
ĠM et
SEC TION
il ies
Ġwh olly
ĠG en
Ġest imate
opp ed
Ġimprove ments
on ald
Ġsuc ceed
Ġun s
Ġviol ate
av ings
FORM ATION
Ġde position
irc raft
Ġpun ishment
ren g
s ic
ar row
Ġdisc overed
ĉ T
Ġret irement
Ġtechn ology
Ġguarant ee
ĠG R
Ġo mission
Ġprof its
TION S
sequ ently
Ġrep ly
Ġdi agn
at ures
v iction
ĠE vidence
c her
Ġrespons ibilities
Ġnum erous
Ġm ess
Ġresol ved
Ġinflu ence
orpor ations
Ġprec ise
Ġassert ion
Ġsur ren
ĠN ame
Ġre ally
Ġdiv or
ic able
Ġtaxpay er
F S
Ġguid elines
Ġcoven ant
Ġad missible
Ġallow s
); Ċ
- to
Ġcorrect ly
D C
Ġdanger ous
av y
Ġret al
ĠWith out
ĠCol umb
Ġ :Ċ
Ġunder w
Ġpre par
ĠC R
ĠIN FORMATION
Ġrec ip
Ġdocument ation
c ast
Ġinvol ves
Ġper tinent
vent h
Ġwarrant y
Ġthere for
Ġtyp es
Ġup d
it ude
l ish
ĠPar agraph
ĠLi en
AB LE
Ġsp ent
Ġb ed
iv en
ĠCl ark
Ġsatisf action
Ġcredit or
ell ing
ag o
Ġanal y
Ġ ri
Ġman ager
Ġpop ulation
erv ation
Ġind eed
Ġconsum er
Ġaccept able
Ġfund amental
our s
Ġbehav ior
Ġcustom er
Ġconstit u
Ġeffect ively
Ġstri king
Ġcomplet ion
Ġautom obile
TH E
Ġc and
ĠFin ance
Ġpro ved
ĠStand ard
ĠF ather
Ġinstit utions
Ġsign ature
Ġre ading
om er
ĠAn derson
Ġcon ce
ĠR ES
ade qu
Ġextre me
ĠL AW
Ġwith holding
ĠY es
Ġs ize
UN D
Ġha z
__ _
Ġenact ed
or age
- up
Ġk n
Ġplead ed
Ġoper ated
ĠBorrow ers
Ġc oll
Ġsee m
Ġset s
ail y
Ġphysic ian
Ġspec ies
Ġ* Ċ
s ed
Ġconsum m
ĠCompany 's
ay s
ĠApplic ation
Ġf ourth
ĠEqu ity
an ie
Ġconsult ation
Ġbond s
ĠWIT H
Ġut il
Ġapparent ly
Ġw orth
is ite
ĠW ater
Ġexam ined
ĠAc qu
Ġd ates
ĠJ e
Ġpenal ties
Ġmis represent
ĠEng lish
Ġexcess ive
Ġrecommend ation
ĠAg reements
ĠVol ume
ĠSc ot
Ġw ide
Ġwas te
ĠO ut
Ġrespect ively
ĠORDER ED
ĠSumm ary
Ġmod el
ch ang
s im
ĠCarol ina
Ġact ive
ĠJer sey
Ġf iduciary
Ġpro x
ĠE state
Ġdebt s
Ġbar gain
Ġinit ially
Ġport ions
Ġcollect ed
17 0
Ġo ught
du e
ĠĠĠĠĠĠĠĠĠĠĠĠĠĠĠĠĠĠĠĠĠĠĠĠĠĠĠĠĠĠĠĠ ĠĠĠĠĠĠĠĠĠ
Ġper haps
Ġto ward
u ge
ok ed
Ġpro pri
r ound
ĠR oy
ĠĠĠĠĠĠĠĠĠĠĠĠĠĠĠĠĠĠĠĠĠĠĠĠĠĠĠĠĠĠĠĠ ĠĠĠĠĠĠĠĠ
Ġref ers
Ġbenef icial
il ing
ĠLegisl ature
Ġs am
or ough
H A
ĠT aylor
Ġapplic ants
Ġcont ing
ĠF ifth
ĠHarr is
Ġassign s
Ġc ance
Ġsub paragraph
Ġperson ally
ĠU t
stant ial
it ch
Ġsuggest s
Ġdisag ree
Ġjust ified
Ġview s
ĠS ix
ĠB ureau
w as
Ġpos itive
V ID
Ġsh ot
Ġharm less
Ġrisk s
Ġway s
Ġk ept
ĠGeor ge
g ia
Ġconsider ations
14 1
z a
al ed
Ġdemonstr ated
Ġsome one
Ġc oc
Ġover all
ed om
N A
Ġj uvenile
ĠT reat
Ġcom ing
a ders
ask a
u gh
ĠNO T
Ġvirt ue
Ġpr int
ĠNe ither
ĠProduct s
ĠB al
n ed
Ġpurch aser
Ġin du
ir ms
15 1
Ġre form
Ġsim ple
ĠUn its
el ine
Ġtransport ation
Ġany one
ĠI r
res hold
30 1
40 1
Ġ --------------------------------
ĠKing dom
Ġlaw suit
20 3
Ġsal ary
Ġident ity
ĠO N
ĠS P
ĠH ospital
ĠDef ense
om ing
) ĊĊĊ
ĠDec l
Ġla id
Ġst reng
el i
Ġoverr uled
i ate
Ġaffect ing
Ġdon 't
Ġinv ent
Ġbeh ind
Ġt enant
Ġdev ice
Ġcomplain ant
Ġcateg ory
Ġsuccess ful
Ġc od
-re lated
Ġprof it
Ġd augh
ĠL ee
Ġsched uled
isp uted
Ġarrest ed
B ER
AL L
he l
ĠMart in
ĠLic ense
Ġcl osed
Ġsu ed
Ġopp osition
ce ler
Ġgroup s
r ated
ol s
ĠLi ens
ĠReg ulatory
ro te
el lect
Ġl ines
- L
Ġper tain
ĠL ew
un g
Ġsp ace
Ġfee l
ra ck
ĠM O
ĠImm igration
Ġhapp ened
18 5
otion al
Ġcom es
Ġins ol
ĠLeg al
- T
Ġfra mework
ĠM aster
O F
Ġful f
Ġelect ed
P ER
Ġfoc us
V ER
ul ing
Ġb o
. \
B A
Ġfac ie
Ġfire arm
- e
am a
Ġvar i
âĢ¦ âĢ¦
Ġar ises
u la
Ġsu fficiency
s igned
r ust
ĠCon vention
ou thern
ort s
e ach
Ġcompl ied
Ġcap able
ĠAssist ant
A ll
Ġinterpret ed
Ġcomp lex
Ġconsequ ence
at ers
Ġpropos als
ĠWe b
ĠCh airman
Ġwill ing
ĠF act
Ġexam ine
ĠOwn er
ar a
Ġcont ended
ĠAd vis
Ġacqu ire
R es
Ġsur vey
in ter
ĠSt r
ĠJ r
Ġconf erence
Ġd ivision
he rent
Ġhar ass
Ġshare holders
Ġbill ion
ĠF inal
ĠL ords
Ġdiss ent
Ġhab it
Ġm agistrate
re l
Ġelect ric
ĠBorrow ing
i que
ĠCommit ment
Ġsell ing
ĠA venue
Ġenforce able
Ġrel ies
el ve
re qu
Ġprim a
Ġclaim ing
in u
o ice
Ġcall s
ist ic
Ġsan ctions
ĠMed ical
z e
Ġdisp uted
id ence
Ġasse t
Ġte acher
Ġv ia
Ġguil t
rehen s
IG H
Ġsuper ior
Ġfin ancing
ĠSEC UR
Ġfam ilies
Ġdef end
ĠM ad
ĠPer formance
m ical
Ġind ebtedness
) ]
Ġacknow ledge
Ġent ering
ĠCr im
ER AL
Ġequ ally
Ġpla ces
Ġcontinu es
Ġdismiss ing
M C
Ġc amp
AC K
ĠD kt
Ġprison er
W hen
Ġab used
Ġprep are
le v
Ġmaterial ly
Ġimpair ment
Ġl ar
Ġalcoh ol
Ġfacil it
ĠĠĠĠĠĠĠĠĠĠĠĠĠĠĠĠĠĠĠĠĠĠĠĠĠĠĠĠĠĠĠĠ ĠĠĠĠĠĠĠĠĠĠĠ
Ġdifficult y
Ġenact ment
he nt
Ġa partment
ĠQ ual
Ġc ard
Ġfair ly
Ġdis abled
Ġn ation
Ġcalc ulation
Ġapp ra
employ ment
ĠHon our
Ġdise ase
Ġn arrow
8 00
Ġg riev
Ġrail road
.âĢĻ âĢĿ
Ġprim arily
Ġre venue
m aking
Ġcand id
Ġag o
F ederal
Ġadv anced
ost er
Ġa f
2 10
i at
ĠEx t
Ġrec all
ellect ual
Ġsc ient
-t ime
ĠAr k
Ġbre ak
Ġref und
Ġdisp utes
est s
ĠTh ose
Ġth ousand
Ġmeet ings
an im
ĠRegistr able
Ġamb igu
E LL
ĠMo ore
ĠIndian a
Ġpar ole
Ġs ociety
Ġdep end
Ġident ical
Ġw rote
Ġdistin ct
Ġsepar ately
ĠL ife
olid ated
ĠIntern al
Ġneg ative
anc he
ĠAt l
Ġde cedent
Ġle aving
iv ity
ĠServic er
ĠTax es
Ġorigin ally
Ġcoc aine
ĠSaf ety
Ġinsert ing
a i
ĠPa ul
Ġrecogn ize
ĠC amp
Ġenj oy
ĠCent ral
Ġf ear
k y
Ġsupervis ion
ĠH all
Ġannoun ced
en ger
r ast
v oc
ĠUn it
ĠM ex
Ġprom ulg
end ix
Ġvolunt arily
14 5
c itation
ĠPrinc ipal
Ġopp osed
Ġcounter claim
Ġname ly
ATION S
Ġinfring ement
Ġc lauses
15 4
ĠAppellant s
om a
-C V
âĢĿ ,
Ġad vantage
. ;
ĠMich igan
( A
Ġthan k
w orth
Ġin adequ
f ace
14 2
- pro
Ġstud ent
ĠH aw
Ġpract ical
Ar ticle
ĠA ut
p ot
Ġm emorandum
ĠD EN
ĠS ome
Ġund isputed
ur ation
Ġcomput er
Ġtest s
ĠInit ial
Ġtax able
40 9
ĠAg ain
ĉ C
Ġauthor ization
Ġdivor ce
Ġhere after
Ġrel ate
Ġf uel
opp el
con s
I ED
. G
Ġarri ved
m a
Ġmor ning
Ġfa ult
ĠDes ign
ĠC ash
).ĊĊ Ċ
omp son
Ġprepar ation
ĠS ett
ĠCO DE
-c v
ĊĊĊĊ ĊĊĊ
Ġdisc ount
Ġbro ther
Ġwe igh
Ġdistin ction
Ġtr ying
Ġpursu e
I F
P a
Ġfin e
Ġcontro lling
Ġ ending
ĠO M
Ġbe g
Ġsusp ension
or rect
ĠB ell
15 3
Ġfig ures
ĠInvest or
ĠM er
Ġfurn ish
b ack
E T
ĠTw o
Ġreplace ment
Ġwa ive
ĠColumb ia
su ch
Ġme ant
Ġoblig ated
Ġdec iding
il es
Ġsuccess ors
Th at
ĠCommission 's
ĠC P
ĠC as
20 4
Ġargu ing
Ġcl in
Ġnegoti ations
ĠAm end
ĠJ ose
Ġphot ograph
ter ans
Ġbenef ic
Ġres c
so ever
Ġimprove ment
b r
________ ____
ĠP C
ro se
iol og
ir s
ĠI owa
it es
ane ous
Ġpurport ed
Ġcolleag ues
Ġbl ock
Ġimproper ly
Ġp oll
ĠM od
Ġperform ing
AS E
Ġad ministrator
Ġ ________________
ĠM emorandum
ĉ S
Ġcent ral
M A
TI VE
il t
la h
ag ue
m ond
on ing
14 3
la b
AT ED
Ġrece ives
u pon
ĠY oung
sec ut
ĠO ptions
Ġpat ients
Ġsh o
Ġrul ed
Ġtw elve
14 7
Ġmis le
ard ous
Ġmonitor ing
ĠGeor gia
v ency
R eg
Ġwe bs
Ġcontr ad
os is
Ġphr ase
Ġwarrant ies
ĠT ime
Ġde tain
ĠM ac
Ġvictim s
Ġ ----------------
I TIES
Ġdeal t
ĠMary land
Ġtrib unal
ix ed
Ġprovid er
ĠF amily
ĠS ign
Ġun anim
igh th
in er
ort ion
ĠS ale
mon th
a uthor
ourn al
Ġd ied
.âĢĿ ĊĊ
Ġc itation
hab il
ĠR ent
col lect
Ġsignificant ly
ĠV a
oc r
re y
2 12
Ġjur ors
ex cept
Ġqual ify
Ġlim iting
ĠP ower
p ut
Ġch ief
Ġrequest ing
AN K
P art
Ġreimburse ment
Ġexpend iture
Ġth reshold
ĠVal ue
ĠF ood
os ite
as ers
ĠÂ¶ Â¶
Ġjud ges
A g
Ġe y
Ġd ro
ĠPr ime
b ody
24 0
14 6
Ġwith held
ĠPri v
Ġ( $
ĠRE G
ell ed
ic ing
16 2
ĠB udget
termin ation
EC T
Ġprob ably
3 50
p o
% )
Ġback ground
- th
om b
-------- ----
T O
ĠA v
ĠM al
Ġc iting
ic ations
as ive
ĠD un
r ary
Ġconvers ation
an o
Ġad ding
B S
urch ase
ĠConf idential
an der
Ġneg lect
ĠInc ome
Ġsen ior
Ġunder signed
Ġcomp r
Ġun like
ĠP al
Ġsuppl ied
Ġinf erences
Ġex cluding
Ġcomp el
on us
15 5
ĠP et
pp ed
organ ization
Ġinc omp
Ġv en
Ġdetermin ations
: ĊĊĊ
Ġpract icable
ĠN os
Ġad ult
vers ion
ne ver
ĠE s
ĠB er
Ġrevis ed
( ii
Ġlaw yer
Ġprom ote
ex p
Ġs ol
L a
pp er
Ġoccas ions
en force
âĢ ĳ
Ġdri ve
Ġserv ing
Ġdesign ation
F A
n ight
Ġmist ake
ĠF AA
Ġs eal
Ġassess ments
Ġaddress es
Ġtr y
Ġs il
. T
b id
Ġex posure
ul ating
ĠT otal
Ġpe ace
Ġfl ow
Ġdef ence
F la
Ġmer ch
ancell or
Ġquot ed
14 9
Ġp led
ĠF ar
Ġc orp
- st
Ġregard ed
ĠF ollowing
Ġw ages
Ġprospect ive
- H
2 20
Ġask ing
ĠScot land
Ġentire ty
Ġfore closure
Ġt ract
ous es
Ġsom et
Ġwea pon
D R
er o
ĠTh ompson
ĠT y
ĠCourt s
Ġconsid ers
Ġun su
he st
Ġaffidav its
ĠE ll
Ġpart ners
ĠC OR
y 's
A cc
L O
Ġdet ention
ĠAf ric
. -
] n
Ġinj un
l ight
Ġapp rec
ate ment
Ġac celer
ĠApp ellee
ĠJ oint
Ġaff airs
pon ding
u ana
Ġpass age
Ġc ru
Ġca using
Ġindividual ly
Ġp ip
Ġparent al
ĠJ ur
ĠSt e
Ġstart ed
Ġhold s
ent encing
Ġundert aking
ĠC rown
Ġsusp ended
Ġwhat soever
P ART
ĠD ou
Ġindep end
Ġindic ating
Ġopen ing
Ġless er
Ġcarri er
15 7
Ġe v
Ġauthor ize
Ġattorney 's
Ġc lean
rehens ive
- party
Ġw elfare
ĠLouis iana
Ġrun ning
Ġinter rog
Ġdiscretion ary
ĠLew is
ruct ure
16 1
IR M
Ġ ]
Ġsh ip
b an
su red
Ġtra in
Ġexclud e
unic ations
Ġobject ed
Ġs end
ĠTenn essee
ĠCO UN
Ġobject ives
ĠCharl es
Ġansw ered
ce ll
ĠPe ter
Ġcorres pond
ĉ By
Ġdist urb
15 6
and a
ĠSt ep
Ġn orth
ot s
Ġexper ts
clus ive
Ġde ter
ĠOr gan
Ġh ost
Ġnet work
M E
Ġprovid ers
ĠÂ§ Â§
ĠĠĠĠĠĠĠĠĠĠĠĠĠĠĠĠĠĠĠĠĠĠĠĠĠĠĠĠĠĠĠĠ ĠĠĠĠĠĠĠĠĠĠ
Ġexp and
ĠE lig
Ġpres erve
Ġinn oc
Ġmit ig
Ġpos itions
ĠO ver
ou d
ing er
it ory
Ġs qu
Ġbro ker
Ġconcur rent
Ġcon secut
Ġinstru ct
Ġsp ouse
Ġconclud es
ĠApplic able
Ġin ad
Ġaggrav ated
Ġcounter part
Ġstrateg y
Ġvac ate
ĠH ol
Ġdaugh ter
Ġr ating
Ġallow ance
Ġcitiz en
b al
Ġaspect s
r itten
Ġassert ing
Ġindemn ity
s ible
ĠPa per
i ated
14 8
Ġoper ator
ĠR y
ĠB el
2 24
Ġle ading
let e
ĠF ire
os en
UR E
Ġsec ret
Ġj ail
Ġorgan izations
p et
Ġp ick
ĠAPPEAL S
in qu
Ġsur round
Ġdest roy
Ġcontr ast
ĠPro posed
18 3
TI CE
ĠP ART
ĠM agistrate
Ġmo ment
Ġcont ra
Ġg entleman
ew ise
Ġsym pt
Ġcomb ined
ir th
Ġp apers
ĠAsse ts
ĠE r
Ġsub stit
ĠComm ercial
ĠG old
ĠĠĠĠĠĠĠĠĠĠĠĠĠĠĠĠĠĠĠĠĠĠĠĠĠĠĠĠĠĠĠĠ ĠĠĠĠĠĠĠĠĠĠĠĠ
Un der
pect ive
AN Y
ĠC it
ĠH en
Ġdistrib uted
idd le
S R
ol es
ic ago
" The
ĠN ation
Ġturn ed
Ġest oppel
Ġref using
Ġnot ification
Ġart icles
18 4
Ġestabl ishes
( h
Ġce ase
ĠAR TICLE
ĠW estern
ar ning
Ġconsider able
Ġpar a
ĠRe v
Ġret ail
Ġattrib utable
vis ed
O r
Ġne arly
ist ed
Ġres idential
Ġcompla ined
o ly
Ġgo es
pon se
n d
Ġrestr iction
Ġag ricult
k en
Ġcont empt
or ing
t ime
Ġcomplete ly
Ġle aders
ĠDef in
W here
Ġb lack
abl eness
art h
Ġsimilar ly
Ġmut ual
ĠL essor
e z
- month
Ġsu ms
Ġt ender
16 5
Ġhist or
ĠPat ent
unt ary
Ġparticip ants
Ġob s
Ġwrong ful
w ide
ord inary
Ġassum ption
âĢĿ .
Ġeduc ational
Ġautom atically
ĠAre a
Ġhigh ly
Ġa im
ĠIm p
omp an
Ġgrow th
Ġbe aring
Ġprocess ing
Ġn om
Ġprejud icial
ĠR od
Ġn omin
Ġjoint ly
Ġnecess ity
f ort
Ġbill s
Ġs ens
Ġne igh
ĠRE V
Ġon going
Ġdem ur
Ġfil es
ĠSupp ort
Ġcorp us
Ġdes ire
Ġfig ure
Ġst orage
Ġresident s
Ġhigh way
ĠGu ard
Ġspec ify
Ġst opped
Ġstock holders
Ġelig ibility
Ġlook ing
c ial
erv ed
Ġlic ensed
18 1
at al
re r
ĠG ar
Ġre but
ĠApp ellate
Ġcopy right
I O
Ġra ises
oy d
Ġgen er
Ġmo der
Ġb ox
........ ...
Ġaud it
00 1
Ġcontrol s
Ġc ult
ic ious
ĠSett lement
IA M
S ON
ĠM a
ĠAustral ian
erc ise
- app
Ġemploy ers
Ġestablish ment
ĠS ER
Ġra ce
r ad
2 11
ĠK el
ĠAd d
ĉ P
Ġrestr icted
ompan ied
ĠState 's
Ġpetition ers
Ġconsolid ation
uc lear
20 8
Ġval ues
Ġd aily
att le
- off
ĠG iven
Ġa rose
Ġder ived
Ġem otional
Ġarbitr ator
Ġfall s
act ive
ĠIssu ing
18 2
Ġcont est
Ġs outh
Ġearn ings
- n
k es
it ee
ĠC oll
ĠN W
ĠCon struction
ĠP L
os es
re ason
Ġjurisdiction al
Ġla y
Ġliquid ation
Ġut ility
Ġult imate
ĠTransport ation
if ty
ĠV ice
e an
ĠOF FIC
V IC
Ġco al
not e
Ġconvey ance
Ġvis it
Ġinc orrect
15 8
ilar ly
Ġpromis e
Ġn ine
Ġrep eal
Ġpriv acy
ĠMiss ouri
CL US
ĠCons ult
Ġlie u
, ''
r im
c le
ĠAsse mbly
Ġter ror
ra ud
C l
ĠW a
ancell ation
- E
ru ption
Ġbring ing
ĠB ond
Ġmis s
Ġexerc ising
ĠGuid elines
Ġwebs ite
Ġindust rial
Ġconf erred
Ġb all
B C
H IB
Ġse iz
17 5
eli hood
Ġconsum ers
ĠV er
Ġpla us
y d
ĠR EC
Ġaut hent
Ġfin ally
Ġdepos ited
Ġopport unities
ĠRes earch
al ity
Ġ =
Ġm aster
Ġrelig ious
- se
ĠPh il
Ġconclud ing
Ġvide o
L P
Ġpreclud e
ordin ated
ij uana
2 30
Ġuncon stitutional
Ġremain der
Ġfav our
ĠCh icago
Ġrece iver
Ġcorres ponding
ĠS ever
Ġappro ve
OR D
ĠSupplement al
Ġentit lement
ĠAn nex
Ġcomm unities
ĠD en
ĠPerson s
um ulative
wh at
ĠN ow
ĠAn al
ĠM A
Ġmembers hip
ĠV I
ĠAll en
or able
Ġpark ing
Ġint end
Ġaccur ate
iv able
ĠDis miss
Ġfor med
Ġsurv ive
ĠCons olidated
k in
sim ile
17 1
ĠS am
Ġadjust ed
W est
istr y
Ġirre voc
Ġcomm erce
t ed
ĠW at
es ter
16 8
et he
Ġknow ingly
D I
Ġbu y
Ġproceed ed
ĠCert ain
. com
ra m
know n
Ġindemn ification
Ġem ph
ĠB ack
Ġview ed
ĠS outhern
ĠRes erve
Ġred ee
Ġaward s
ĠCon serv
16 7
Ġbuilding s
Ġim position
Ġadverse ly
ĠK enn
or ation
Ġres ign
Ġconn ected
Ġse lection
Ġe missions
c ur
Ġ --
rast ructure
Ġunc ertain
Ġbe ars
Ġindemn ify
ĠPay ments
7 00
Ġlic ence
ers ed
ĠO il
Ġprogram me
ĠPer mitted
Ġconc ent
ord ination
Ġmaintain ing
ĠN eb
Ġexp ort
Ġac res
16 9
Ġavail ability
Ġin herent
here in
ĠW alk
Ġcircum stance
P C
ess ment
ĠL ong
Ġsuff er
m o
ens ing
F in
Ġimpos sible
c omm
16 3
all s
Ġansw ers
Ġget ting
Ġb ul
ĠAnn ual
Ġp ress
appropri ate
Ġf it
Ġ â
Ġdedu ction
Ġsubsid iary
ĠB a
Ġoff ices
Ġref eren
op h
Ġl ived
Ġperf ect
Ġprohib ition
Ġtax ation
Ġdivid ends
ĠK ent
b ell
Ġjur or
i et
ar ation
Ġreflect ed
ĠB ILL
ĠCom ments
Ġdifficult ies
ĠB o
Ġreturn s
B efore
Ġout l
ĠJe ff
ĠM it
Ġinc arc
ĠL u
Ġbank s
Ġcont ents
Ġappear ance
Ġpresent s
cept ion
Ġexhib its
ĠCo ast
ĠM d
Ġdecl ine
ĠE sc
ot el
ĠAmeric ans
Ġpass enger
e enth
Ġstru ck
Ġin stances
Ġmin im
20 6
Ġdead line
Ġreg ional
Ġcompar able
ever theless
Ġdecl ined
Ġun enforce
ĠM ut
pt r
Ġinvolve ment
50 1
ĠTe le
B ank
ĠG as
ad ian
Ġjo ined
Ġindic ation
Ġmisle ading
Ġintention al
ul p
Ġreflect s
Ġalloc ated
Ġsupp ress
Ġappra is
Ġfel t
Ġtrans mission
Ġsub mits
Ġrep laced
Ġmil es
qual ified
Ġdeclar atory
Ġhig hest
- ĊĊ
Ġdemand s
ĠRe lease
Ġconduct ing
ĉ M
Ġrequ isite
ger y
2 15
c itations
Ġwork er
EN C
20 7
v in
Ġso ft
ĠJose ph
Ġess entially
Ġl ives
ĠDay s
ret t
ĠB ay
ĠCh ina
Ġ ended
Ġdiscuss ions
Ġpres sure
ru m
Ġoff ers
Ġmar ijuana
p erson
ĠH art
ĠGovernment al
. O
ĠRequ est
S c
g en
ĠF la
ĠStand ards
la bor
Ġlik elihood
Ġrent al
5 50
Ġtrust ees
ĠSix th
HIB IT
ĠT urn
collect ively
Ġtransf ers
ĠRe al
Ġparticip ating
Ġadjud ication
Ġrev ocation
MENT S
ound ed
re ad
as tern
Ġs ort
Ġb ott
Ġcompon ent
Ġrem ember
Ġp ages
Ġpot entially
Ġconced ed
Ġus ual
ĠGuarant ee
ĠCo oper
Ġdoct or
Ġfr anch
Ġjo in
IG N
CLUS ION
ĠH ousing
Ġnever theless
Ġref use
Ġfre edom
Ġins ide
Ġwill ful
-f ive
E O
Ġm ortg
ĠS C
Ġmand ate
================ ================
Ġreconsid eration
A fter
Ġcheck s
. H
Ġinadequ ate
................................ ................................
Ġint ell
Ġinter ference
c are
Ġretal iation
ĠS A
S I
Ġaccommod ation
Ġsubsid iaries
ĠDe b
Ġrel ie
ĠCon d
Ġthe ft
Ġw el
Ġsumm ar
Ġforfe iture
IS TR
.âĢĿ ).
ĠOP INION
15 9
Ġc orporations
ĠOper ating
on n
Ġsan ction
Ġsc ene
Ġpublic ly
ĠMex ico
Ġw age
ĠCh am
ĠP AR
ĠF O
ĠT err
Ġs itting
Ġow ing
ĠAs h
Ġdivid end
l f
D ate
ad d
Ġpun itive
Ġdirect ions
Ġte am
Ġs heriff
ĠAd verse
Ġdistingu ish
ĠB arn
pon der
ĠCom ment
ĠC ause
Ġsur ve
G A
ra wn
Ġant i
ĠW orld
Ġmarket ing
17 8
Ġrec overed
30 3
ĠCon sequently
ĠRes ponse
ĠF ee
âĢĶ the
Ġl at
ĠCost s
N ew
i ke
Ġre pl
ĠE conom
p ass
s hip
ĠChild ren
a ired
la ys
at ur
ret e
Ġacc ompanied
ift een
Ġharass ment
Ġsomet imes
c omp
ĠB re
se ll
Ġevid enced
Ġper mitting
ĠAr my
Ġdef e
ail ure
cl ass
ĠS ing
Ġdil igence
ut ation
Ġres erve
Ġcrit ic
D kt
ĠN ev
Ġlack ed
Ġorgan ized
ĠIN S
L Y
Ġwithdraw al
Ġeffect iveness
ĠStat utes
Ġmaintain s
3 10
Al though
Ġsympt oms
ĠMedic are
le vel
ĠIn stru
M IN
Ġcover ing
ĠCommit ments
Ġthere from
ĠC ross
Ġher self
.C iv
Ġb ag
Ġcomp rehensive
Ġconclus ive
35 5
Ġcare fully
or ado
ro lled
Ġdou ble
Ġwarrant ed
ĠC op
ĠAn ge
ĠM atter
Ġinm ate
Ġencour age
Ġcre ation
Ġre organization
ĠFor ce
Ġconv inc
B I
re ll
Ġg e
Ġreserv ed
Ġcomp ared
Ġimpact s
r ate
ĠF isher
Ġincre ases
Ġsitu ated
M o
7 50
AR R
p at
ĠS pr
Ġcur rency
ĠE v
ĠJud icial
16 6
h is
Ġincre asing
t ts
ĠL ine
Ġparticip ant
Ġcateg ories
ĠDefendant 's
ĠK e
Ġsurround ing
Ġcl os
on z
Ġsuggest ion
th is
I ES
Ġmo ot
ethe less
16 4
ER C
Ġs ister
Ġe arned
W ith
17 7
Ġhe ars
ce ment
17 2
ren d
ol en
Ġv end
Ġcl ients
FF IRM
f ar
Ġs avings
ĠCon version
ure r
ĠT able
Ġbenefic iaries
EN S
Ġoccur ring
ĠM em
pro vid
Ġinjun ctive
Ġb irth
ĠCOMP ANY
ĠĠĠĠĠĠĠĠĠĠĠĠĠĠĠĠĠĠĠĠĠĠĠĠĠĠĠĠĠĠĠĠ ĠĠĠĠĠĠĠĠĠĠĠĠĠĠ
Ġmanufacture r
Ġcit es
vere ign
Ġg ir
Ġrespons es
ĠDist ribution
ĠAl so
ĠPro cess
ĠF UR
Ġexplicit ly
ĠF ord
Ġprodu c
Ġc ou
ce l
Ġcollect ive
Ġide a
is su
( B
Ġhear ings
Ġwom an
use tts
ĠLi ability
Ġinterf ere
Ġevalu ate
Ġfor ced
ĠDE F
Ġmat urity
40 5
ĠInterest s
ĠDo es
ach usetts
Jud gment
Ġchar ter
ĠAssign ment
Ġret ro
ĠElig ible
25 1
ĠR O
ĠC L
Ġpromulg ated
b on
Ġpat tern
Ġc ancellation
ĠCON T
E U
Ġemph as
Ġconvey ed
Ġall ocation
ĠO l
Ġw ire
ĠOr d
Ġsitu ations
ĠNot hing
ess ions
Ġaddress ing
ĠLi ber
habil itation
lace ment
Ġun us
Ġd uration
T ED
ĠW right
Ġissu ing
i ability
Ġconsecut ive
Ġrecogn ition
r d
Ġprob ability
Ġa ircraft
ĠH ay
ĠM ain
ĠC lear
Ġconf idence
ĠV an
ĠC LR
17 3
Ġident ifying
Ġinter vention
Ġcomp rom
Ġestim ates
int h
am er
Ġdiscipl inary
Ġpro poses
Ġe fficient
ĠT EX
30 2
Ġdis burse
Ġinter im
us ation
Ġre lying
Ġassign ee
Ġplace ment
anie l
40 3
Ġp en
- N
S h
Ġrecord ing
Ġart ic
3 60
ĠPac ific
la d
ĠRepresent atives
40 2
Ġhy pot
Ġattempt ing
ĠĠĠĠĠĠĠĠĠĠĠĠĠĠĠĠĠĠĠĠĠĠĠĠĠĠĠĠĠĠĠĠ ĠĠĠĠĠĠĠĠĠĠĠĠĠ
Ġsurren der
Ġdistrib ute
ĠD ata
ĠA lex
Ġcollect ively
Ġwhere as
Ġun just
ĠD u
ro c
Ġpertain ing
Ġproc ure
Ġun w
Ġadmin ister
ok ing
Ġpre ponder
Ġsur face
Ġun iform
Ġal t
la in
Ġhe art
Ġst e
ĠH ERE
st ein
ĠA wards
T enn
ĠR t
ĠSw ing
ĠI D
Ġus ually
ile y
ie ce
Ġoff ences
Ġf lex
Ġmeet s
D ocket
) ).ĊĊ
ĠH aving
Ġassum ing
Ġadjust ments
Ġbre ached
Ġro y
ĠP ractice
mitt ees
Ġf ight
Ġim per
w in
Ġexp ired
Ġso vereign
Ġreason ableness
ili ar
ru e
Ġsix ty
47 7
Ġherein after
4 16
a ment
ĠW n
ĠUn less
.R ptr
Ġirre levant
Ġabsolute ly
ĠRob inson
/ s
Ġpresum ed
EM OR
) :Ċ
Ġfri ends
ĠQ ue
Ġple as
ĠO THER
Ġal ien
ĠAmend ments
Ġval uation
2 13
ĠM aj
Ġsub po
ĠJud ges
ĠAd just
Ġex chang
un ding
Ġbur gl
Ġsuit able
ĠCan adian
Ġprocess es
Ġattempt s
Ġdis order
Ġpro ving
Ġcontinu ance
Ġunreason ably
Ġrevers al
ĠE le
Ġdep endent
app lic
Ġenfor ced
Ġar med
Ġquant ity
Ġref erring
Ġsup ersed
L ord
Ġl od
ĠN evertheless
Ġmanufact uring
ĠMass achusetts
ĠAs set
ro bor
D ef
Ġimpos ing
ĠSt ud
ĠB ook
err al
Ġf ifteen
ad es
[ s
ĠRes ources
17 9
Sec ond
stru ct
ĠU se
ah o
w ill
ĠWalk er
a ign
ĠIndemn itee
Ġdesign ate
Ġafford ed
Ġhears ay
Ġp ull
ĠR C
Ġconven ience
ĠL ake
ĠFUR THER
G MENT
ĠTR ANS
ĠAriz ona
Ġc ure
Ġann um
ĠEx ercise
D ec
Ġext ensive
ĠAM END
pl an
Ġexceed s
Ġdevelop ing
P H
, '
C ON
âĢĿ );
Ġdivid ed
ot ed
ĠAl tern
Ġundert aken
Ġmark ed
' n
Ġinto x
Ġp oor
Ġe th
24 2
Ġscient ific
ĠEn ter
Ġapp ellees
sh ire
ĠD iv
-m ail
Ġstud ies
Ġapplicant 's
ĠP A
Ġsu its
Ġbod ies
Ġpres ident
et ing
Ġclass es
ĠPlaintiff 's
ĠI ra
ĠComp anies
Ġimplement ing
Ġstip ulated
Ġjud ic
Ġhouse hold
ic ide
Ġimm igration
ire ments
Ġpro hibit
27 0
Ġdist ance
Ġfacilit ate
Ġrepeated ly
ĠPart ner
b our
Ġcre ating
Ġdiff erences
Ġuse ful
Ġlook ed
ĠCompl iance
Ġf ifty
Ġpetition er's
ĠC UR
C ompany
28 0
ĠAccount s
Ġgriev ance
ific ance
Ġopp osite
um n
Ġcont ested
Ġpass ing
Ġrem arks
ĠRegistr ar
P L
Ġcust od
pons or
ĠL it
Ġdescrib e
Ġconting ent
Ġal ia
Ġhe irs
ĠAr bit
Ġmarket s
20 9
Ġrec k
ĠRe ason
Ġinvest ors
Ġdefect ive
U BL
Ġrenew al
Ġtri gg
Plaintiff s
Ġcons c
av ail
Ġra ising
ag ers
Ġle ases
olog ies
2 14
Ġdef enses
Ġk ill
che ll
Ġcent er
Ġknow s
Ġcar s
ĠRel ations
ou ston
Ġclass ification
Ġsp ending
ĠD rug
Ġfair ness
Ġthere with
EMOR AND
l oc
Ġcred ible
the re
ĠS ol
ĠR og
EMORAND UM
Ġanticip ated
ĉ A
rit ory
Ġsuff ering
ep endent
Ġguard ian
. ).
Ġsc r
ĠS ant
Ġfl ight
ĠOn ce
ut ral
Ġsp oke
17 6
Ġqu ick
ĠD on
u ate
Ġten ants
a 's
l im
ig g
Ġw aters
Ġm id
Ġexpress ion
Ġbod ily
ĠCert ificates
' d
ĠSim ilarly
w est
Ġexp ed
-O hio
c an
U LE
ĠFr anc
ĠPR ES
ĠD ue
Ġsl ight
pl us
Ġcontent ions
ĠT im
N ESS
Ġl if
ĠW ard
ĠGuarant y
MM ARY
Em phasis
Ġstip ulation
ĠIm pro
Ġcond emn
E E
id ay
Ġconf ine
Ġpr ay
ĠP le
Ġprevent ed
Ġg one
X X
ĠCol orado
Ġter ritory
ĠR ock
ĠTreat y
ĠIndemn ified
Ġche mical
O T
Ġad mit
ur t
Ġassign ments
Ġknow ing
Ġb oy
ĠOffic ial
Ġven ue
Ġmach ine
F ER
ig ital
il s
ĠAtl ant
Ġbrief s
ĠJ an
Ġsec uring
Ġl ender
Ġliber ty
Ġe fficiency
Ġrul ings
G RO
ĠS un
Ġimplement ed
Acc ord
ĠG o
Ġcomm encing
u k
Ġ .ĊĊ
ĠOff er
Ġtre ating
Ġexperi enced
Ġshare holder
ri an
Ġ x
ĠIN TER
il ton
Ġs ear
vis ions
ut in
ri ed
Ġpret rial
il er
ĠĠĠĠĠĠĠĠĠĠĠĠĠĠĠĠĠĠĠĠĠĠĠĠĠĠĠĠĠĠĠĠ ĠĠĠĠĠĠĠĠĠĠĠĠĠĠĠ
Ġdiss olution
et te
ĠJ O
Ġvac ated
it ures
Ġinvest ments
j ury
ar iff
Ġcompet itive
Ġar m
Ġmarri ed
26 0
Ġvalu able
ph y
29 0
ĠR ay
Ġst olen
ĠLab our
d ed
Ġacc ompany
ĠP UR
23 1
st ra
vol ous
ree k
ĠIra q
22 2
H N
Ġcare ful
Ġprejud iced
em ail
ĠD om
Ġmon etary
Ġconstru ctive
ĠN one
Ġbargain ing
ĠP ER
f ol
Ġl ock
Ġopp osing
I s
Ġwar ning
Ġsign ificance
Ġvol ume
Ġlic enses
d is
state ment
Ġarbitr ary
17 4
Ġill ness
Am endment
Ġintrodu ce
Ġaffili ates
ĠJ ournal
ang ible
ar io
Ġbu ild
Ġexact ly
2 16
ru it
Ġb us
ĠAnd rew
.ĊĊ ĊĊĊĊ
Ġsepar ation
ul s
Ġachie ved
Ġjust ification
oth ing
F ed
ĠAC T
ĠB et
Ġc umulative
Ġper pet
a ur
ator ies
ĠF ees
Ġsh ipp
Ġconf ront
Ġdemur rer
ĠK ansas
ĠS ales
ĠIndust rial
Ġsho oting
Ġabandon ed
Ġc y
ĠH a
ĠM id
ig ent
Ġlack s
ĠB en
) ),
m ay
Ġelse where
AR TICLE
ĠScott ish
p lace
Ġunenforce able
ĠSc he
Ġdemonstr ates
ĠRequ ired
Ġdu pl
Ġchallen ging
Ġinf er
24 1
Ġpro v
op s
ĠE ighth
Ġph ase
ĠM ajor
ĠExp enses
Ġre stitution
es e
Ã ¡
ent ures
Ġconvinc ing
herein after
Ġcho ose
av es
ĠF IN
- g
ĠSER VIC
Ġtest ator
Ġro ll
am in
Ġprevail ing
Ġan im
Ġlist ing
ĠGovernment 's
w o
Ġsusp ic
Ġli ens
ĠI RS
ĠAg ricult
ĠĠĠĠĠĠĠĠĠĠĠĠĠĠĠĠĠĠĠĠĠĠĠĠĠĠĠĠĠĠĠĠ ĠĠĠĠĠĠĠĠĠĠĠĠĠĠĠĠ
ri x
are n
ren ch
ĠMot or
ĠDe ed
ĠGrant or
Ġspecific ations
Ġdep ends
Ġsecond ary
r ant
Ġun ique
Ġreg ion
ĠAdv ance
Ġcit ations
Ġd well
22 1
ĠC IR
ell er
Ġunder min
Ġc as
yl um
Ġa u
Ġdev ices
- the
Ġmove ment
Ġwh ite
-h alf
Ġpres crib
Ġclose ly
Ġf em
Ġfrequ ently
ĠTechn ology
and ise
âĢĿ Ċ
Ġn urs
23 2
Ġguarant eed
Ġgo als
Ġatt ain
ĠW he
Ġshort ly
Ġsu e
W H
Ġmot iv
Ġdepri ved
Ġpreponder ance
Ġconflict s
S P
ĠB ANK
min ent
in ery
il ateral
Ġn in
Ġexceed ing
Ġanal og
Ġlarge ly
Ġunus ual
ard y
ond ay
Ġconvert ed
ĠCh ancellor
30 5
Ġv ary
ĠFund s
Ġend orse
Ġextra ordinary
ĠGR ANT
ĠGr and
Ġa part
Ġf ishing
Ġcontrib ute
29 2
Ġch ance
Ġcontract ors
illa ge
et her
Ġreck less
Ġsum mons
Ġup held
Ġtalk ing
Ġassess ing
ĠB IA
Ġenhance ment
ab b
umb r
Ġfam iliar
ĠApp endix
Ġin ability
Ġexclus ively
Ġreach ing
all ow
O D
Ġm isd
Ġviol ates
35 1
2 27
Ġrespondent 's
ĠAcqu isition
Ġdedu ct
Ġjur isd
ĠEng ine
Ġtrad itional
Ġin appropriate
ĠF ort
ĉN ame
Ġpre ferred
ĠB ra
ĠCoun ter
is able
Ġcons ents
re es
-- -Ċ
Ġpresent ation
ach ing
GRO UND
EN TI
Ġpet itions
Ġredu cing
An d
ourt eenth
s uring
Ġinc ap
Ġ( ``
Ġinvestig ate
Ġcor robor
50 2
F irst
ĠDo e
ĠE astern
Ġdis posed
Ġmisrepresent ation
z z
ĠRef orm
Ġo pt
ĠTH AT
Ġclin ical
ĠIntern et
ĠAS S
Ġse ized
Ġseiz ure
ĠP erc
ĠF CA
Ġde let
iv ables
ĠD ollars
Ġst ress
p ayment
on 's
P eople
Ġsub contract
ĠB ow
ard ing
f l
sec ution
he aring
ĠF DA
4 50
Ġadvis e
Ġsc reen
Ġenter prise
LE MENT
ort ed
Ġread s
t r
Ġinsol vency
Ġfor ces
Ġk illed
Ġrecip ient
Ġdepos its
Ġvessel s
ĠNE W
ĠCon sum
Ġshe et
- W
ĠM ir
so far
Ġ %
L IC
P O
Ġdepart ure
ĉ ĉĠ
Ġadvert ising
bur g
[ d
an 's
Ġcontrib uted
V A
Ġsupplement ed
C U
w ater
, ]
Ġdis pose
ĠFore st
Ġwithd rawn
ĠS and
Ġsh ared
I nt
. V
ACK GROUND
Ġsqu are
Ġdeliber ate
ĠA B
Ġdecla re
ĠBr ad
Ġs ave
9 00
Ġadv oc
un k
Ġlot s
Ġdef ines
Ġdef erred
2 23
AA P
Ġst ra
uck y
Ġreve aled
ĠRespond ents
Ġprivile ges
ĠWHERE AS
all ed
Ġprohib its
ĠS il
Ġmed ia
Ġdisp lay
ĠMor gan
Ġcooper ation
2 18
i ers
ĠN M
ĠCamp bell
el and
T OR
Ġhapp en
St ate
) );
Ġextreme ly
Ġbu ilt
ven ues
ĠBro ok
ĠDEN IED
Ġw ishes
ĠOM B
Ġp ledge
ĠR am
ĠEsc row
Ġsk ills
Ġland lord
25 2
s pec
Ġcustom ary
Ġs pl
Ġthreat s
ĠL ind
Ġmail ed
P er
r ich
Ġmean ings
âĢĶ and
Ġpro pose
Ġp ath
- J
Ġs ides
Ġcred ited
ĠOption ee
Ġper missible
gl as
55 2
Ġv enture
ĉT itle
ĠVal ley
Ġp ool
Ġmod ifications
Ġobvious ly
rig inal
Ġun employment
ĠT est
Ġposs ibly
Ġdelay ed
C US
Ġclaim ants
ĠP led
Ġlab el
Ġl ib
if iable
ĠCol lection
am us
Ġaccur acy
b ook
ĠAss essment
Ġb ench
Wh ile
Ġdefic iency
Ġinter state
Ġjurisd ictions
Ġtw ice
Ġprot est
Ġtr ou
ĠCUR IAM
ĠEmploy ees
Ġf ifth
Ġadmin istered
ed y
ĠTr ading
55 6
Ġex hibit
Ġdr ink
C o
ĠT ER
ON D
Ġrep ayment
Ġagricult ural
nes ota
Ġquestion ed
ump ing
Ġfil ings
Ġdispos al
ĠOffic ers
ĠRepresent ative
ĠDet ective
lah oma
Ġenj o
Ġrep airs
Ġinstit uted
Ġauthor izes
i ant
Ġopen ed
Ġfl ood
2 26
Ġintention ally
' S
Ġd imin
ĠRequ irements
el son
ĠG il
Ġsafe gu
., Ċ
Ġmess age
Ġs em
Ġconsist ently
ĠArt icles
ĠPh ill
Ġconsumm ation
Ġen suring
x i
ĠEqu ipment
Ġgo al
24 5
ĠG ib
ow ell
Ġregard s
30 7
ENC Y
Ġiniti ated
Ġprotect ive
Ġsome what
ĠW y
w a
clos ed
v ation
Ġconf usion
Ġconfidential ity
W A
Ġchar ging
Ġpossess ed
Ġp ict
Ġinteg r
ĠM anu
Ġh omes
es ign
ĠV A
ĠCo ok
Ġ ____
Ġintrodu ction
Ġmerch andise
Defendant s
iz ens
ĠP enal
ol it
ĠU SA
ĠAdvis ory
Ġincident s
il ot
ĠG onz
Ġb atter
ĠAnal ysis
ĠDO E
3 30
ĠI '
30 4
Ġprob ative
ĠM ult
l ines
Ġscr utin
Ġsoft ware
ĠIt em
d ef
Ġcompon ents
ĠRet irement
ĠW el
E AR
Ġpl at
anc er
US T
Ġsit es
FFIRM ED
Ġsuppl ies
ipp i
ĠM AR
2 19
ĠB rief
Ġanaly z
eep ing
Ġform ula
ĠĠĠĠĠĠĠĠĠĠĠĠĠĠĠĠĠĠĠĠĠĠĠĠĠĠĠĠĠĠĠĠ ĠĠĠĠĠĠĠĠĠĠĠĠĠĠĠĠĠ
Ġt it
Ġbr anch
ic ating
ĠD EC
ĠRel ated
ĠC ast
A ff
PART MENT
Ġburgl ary
25 4
Ġlar ger
Ex hibit
Ġin clusion
Ġdist ress
ĠCon sid
Y S
Ġdef ine
Ġill ust
ĠStep hen
ir able
3 12
iss ippi
ĠId aho
ĠCh urch
Ġclass ified
ĠIs land
5 10
n ce
Ġz one
ards hip
Ġordin arily
Ġregular ly
ĠEn force
Ġpsych iat
Ġinc entive
ĠB aker
ĠC ER
OC K
Ġdefin itions
Ġsub stances
RO M
ru ction
23 5
Ġe ast
Ġf irms
P D
j unction
f it
ĠR h
ious ly
iolog ical
yn d
em an
Ġ- Ċ
not ing
[ .]
ĠContract s
Ġbec oming
Ġd ed
ĠMit chell
] .Ċ
3 20
Ġpremium s
ĠInc entive
Ġconstru ct
Ġinf rastructure
Ġcamp aign
ic a
Ġw on
) ).Ċ
Ġcommission er
Ġm ass
M R
Ġattach ment
Ġbank ing
EN CE
Ġfor ty
4 24
- r
Ġdistrib utions
ĠSECUR ITIES
Ġdiscrimin atory
[ Federal
Ġstrong ly
2 17
ĠOk lahoma
ores aid
ĠS k
p se
M AN
ĠRoy al
ĠMin nesota
Ġgen erated
ĠBank s
Ġle ased
24 8
ĠGuarant ors
ĠInvest ments
ĠBenef it
( C
S S
ĠJ o
Ġf isher
Ġthe rap
Ġd ict
Ġcounsel 's
Ġpro ven
Ġcharacter istics
Ġdefin ite
ĠHen ry
Ġwhere by
ĠSt aff
Ġsh ift
Ġw est
ISS ION
Ġconfirm ation
Ġsuspic ion
Ġconstit uting
u per
b l
ĠA CC
Ġb ail
loc utory
ĠPlan ning
Ġaf oresaid
Ġcompar ison
Ġorgan is
Ġw arn
Ġsub mitting
ĠInd ividual
Ġst ake
Ġobs erve
m any
Ġexerc isable
ĠNo v
v ance
ĠR us
Ġauthor ised
ar ms
Ġqual ification
ĠS her
AN C
ĠC C
Ġobject s
Ġspe aking
3 11
Ġse at
oun sel
2 29
ĠRes pons
ĠWork ers
G u
Ġ `
Ġf eed
Ġdo g
it a
ĠAd ams
Ġgl obal
Ġ(âĢľ [
Ġeffect ed
Ġinvent ory
OR K
ĠM ortg
Ġcomp elling
36 5
ugh ter
5 23
ĠK an
ar ters
ĠCon st
ar ian
Ġsurv iving
ke y
Ġread ily
23 6
Ġsign ing
Ġrelative ly
Ġfin ance
Ġcre ates
Ġre ady
# #
ĠBILL ING
Ġp ure
ĠMiss issippi
U E
ĠIt s
Ġc ogn
ĠTH ERE
ĠW arrants
25 5
40 6
3 40
ĠD ri
Ġatt ended
IC H
ĠImpro ve
ew art
ĠMar ine
Ġrep ay
âĢ Ĳ
Ġsupervis or
ĠCust omer
rib utions
Ġra pe
60 1
ĠR IGH
Ġdid n't
Ġb ra
Ġminor ity
Ġfound ation
ĠR oss
b ury
ĠA ud
D IC
ĠRes olution
Ġem phasis
C ol
ĠS a
Ġrule making
Ġk id
Ġp iece
Ġconsist ing
4 10
Ġto t
4 15
k s
ĠB la
Ġr ural
Ġman aging
Ġsell er
ative ly
ĠF ield
i ries
miss ibility
ĠD am
Ġas ylum
" .Ċ
ĠDem ocr
2 28
Ġsubpo ena
Ġnot ing
g n
ĠProper ties
b u
Ġreg istr
ĠL O
Ġman age
Ġadv ances
s ign
PR ES
Ġundert ake
f inding
as ion
la ughter
ĠN at
E EC
Ġoccup ied
ĠU s
ĠD ated
ast ic
art ial
Ġqual ifications
om an
cons in
ĠG reat
Ġch ain
AC H
Ġpract ition
Ġm em
T D
ĠP oint
80 1
Ġur ged
Ġhabit at
3 17
Ġaccept ing
Ġindepend ently
46 6
qu es
Ġre op
Ġmed ication
U TH
Ġre ar
ĠPRES ID
ĠUN DER
Ġf la
ĠRE M
Ġpack age
4 11
Ġfac simile
ĠI C
) -
ĠE very
App lic
d own
ĠR uss
Ġb anc
Ġdestroy ed
clud ed
ĠMor ris
Ġbehav i
Ġwhere in
Ġmar ital
Ġconsist s
ĠUt ah
d isc
] ĊĊĊ
Ġpro p
Ġplain ly
em ean
Ġinvol untary
act ed
ubl ished
ĠAct s
ĠM el
Ġrout ine
Ġwea pons
C ont
h as
Ġprint ed
ĠH az
Ġsu preme
Ġevery thing
23 3
Ġconfine ment
ĠR en
Ġd ollar
res h
Ġstreng th
ĠContract or
Ġb onus
Ġdirect ing
author ized
ĠPerc ent
ordin ate
Ġelimin ate
Ġcorrespond ence
Ġease ment
ĠG al
ĠTer ms
ĠEv ans
Ġz oning
Ġrel iable
30 6
ĠUn iform
4 14
Ġcert ify
ĠIn stitute
Ġmechan ism
with out
ĠC arl
Ġpred ecess
iver y
B ut
Ġeas ily
3 19
Ġlev y
Ġcontinu ous
ĠWell s
ĠH o
Ġth orough
ĠS olic
Ġpat ents
*** ]
Ġreserv es
ĠCON CLUSION
Ġtrad em
Ġprep ayment
ĠReport s
og ether
ĠConn ect
26 5
ĠEnt ity
Ġsign s
40 8
Ġjury 's
ic he
ĠRed emption
ans ion
ĠL IB
ĠF ourteenth
ING S
Ġsur gery
Ġpr ong
r ical
al y
man n
sub ject
ĠD id
Ġdefect s
Ġjudge 's
Q u
Ġreview s
Ġreason ed
Ġprob ate
Ġhand ling
Ġc ast
Ġviol ent
r idge
50 4
ĉ I
le e
ĠF ull
- K
Ġserious ly
Ġac adem
Ġcons ervation
FOR E
Ġappear ing
Ġse qu
re ctions
port s
Ġcounterpart s
C ount
Ġparticip ated
a ver
reg on
ĠKel ly
ĠC f
p d
23 4
26 1
Ġcred its
Ġr ank
Ġtri er
ong ress
**** ****
Ġver s
ĠC D
ĠE E
Ġpres cription
ĠSh ort
ĠCond itions
Ġsett le
est y
ĠJ ac
Ġpreclud ed
ĠD i
ĠEconom ic
ession al
Ġoutl ined
ĠB d
ĠHe ad
Ġdistingu ished
Ġsupp ression
" );
Ġeven ing
ĠG AAP
ĠCust oms
on om
Ġper ce
ĠDou glas
ĠReg ional
ĠPay ing
Ġnorm ally
Ġge ograph
Ġadj ourn
Ġdest ruction
Ġpre ference
Ġautom atic
ĠL LP
Ġus er
Ġn uclear
Ġpro miss
ĠEX HIBIT
Ġinstall ation
Ġch ose
ĠCol lege
Ġown s
Ġden ies
Ġconstru cted
Ġintegr ity
ĠRail road
d s
Ġgr ad
ĠH earing
ĠTh ree
Ġcor rection
Ġinter locutory
27 8
ĠJUD GMENT
ĠL yn
% Ċ
un ch
Ġd iversity
ĠLicense e
Ġun due
Ġus ers
ĠSm all
Ġstrict ly
ĠR edu
ĠWis consin
ĠOpp osition
res ident
Ġfa ced
ĠF iscal
gue z
ĠQu estion
N e
Ġind iff
Ġm ent
ĠBenef its
3 21
Ġre min
m ust
Ġple ase
ĠMinister s
4 12
Ġpromiss ory
Ġdisc over
25 3
Ġch osen
ĠT ri
Ġoper ational
Ġmeas ured
27 1
T ON
m ar
Ġincons ist
K ER
Ġdro ve
Ġplan ned
] ).
Ġint ends
ĠT or
ĠP rom
Ġinterven e
36 2
am ine
Ġlaw yers
ĠH om
PRES ENT
S ION
rimin ation
ĠCh ar
PP LEMENT
Ġpro ff
Ġevent ually
Ġ ________________________________
Ġkeep ing
ĠF IL
is is
Ġcomprom ise
ill ance
Ġwel come
Ġca usation
ĠDes pite
Ġent ertain
Ġsupervis ed
Ġtrans p
ĠWith in
Ġadvis ory
33 3
ĠCl ub
Ġsupp osed
3 15
ĠSu ite
Ġlist s
H owever
Ġph arm
Ġdis par
Ġhe ading
Ġsubstit uted
Ġnew ly
ul f
Ġmisd emean
ĠF L
' re
if ts
Ġobserv ations
Ġman aged
itor ial
n s
Ġg ang
p oint
J ohn
Ġsubject ed
B Y
Ġcontrad ict
Tr ans
m p
ĠSystem s
ĠP anel
CUS SION
Ġb orn
Ġincident al
Â ·
bur sed
ĠWIT NESS
Ġconflict ing
g ar
C ongress
Ġsc ale
Ġs pon
Ag reement
Ġden omin
Ġwa ives
ĠKent ucky
ĠCar ter
Ġsuccess fully
Ġacqu itt
ĠI R
Ġcoll ision
Ġdescrib es
Ġcertain ty
Ġdedu ctions
Ġavoid ance
ĠR at
ĠN ich
am ble
ĠInc re
Ġevalu ating
Ġrestra int
Ġra p
ĠB urn
r iting
ĠB O
ĠBoard 's
23 7
ĠEn vironment
Fin ally
ĠThe n
Ġsubject ive
23 8
u ity
ĠD IV
Ġtransf eree
Ġfri volous
Ġrep utation
l ife
Ġfe atures
on ess
ĠOn ly
US TICE
Ġteacher s
ĠIn f
ur se
Ġvari ety
le ep
ĠServ s
27 4
23 9
24 9
Ġur ge
Ġv acc
Ġan imal
30 8
Ġimpro ved
ens us
ĠDe termination
ĠAssist ance
m at
d el
ul ner
" (
ĠB ACKGROUND
Ġca pt
âĢĻ x
00 5
ch ild
ĠF ound
Ġoper ators
am ing
Ġaffect s
35 8
Ġregul ated
d a
ĠRec ords
3 22
Ġen um
IS H
Ġext ending
M c
ĠAcc ess
ĠC y
Ġ er
Ġj eop
Ġw or
ĠW ol
S O
ĠC orporate
ĠN HS
d efendant
ĉ In
Ġh ire
ĠGovern or
Ġinvestig ations
Ġqu oting
E n
3 13
Ġdef erence
ine z
Ġcondition al
ĠO regon
24 7
ic ut
ab in
ĠN inth
i encies
Ġde ep
Ġaward ing
Ġpresent ly
Not ices
Ġh it
Ġsam ple
Ġmand amus
ĠEnforce ment
Ġ. "
Ġun known
Ġaccompany ing
Ġg ift
d ens
Ġfl u
Ġgr ade
Ġin sofar
Ġappro ached
k a
ĠProceed s
Ġan nex
Ġunanim ous
ENTI AL
ĠS CH
D UC
Ġcall ing
ĠOrder s
Ġask s
Ġun avail
26 3
Ġrat io
ĠThere after
Ġconf ined
un c
Ġb ig
ĠM erger
ĠS heriff
ĠC ard
Ġprecise ly
Ġmot ive
iv an
ĠCON S
Ġsw orn
27 5
Ġsolic itor
t a
ĠLet ters
ĠSub s
Ġexpert ise
Ġon line
ĠF ra
ĠPart ners
ĠVe terans
ĠM onday
omm end
ĠY et
Ġleaders hip
Ġbi as
Ġsever ance
Ġphotograph s
M ISS
Ġmal icious
24 6
Ġdisburse ments
Ġbatter y
Ġstart ing
Ġcomp elled
Ġr an
ĠH el
Ġad mitting
3 14
T T
il st
27 2
ĠD eal
ĠBack ground
ĠOff ering
Ġwhe never
ime ly
Ġs olution
ch ar
Ġhe ight
M s
Ġunlike ly
Ġsche mes
ĠK y
ĠF unding
Ġmed ic
ĠElect ric
ĠW A
38 0
26 8
3 25
Ġrestrict ive
Ġdet ri
w er
Ġli qu
Ġvis ited
Ġle arning
erc ially
00 2
Ġv esting
Ġcooper ate
26 7
ĠVe h
-C R
Ġinc orporation
Ġmoder n
Ġelectric ity
ĠManu fact
et ic
25 6
Ġinm ates
27 3
ĠR os
pond ent
eg ree
ri guez
Ġquestion ing
ĠP ub
ATION AL
Ġe p
4 40
Ġtend ered
st ating
Ġeng aging
ĠF rench
oc ol
( k
ĠB R
ĠGr ay
el ig
Ġappropri ately
Ġrelationship s
ov ation
Ġto uch
ĠSt eel
25 7
Ġput ting
ĠIssu e
ivers ary
ĠH ON
ĠNev ada
50 3
in ance
Ġcom missions
Ġpr ud
ĸ ¡
ic ular
ĉ D
ĠTurn er
-con viction
ĠLi quid
Ġt ank
Ġvis a
i os
24 3
reason able
" ).ĊĊ
Ġh ired
Ġfra ction
Ġwe ak
Ġmanufacture rs
Ġdemonstr ating
ĠCo al
Ġem p
ĠDe v
ER IC
30 9
Ġex ternal
4 20
ĠO C
st one
Ġfel on
................ ....
Ġprotect ing
ern and
abl ing
Ġse ason
3 23
AN TS
Ġsp end
Ġpurch asing
ĠMin n
Ġinv ention
omp ass
Ġreg ime
ĠLic ensed
ars h
Ġfund ed
5 44
Ġret ention
ane ously
OL D
lab ama
L e
ĠDepos it
5 20
ĠM R
Ġd iver
all as
ĠR ad
Ġviol ating
in ations
Ġc oup
Ġplaus ible
Ġambigu ous
ĠH ist
ĠCh air
ĠCh arter
ĠK ir
ĠSt ewart
Ġprohib iting
Ġsure ty
P etition
ĠO riginal
b all
3 16
ĠS us
AC TION
Ġab st
29 5
Ġclar ify
29 1
55 5
Ġsp ir
g ent
ĠArbit ration
Ġv ital
Ġc ite
ĠCOR POR
ĠMaterial s
Ġfore see
B ecause
ĠF ailure
ĠRef erence
Ġremo ving
ĠFin ding
Ġmethod ology
AR E
Ġw all
h on
ĠSt an
ĠD aniel
S ir
ĠD CA
24 4
al le
ĠHow ard
Ġdistrict s
-d ef
Ġcontact ed
old s
Ġvot es
Ġcontinu ation
Ġgovern ments
Ġbr ings
Ġnew sp
ĠColl ins
res pass
4 22
v ii
ĠRo om
ĠPhill ips
ĠG O
Ġpla cing
ĠMur phy
Ġad ministr
Ġam ending
Ġf oster
ic ro
Ġconsum ption
ĠGr iff
ĠGrant ee
Ġexc use
ĠCons ent
Ġexam ples
Ġpubl ish
Ġdisp ro
Ġunt imely
Ġchang ing
ĠW all
Ġinad missible
Ġunderw rit
em per
arc ia
ĠPro spect
Ġexceed ed
ĠSub section
.C ode
OR S
4 25
g or
Ġdiscuss ing
sec ured
Ġc le
Ġend ors
Ġmo vant
I Z
26 2
Ġprotect ions
Ġrev oked
amb igu
ĠM any
ĠRober ts
- and
Ġass urance
Ġh ouses
ĠRece ivables
t m
ĉ Section
Ġstay ed
Ġdefic ient
Ġneigh bor
37 5
ĠJUD GE
ĠOFFIC ER
Ġdel inqu
ĠConnect icut
ĠL C
[ ]
ic ity
ĠC B
b ro
Ġhe avy
Ġh ardship
Ġwr ite
Ġirrevoc ably
Ġdwell ing
Ġquick ly
Ġmeaning ful
Ġinv ited
D r
ĠGRANT ED
A ct
Ġvot ed
ĠParticip ants
G eneral
c ill
ust ice
p ractice
id er
ĠĠĠĠĠĠĠĠĠĠĠĠĠĠĠĠĠĠĠĠĠĠĠĠĠĠĠĠĠĠĠĠ ĠĠĠĠĠĠĠĠĠĠĠĠĠĠĠĠĠĠĠ
47 5
ow ner
ĠI J
Ġ +
Ġcomm and
Ġlik ewise
ash ion
Ġind ex
Ġdisc ont
Ġv ulner
ĠBr anch
ĠS y
ĠL y
( iii
Ġnin ety
ĠF ROM
36 6
ĠPro visions
Ġe lev
. h
Ġpre empt
Ġpart e
Ġinsert ed
ĠY our
Ġun ivers
ch it
49 0
ly n
Ġconstru e
mon t
ĠCham ber
ĠFr iday
Ġaltern atives
ĠDIV ISION
Ġstreng the
Ġreceipt s
Ġann ually
ch arge
Ġo missions
ri er
b ered
Ġinstall ed
at ab
Ġconsent ed
ĠD NA
o 's
Ġbl ank
Ġoff set
ĠConsum er
Ġpersu asive
Ġfranch ise
ĠR ose
ĠAfric an
ĠC a
ĠEd wards
Ġhaz ardous
âĢĻ S
ear s
ĠBro ad
ĠEx isting
ĠDis closure
re ed
ĠD OC
Ġf ired
Ġcontract ing
ĠWHERE OF
Ġo l
ĠDis ability
c a
Ġcommission ers
] .ĊĊ
Ġp ec
Ġad du
ĠB ry
ĠSell ers
Ġmanufact ured
ĠA labama
ĠâĢ Ŀ
Ġdam aged
ist an
ĠG od
ĠH ug
An y
28 5
ĠL ady
ĠK n
Ġcont empor
ĠPRO C
Ġn av
ig hed
27 7
ĠCommission ers
ual ty
ĠThe ir
or al
Ġ ...
Ġupd ated
ri a
Ġexpect ation
U AL
Ġparty 's
Ġrad io
Ġcandid ate
Ġrational e
ĠG re
ĠJ USTICE
Ġprep aring
Ġauthor izing
ĠComm unications
Ġg ar
w hen
- U
ĉ F
ri age
b est
ĠF C
4 30
ĠGer many
ĠL oss
acc o
ĠN elson
ĠCit izens
B R
Ġhtt ps
Ġsur plus
Ġcoup le
Ġm iddle
Ġre venues
Ġmy self
ĠTerr itory
Ġst eel
Ġenforce ability
g un
ĠMat urity
Ġ Ã
Ġsh oul
............ ..
Ġh op
ĠS W
Ġin g
ĠSU CH
Ġmitig ating
ang es
ĠL IM
Ġenc ompass
Ġbound ary
Ġn ull
Ġoccup ation
Ġdemand ed
5 11
R ep
k eeping
ĠS ep
34 1
Ġf ish
Ġis ol
IL ITY
b ank
Ġh olid
ar ry
Ġcol or
- Appellant
ĠMut ual
Ġelect ions
Ġparticular s
Ġrecogn izes
ĠM D
Ġbur dens
App ellee
Ġpre mis
28 1
of t
ick s
Ġ ...........
26 6
Ġcalc ulating
Ġtest ed
ĠP ension
Ġm ale
-d egree
Ġconf er
ĠH oll
Ġconform ity
50 5
Ġlaw fully
Ġas sure
ĠĠĠĠĠĠĠĠĠĠĠĠĠĠĠĠĠĠĠĠĠĠĠĠĠĠĠĠĠĠĠĠ ĠĠĠĠĠĠĠĠĠĠĠĠĠĠĠĠĠĠĠĠ
/ A
Ġconf ession
Ġoper ates
Ġcomm ercially
ĠAl aska
Ġre habilitation
Ġst ory
Ġprosec ute
Ġc ore
AN A
it er
-G eneral
26 4
Ġrepl ied
ĠBl ue
Ġpre f
Ġreve als
ron ically
ĠB ench
Ġch ann
. ----ĊĊ
am m
ild life
5 30
ak ers
S H
Ġstand s
ĠS ociety
[ ,]
Ġfunction al
ĠP UBL
Ġdeem s
-------- -Ċ
28 8
Ġpropos ing
Ġorganis ations
ign ment
Ġvis itation
ĠCo ven
ĠL ib
28 4
A tt
Ġstra ight
ut ors
ur d
âĢĶ that
est abl
Ġrout e
Ġmar gin
Ġwind ow
US E
Ġrem ark
ĠH un
Ġess ence
Ġdef am
" ;
ang ed
ak ings
29 6
ĠFIL ED
Ġpro mises
Ġimpair ments
4 23
29 4
CU IT
Ġatt ract
Ġform a
ch ing
Ġtre as
ĠInvest ors
Ġserv es
Ġrele vance
Ġexpend itures
âĢ Ł
Ġs ick
Ġover come
5 70
Ġind ef
ĠS und
Ġen su
ĠPl ans
Ġresign ation
Ġmit igation
ĠMir anda
Ġ( Â§
ĠCIR CUIT
Ġt respass
Ġl essee
Ġl ies
chit ect
s ight
Ġprospect us
N O
applic able
Ġdissent ing
ĠRe vised
Ġfoc used
IE W
pp ing
Ġmach inery
25 9
Ġprodu cing
er m
ĠE UR
end a
ĠNot ices
Ġdescrib ing
Ġbro ken
Ġbr idge
ĠCONT ACT
Ġcomment ers
Ġin put
Ġunre lated
27 9
3 37
k ers
Ġch airman
37 0
ĠD A
Ġreferen ced
ĠI L
su med
ac ent
ĠM and
b re
Ġevid encing
h an
ĠĠĠĠĠĠĠĠĠĠĠĠĠĠĠĠĠĠĠĠĠĠĠĠĠĠĠĠĠĠĠĠ ĠĠĠĠĠĠĠĠĠĠĠĠĠĠĠĠĠĠ
b ar
Ġloc ations
47 3
38 6
Ġpropri etary
DR ESS
int endent
Ġdis qual
Ġreconsid er
it ated
Ġmor al
Ġgrow ing
ĉ L
ĠM S
int erest
ĠF e
Ġconstitution ally
ro le
oun ter
. :
ĠWa iver
im ated
Ġcon gress
Ġexcept ional
ist ence
Ġv est
one ys
Ġst amp
Ġdecre ase
Ġp ounds
ĠA vail
Ġincomp et
Ġguarant ees
Ġon to
Ġpun ish
Ġint ellectual
26 9
5 41
29 3
ĠLe vel
47 0
38 5
Ġnot iced
Ġdiscipl ine
Ġex posed
Ġjudic ata
ĠOper ations
Ġun ambigu
Ġcur iam
ĠL os
ĠTrust ees
Ġg ender
.C ir
D onald
Ġfem ale
Ġvalid ly
Ġa p
ĠCur rent
Ġanim als
M O
Ġdiagn osis
Ġprevent ing
ĠAppellant 's
Ġm us
Ġann iversary
Ġphys ically
Ġacc um
Ġbu yer
Ġinv o
ĠN ations
Ġwa iting
Ġindemn ified
opp ing
ad el
4 36
Ġdirect ive
Ġs ession
40 7
Ġlic ensing
- oper
Ġo ath
Ġto ols
37 1
ĠExecutive 's
ĉ B
Ġhy d
ge ant
w ould
ĠK im
i as
Ġl ose
Ġdeclar ations
H e
- sh
ĠG ard
ĠB ost
n y
âĢĿ .Ċ
ĠExt ension
Ġder iv
Ġad missions
Ġesc ape
28 7
28 6
ĠMar shall
3 24
Ġmisdemean or
ĠHon orable
Ġperson 's
Ġdes irable
ĠWh it
Ġyou th
V EN
Ġvis its
het amine
ĠRep ly
ĠInt ellectual
Ġt on
in ite
Ġmunicipal ity
Ġtaxpay ers
Ġscrutin y
vent ions
ĠAtlant ic
Ġs y
Ġca ution
ĠSt rick
Ġorder ing
Ġassist ant
J UD
ĠPRESID ING
ĠH and
ĠRedu ction
D a
Ġsub stitution
4 31
Ġdes ired
Ġresc ind
Ġad missibility
Ġexpla ining
ĠB oy
Ġevalu ated
Ġspl it
Ġbank rupt
Ġdoct ors
Ġprison ers
ĠRod riguez
Ġrest s
ĠPle as
Ġover t
ol ved
Ġb order
Ġman agers
ĠAgricult ure
5 12
ĠP E
ĠO w
39 5
o la
b urn
ĠTenant 's
3 31
x x
Ġdeliver ing
âĢĻ n
Ġext r
28 2
ĠW ay
ĠInd ependent
Ġtele vision
Ġrenew ed
ĠMedic aid
et itive
.-- Ċ
ĠT od
T itle
OR T
ĠDebt ors
27 6
ĠAs sum
-th ird
ON S
ĠN atural
Ġdefe at
ĠRE PRESENT
Ġpurch ases
- a
Ġon es
Ġprom otion
50 6
l ock
Ġtask s
Ġhelp ful
ĠGra ham
Ġre jection
ĠN avy
ob by
Ġadvert ise
Ġprep aid
RO W
U G
u is
Ġbehavi our
Ġcare er
25 8
Ġexp ended
Ġsurve illance
Ġpost ed
Ġconstitu ency
ĠP M
is en
3 27
ĠFl oor
Ġb ona
Ġmar ine
44 3
pr ises
35 2
Ġnegoti ated
Ġf ashion
Ġsuggest ing
ernand ez
Accord ingly
N S
Ġint r
un ior
Ġcr isis
........ ..
ĠRog ers
d ollar
37 2
ĠN A
ĠL uc
Ġpersu aded
Ġsc en
ĠRec ommend
Em ploy
V I
Ġtrust s
ĠLiber ty
Ġf ide
ĠHam ilton
ĠWhere as
4 60
ĠAdv ances
Ġdom ain
et ime
com es
] .)
ĠB L
R ule
Ġconn ect
af e
ĠO J
5 60
Ġspec ification
Ġt ick
ĠF AC
Ġlicense e
Ġrec re
reg ular
3 18
ĠF ile
b el
h art
47 1
w s
3 28
T ABLE
ĠAlex ander
ĠH y
39 0
50 7
ĠAc cept
ĠBrit ain
Ġcarri ers
par able
70 2
as c
Ġu ph
I X
ĠPercent age
Ġinc on
ĠH unt
Ġim poses
Ġexam ining
ĠProceed ings
h ad
en 's
37 3
Ġpurch asers
ĠSu ll
Ġout we
ĠAg ents
ail ed
Ġmin ute
ens ity
is ms
28 3
Ġc rack
Ġde port
Ġphysic ians
Ġter r
Ġhon or
ĠU l
LA IM
Ġrem ote
ĠAnge les
Ġstock holder
Ġappropri ated
ĠRus sell
Ã Ń
Ġsk ill
Ġmiss ing
Ġad apt
ior ari
Ġun authorized
3 35
Ġcommit ments
ĠĠĠĠĠĠĠĠĠĠĠĠĠĠĠĠĠĠĠĠĠĠĠĠĠĠĠĠĠĠĠĠĠĠĠĠĠĠĠĠĠĠĠĠĠĠĠĠĠĠĠĠĠĠĠĠĠĠĠĠĠĠĠĠĠĠĠĠĠĠĠĠĠĠĠĠĠĠĠĠĠĠĠĠĠĠĠĠĠĠĠĠĠĠĠĠĠĠĠĠĠĠĠĠĠĠĠĠĠĠĠĠĠĠĠĠĠĠĠĠĠĠĠĠĠĠĠĠ ĠĠĠĠĠĠĠĠĠĠĠĠĠĠĠĠĠĠĠĠĠĠĠĠĠĠĠĠĠĠĠĠĠĠĠĠĠĠĠĠĠĠĠĠĠĠĠĠĠĠĠĠĠĠĠĠĠĠĠĠĠĠĠĠĠĠĠĠĠĠĠĠĠĠĠĠĠĠĠĠĠĠĠĠĠĠĠĠĠĠĠĠĠĠĠĠĠĠĠĠĠĠĠĠĠĠĠĠĠĠĠĠĠĠĠĠĠĠĠĠĠĠĠĠĠĠĠĠ
ĠT arget
Ġdraw ing
Ġimp aired
ill o
ĠG reg
Ġunt rue
ĠM us
Ġr ata
Ġinnoc ent
ĠDIS MISS
Ġfound ed
ap ital
Ġconc rete
Ġaccru e
OR Y
ĠM C
ĠAD A
âĢ¦âĢ¦ âĢ¦âĢ¦
ĠMart inez
ĠRest atement
Ġb ind
Ġorgan isation
3 42
Ġwith hold
ĠB enn
on ly
ĠP H
Ġpursu ed
4 13
P M
ps ed
Ġz ero
Ġapplic ability
M iss
44 1
C omp
70 1
ĠOblig or
Ġunc ond
ĠA F
ĠRE QU
Ġdifferent ly
Ġdis ad
law s
29 9
ion ed
uss ion
29 8
ĠC apt
ount ain
Ġref eree
ĠL ock
45 1
Ġcalc ulations
Ġbelong ing
pt on
on ial
it ime
Ġfall ing
Ġclar ity
ĠPark er
ĠHigh way
ĠDis p
4 47
Ġpres erved
ict or
b oard
Ġreve al
Ġtell ing
Ġcom mitting
ĠPurch asers
-t rial
Ġunsu ccess
ĠEn d
Ġcol umn
Ġcomm od
Ġforfe ited
39 1
ord on
ĠArk ansas
28 9
Ġper secution
Ġb it
ĠOrgan ization
Ġimpl ications
Ġhigh light
own ers
str icted
K E
Ġapp ortion
Ġent ries
cri ptions
Ġv o
ĠStat ute
- out
IC E
ut ch
ĠCORPOR ATION
6 36
ĠD or
Ġdis abilities
Ġstate 's
4 18
ĠWh y
role um
p laintiff
st ated
ĠT ru
man 's
ĠG arcia
ĠP ot
en z
Ġenc umbr
with in
Ġb urn
29 7
ĠN av
). )
m ith
medi ate
48 2
ĠLIB OR
r id
Ġconcur ring
Ġsp read
Ġm oneys
3 36
ĠM ost
36 1
Ġreal ity
ĠAppro val
ap an
4 35
Ġr ound
Ġadj acent
IT H
od es
Ġmin ing
N or
Ġdefic iencies
36 3
ĠC la
Ġmal practice
Ġtrib al
ĠAv iation
Ġroad s
ĠAn other
ra cy
ĠPriv ate
Ġissu able
Ġconced es
Ġrevis ion
ĠC ra
ĠIns pect
ĠG EN
4 32
ĠB ern
Ġperman ently
Ġcomment er
it ative
Ġadopt ing
un te
Ġol der
Ġmin ister
fol io
acc ur
ut ical
Ġgovernment 's
Ġmut ually
th ony
Ġaccept s
P OS
ĠEE OC
c ourt
qu ot
w alk
4 21
ĠC reek
ĠL ow
Ġrel ator
Ġrel iability
ĠConsult ant
36 4
Ġuncertain ty
Ġdep uty
' l
Ġl ump
Ġpsych ological
Ġmin eral
ar p
Ġre ass
ort on
6 10
Ġrecogn ised
3 26
ĠNet work
Ġk illing
ĠDepos itary
Ġmult ipl
ĠS um
ĠS l
48 0
Ġsolic itors
op her
ĠH O
het ical
Ġproduc ers
Ġtyp ically
Ġf eas
6 50
Ġbrief ing
ĠA LL
IN T
W ill
|| ||
ĠE L
ĠJur isdiction
( j
Ġsec retary
Ġcon junction
Ġprox imate
Ġw ants
ĠStrick land
Ġrev oke
inu ed
ath y
Ġcol lege
ĉĠĉĠ ĉĠ
ce an
Ġhistor ical
ĠRe ed
Ġapprec iate
Ġlo ad
Ġ| Ċ
let t
- old
- level
ĠT om
Ġle aves
Ġapprais al
ĠProf essor
t ical
Ġey e
Ġconce al
Ġt ro
Ġf ill
Ġtreat y
exp la
O p
ĠTh rough
-t ion
Ġstruct ures
H ere
Wh at
arc ot
38 8
Ġhe nce
eng ers
Ġstreet s
se tt
ĠIs ra
ĠSu ccess
Ġattend ance
ĠH ud
38 4
ĠF ED
ĠM EMORANDUM
ĠIN D
c lear
Ġrelie ve
IN E
6 78
ĠâĢľ âĢĺ
jud gment
Ġce ased
46 1
Ġobserv ation
ĠF le
ĉ the
Ġalt ered
N SW
ĠI P
Ġp ilot
ĠM AT
.] ĊĊ
Ġchild 's
Ġcontract ed
z er
Ġiniti ative
LO Y
49 1
eth od
ope z
ĠE lection
Ġgre en
p ublic
ĠEd ward
55 1
34 3
Ġen l
Ġsub part
Ġre hearing
am ination
PPLEMENT ARY
ĠH ouston
Ġro of
ĠC F
35 3
ph ia
ĠDel ivery
Ġindiff erence
Ġa head
Ġdri ven
] t
olit an
Ġc ancer
Ġun cont
33 2
44 4
ver age
S D
Ġimp ression
50 9
ĠProced ures
Ġdet ect
Ġsatisf ies
Ġcom mittees
Ġimp each
Ġdeed s
DE PARTMENT
45 5
d es
Ġv ague
ĠF M
ĠState ments
The se
ĠS ar
ĠF ree
ĠAr m
Ġse a
ĠH ad
Ġcross ing
ĠSche me
ĠSt ev
ĠR and
Ġir res
Ġw atch
ĠN RC
Ġdepri vation
3 47
ĠFin ancing
Ġb ought
Ġcon stant
5 15
Ġtra ve
Ġunc lear
Ġfire arms
Ġqual ifying
let on
aur ant
Ġpar cel
Ġregul ate
Ġenfor cing
Ġacceler ation
Ġref uge
isc o
ĠIndust ry
os h
ru le
48 4
35 7
5 29
ĠBenef iciary
Ġsusp end
Ġrest ated
ĠC AL
.âĢĿ );
C itation
Ġrep urchase
is an
Ġch urch
Ġstrateg ic
-m aking
ĠPro b
5 22
Ġintell igence
Ġsubse ctions
Ġm ine
O ne
Ġquarter ly
Ġlat est
duct ions
U pon
Ġoblig ed
Ġtrans ition
per t
00 3
pre c
c op
gh an
ĠAPP LIC
E P
Bank r
Ġle ader
ĠPC RA
g est
be ing
Ġra cial
in sured
Ġbrief ly
âĢĿ ;
ĠJ ury
ĠRE POR
in ity
Ġtermin ating
ĠM eas
Ġo d
ĠREV IEW
39 2
Ġacadem ic
li ers
55 3
Ġhospital s
Ġit 's
ĠNM FS
U TION
pr int
ĠMin istry
Ġst ood
Ġm obile
ĠSull ivan
amp hetamine
Ġmail ing
ĉ R
Ġcover s
Ġtot ally
Ġdis hon
Ġrestra ining
50 8
ĠIs lands
Ġtotal ity
Ġbott om
9 11
Ġbound aries
ĠReport ing
un ately
Ġh otel
ĠCount ry
Ġ ends
i est
ence ment
Ġexecut or
ab ric
Ġst em
Ġv ic
Ġinnoc ence
Ġexempt ions
ĠKenn edy
W E
Ġcitizens hip
- inc
ĠDecl aration
ĠT ur
Ġdepri ve
48 1
ĠCon c
ĠJac ob
ĠH A
Con n
ĠT A
Ġinv oice
or ders
ĠOblig ation
Ġ .Ċ
no on
ĠS entencing
Ġ* **
elig ible
4 45
ĠP ress
Ġreturn ing
Ġpre gn
ĠDefin itions
ED ULE
ater n
ues day
Ġunderstand s
Ġcontact s
3 29
ĠProvid er
ĠStr ateg
ĠSc hed
4 17
ant ly
? "
ĠCon duct
r an
sh ore
Ġelect ronically
ĠBu ck
adel phia
ĠCOMM ISSION
ac cept
Ġdeal er
Ġflex ibility
Ġaccur ately
33 4
Ġnon mo
Ġcert iorari
, -
Ġassert ions
ang ers
Ġad mits
Ġn ond
pec ific
S ign
eral d
Ġres ource
ĠP u
am ount
Ġbro ader
Ġra re
s he
Ġsmall er
com ing
ĠStev ens
Ġpro s
7 20
in ced
ut ies
it rust
3 38
ed nes
Ġt emper
Y ou
ĠQual ity
ĠL ist
hip s
Ġin accur
ĠTrans actions
ĠGer man
ĠMont ana
Ġst ream
Ġve terans
36 7
Ġimpl icit
Ġde als
ĠCh ap
ment ioned
.âĢĶ (
rop olitan
ĠCont in
ĠM AY
iction ary
Ġd atab
'' )
38 3
ĠHug hes
or ters
Ġrender ing
Ġrevers ible
Ġsucceed ing
4 29
Ġsumm er
ter y
ĠAM ERIC
Ġdeleg ated
ĠAppro pri
ĠAn sw
b a
r aska
ac es
ĠMod el
Ġplay ed
39 7
ĠSe lect
Ġmin imal
Ġcommon ly
, âĢĻ
ĠL ie
Ġesc row
Ġprevent ion
Ġrecogn ise
ĠCorp s
Ġcandid ates
Ġdispos itive
âĢĿ ).ĊĊ
F ID
ĠDepartment 's
Ġt ariff
ĠL ast
Ġtherap y
ĠDef ence
Ġsubject s
P T
Ġcompet ing
i ques
Ġfulf ill
Ġwid ow
Ġbeg ins
l oyd
Ġimp artial
Ġdepos itions
/ a
37 4
g om
are house
ĠAssoci ates
w hel
Ġexecut ing
Ġplat form
IC O
i ment
ĠSU B
l ook
Ġoper ative
rie ved
ĠL an
AG ENCY
ĠP la
du ction
Ġnon etheless
w ick
Ġpass engers
Ġsh aring
ĠFr ance
Ġtraffic king
Ġtalk ed
Ġroy alty
Ġincarc eration
Ġspir it
Ġcustom s
âĢĶ ĊĊ
e av
ĠE D
ĠEqu al
ĠP ract
ĠRest ated
Ġne utral
b b
Ġpay roll
ĠW ARR
pl ed
Ġsim ult
Ġtim ing
ĠR FC
rodu ction
" A
- one
7 70
45 7
Ġsp ok
Ġcl ub
47 4
SE L
Ġsched ules
Ġshoul der
66 2
Ġconv ict
EAL TH
ĠP lease
it age
c ar
ĠL am
ĠAn thony
ĠRel ief
Ġcons erv
th ur
H aving
urs day
ĠEm ergency
Ġcogn iz
Ġaccompl ish
Ġacqu iring
su pp
Ġch art
Ġle arn
ĠSe venth
ĠE dition
ĠF E
ĠL ane
4 33
gom ery
ent er
ĠN AS
5 14
anc ies
ĠMat the
Ġattack s
ĠApplic ants
Ġdisclos ures
ĠRC W
ĠJ UR
Ġcircum stantial
ĠG ulf
su me
Ġt emp
3 46
Ġcorrect ed
Ġdes ires
Ġhe av
Ġpart ially
al a
ĠMad am
46 5
Ġb ases
Ġpict ure
Ġthe ories
Ġext ends
ĠCor rection
ĠA FFIRMED
ition ally
ĠS M
Ġcount ies
Ġhon est
Ġclaimant 's
Ġdis app
ĠBost on
ĠP RE
3 45
3 49
F urther
ĠP en
60 2
ĠEuro dollar
Ġwalk ing
/ EC
- by
Ġnew s
." ).
as m
Ġagency 's
d ec
Ġend eav
un less
Ġdep ending
in i
Ġext ensions
Ġfurther ance
Ġalter ation
ĠD ak
Ġpl ants
ĉ ĉĠĉ
Ġri ver
5 32
ĠR isk
or g
ans laughter
ĠB art
ĠL ot
om atic
Ġs leep
Ġimport s
5 47
ĠCount s
ĠTrans f
Ġoffender s
Congress ional
ĠI' m
60 6
O ther
Ġpure ly
DRESS ES
MP LOY
Ġafter noon
ang ing
O ur
Ġpredecess or
38 9
B IT
Ġredee med
ĠPr ison
49 7
ĠProvid ed
Ġappropri ations
60 5
.h tm
LE Y
ĠInd ia
Ġu pper
9 24
are t
4 19
8 41
Ġerrone ously
ĠNeb raska
Ġhe ro
Ġunlaw fully
Ġatt ending
Ġb an
Ġkn ife
4 38
ĠJ en
Ġassum ptions
ĠK now
46 2
Ġad vers
.S uper
ender son
5 17
5 13
ĠSupp ly
ĠFrank lin
Ġop ined
ĠSub ordinated
ĠDIS CUSSION
Ġsh op
l ie
Ġbre aches
Ġcl imate
Ġind enture
Ġwa it
Ġal imony
36 9
Ġpursu ing
Ġimm aterial
Ġform at
Ġfew er
ĠSc ience
v a
ur a
olog ist
45 2
Ġb orne
ĠCER TI
Ġb reat
ĠC J
Ġconclus ively
iz on
Ġelect rical
Ġcompany 's
ĠT en
ĠJ A
: ĊĊĊĊ
-c alled
ĠâĢĺ âĢĺ
Ġun secured
Ġde ploy
70 3
erent ial
Ġsuppl ier
Ġsex ually
Ġfa x
Ġevery one
Ġhapp ening
Ġambigu ity
Ġse vent
Ġlab our
3 39
46 3
ro ft
ĠLaw rence
U P
Ġconvers ations
ĠFound ation
ĠCur rency
ĠCont ributions
ĠJ apan
5 31
Ġassum es
ĠFact s
G r
ĠPhil adelphia
OR DER
i us
Ġtrial s
ĠK ey
49 9
Ġe le
[ ed
Ġdetain ed
5 40
49 3
Ġdra in
cri ber
ĠB on
35 6
Ġfre ight
ĠD ow
........ .
ĠProspect us
[ Congressional
ĠC V
ĠPh arm
ĠH usband
Ġco ast
ors hip
Ġreject ing
c hen
Ġl ift
Ġrelig ion
ist ical
Ġident ifies
Ġcon stra
m other
ednes day
45 9
Ġdef raud
Ġmeth amphetamine
Ġdri vers
Ġdebt ors
Ġimp ed
48 3
AN GE
ĠN eg
4 37
C P
Ġvictim 's
al c
ĠB ush
-h our
Ġinf erred
ĠP O
Ġcommunic ate
n on
reg ulations
val uation
Ġpost pon
ĠCO VID
ĠG ill
ĠRES P
ĠApp ellees
Ġca usal
Ġmortg ages
ist ol
0 10
46 7
Ġinterpret ing
Ġweek ly
Ġ(" [
ĠHom eland
ĠLE G
Ġinsol vent
Ġenum erated
F rom
in ancing
ĠJ im
Ġimpro ving
ĠO ld
46 9
Ġemb ra
Ġw ood
Ġpromis ed
ĠB ox
4 34
ĠD ATE
Ġover se
irm ing
ale z
Ġinform ant
35 9
Ġconsult ant
ĠDri ve
Ġs ending
ĠSERVIC ES
37 7
ĠWat son
Ġlitig ant
3 48
Ġpr icing
Ġman ual
Ġdisregard ed
Ġoccup ancy
ĠP itt
Ġmon ies
Ġengine ering
" Q
st ream
D IS
Ġgr ate
Ġball ot
47 6
SU PPLEMENTARY
Ġindef inite
ord an
48 9
ent le
39 3
ĠAN N
Ġres ist
ĠWork s
d y
Aff irmed
M in
P ublic
G R
en y
Ġdef er
Ġproff ered
Ġamount ed
D el
Ġch air
Ġpos ed
Ġrent s
at o
Ġc amer
ot ton
Ġcent re
Ġmal ice
5 42
Ġindust ries
Ġto ler
Ġcor ner
Ġliqu or
3 44
ffect ed
70 4
60 4
Ġupd ate
Ġp ed
Ġemployee 's
Ġover whel
In ter
ĠL og
l ong
over ty
Ġconcurrent ly
Ġconv inced
Ġsee ing
Ġre ductions
Ġla pse
ĠU r
Ġtru ly
ĠCongress ional
Ġdeleg ate
Ġsuccess ive
int on
Ġam ple
Ġendors ed
ĠAct ing
9 20
Ġrec ital
ĠP AY
Ġg all
Tr ust
i ens
Ġ rig
and s
cl es
IV ER
66 8
Ġinc orpor
38 2
Ġsl ow
39 6
Ġcance lled
d ale
37 8
ĠReg arding
o ch
TA IN
Ġv oice
ĠI X
M I
ĠC am
ĠCon ference
ĠT ro
Ġaggrav ating
5 19
ĠRy an
ĠH u
ĠAdjust ment
ĠPro c
60 9
. K
ED IT
( l
ĠS ite
Ġpull ed
OP INION
Ġenh anced
36 8
C th
iss ion
k ee
ĠG ro
Ġpresent ing
Ġinter c
Ġeas y
Ġres ort
Ġhelp ed
Ġdirect s
Ġact ively
Ġde lays
-m o
us ive
Ġsub t
Ġthere upon
4 49
5 33
Ġcharacter ized
'' ;
Ġm anslaughter
Ġun equ
wh o
ent ence
4 42
b ecause
a ii
Ġemploy er's
i 's
Ġin ev
Ġmist aken
ĠA ircraft
Ġredee m
ĠAfric a
38 7
Ġtrou ble
ĠB ru
Ġengine er
P age
Ġin applicable
ĠV ictor
Ġve ter
Ġrail way
Ġdispro portion
Ġprocure ment
um in
Ġpr on
Ġac re
ĠOut standing
ĠW ILL
Ġturn s
ĠS D
âĢĻ l
7 40
Ġconcent ration
ĠM unicipal
Ġlar gest
Ġgen eration
Ġd igital
ĠF ox
Ġf atal
Ġthousand s
Ġmist rial
Ġdedu cted
ourt een
4 27
ur ances
Ġinvest ed
Ġc ured
38 1
46 8
ĠDom estic
48 7
ĠMon th
ĠSh ould
ĠRIGH TS
ĠĠĠĠĠĠĠĠĠĠĠĠĠĠĠĠĠĠĠĠĠĠĠĠĠĠĠĠĠĠĠĠ ĠĠĠĠĠĠĠĠĠĠĠĠĠĠĠĠĠĠĠĠĠ
ou bted
5 24
Ġlev ied
Ġcompla ins
Ġdistinguish able
is er
ĠO ak
ĠMont gomery
ĠSer geant
Ġcomp lying
Ġassist ed
ĠPetition ers
Ġnegot iation
4 26
Ġsurren dered
IT AL
ĠIn n
ĠPr im
emor ial
Ġv an
ĠRet urn
ĠAdd ress
ol ine
Ġvulner able
Ã ³
35 4
5 21
Ġsc ience
Ġstru gg
Ġaccount ants
ĠAut o
Ġprosec uted
Ġinter section
Ġanal ys
Ġw in
ĠO s
Ġjeop ardy
Ġmem ory
Ġsupp liers
ĠG ordon
ĠL P
iche ver
ENT S
ĠRepublic an
ĠH ed
Ġir regular
AS S
' ,
Un ited
pr ud
Ġavoid ed
Ġbroad ly
Ġcongress ional
Ġcut s
Ġhypot hetical
Ġdeliber ately
Ġsign al
Ġmo ves
37 9
ec es
37 6
ĠParticipant 's
Ġn eck
ĠCh ase
ĠS IP
ĠDak ota
ĠInd ex
ĠRichard son
Ġf ast
ig r
Ġundert akings
56 4
ĠW as
Ġrepeal ed
Ġtrans mitting
Ġvot ers
Ġstruct ural
ĠSt one
om et
48 8
Ġentit le
ĠLit igation
ĠM E
ĠTy pe
ĠCop y
ĠE T
Ġb iological
est ead
Ġvol unte
re f
ĠStock holder
Ġto x
ĠH ard
s ame
Ġincarc erated
Ġs ch
5 18
comm unications
Res pondent
ĠM ax
N ote
Ġwalk ed
] :
As s
ĠOR S
provid ed
Ġquant ities
ĠC IV
Ġbed room
Ġlead s
Ġdisclos es
ĠGr ound
Ġf ence
Ġsil ent
66 7
Ġfac ing
Ġexp ansion
Ġconcur red
ĠPer ry
ĠCon vert
Ġsim pl
ĠW in
39 4
Ġcompens ate
m n
Ġpoll ution
Ġe rect
best os
ĠSECUR ITY
Ġhost ile
Ġannoun cement
ĠBal ance
employ ed
45 4
Ġcap ric
ĠRail way
Ġexchang ed
ail s
Ġaddu ced
Ġover sight
5 16
ĠH M
Ġgrate ful
AND ARD
Ġexpl o
S upp
IS T
Ġaffili ate
Ġrevis e
Ġpron oun
Ġcondemn ation
ĠBond s
H C
TER N
Ġcateg or
60 3
Ġp ocket
ĠBl ock
Ġhar mon
Ġgain s
P h
Ġv s
NE Y
Ġinvestig ating
ĠAgain st
ab eth
Ġfe ature
IS E
Ġcance l
Ġprosec uting
Ġuncon sc
ĠAPP ELL
o o
Ġinstitution al
Ġassu red
Ġw ished
Ġn uis
pir ation
5 45
EN SE
Ġform ation
Ġtechn iques
tr ans
Ġconclus ory
ĠBr ady
Ġdiff er
Ġrap id
Ġexpla ins
ĠIr an
ace utical
5 35
ĠL opez
Ġmortgage e
ĠP ear
ix on
Ġconven ient
O UR
ĠBe ach
39 8
ĠDefault ing
ag or
ony m
Ġtradem ark
Ġreop en
ĠD allas
5 25
48 5
Ġspec ifying
Ġpre amble
I OR
Ġirre parable
ĠD onald
r ator
-- (
il ly
ri ers
ĠD ur
Ġret ired
Ġgu ide
C ounsel
Ġpro port
5 37
Ġremed ial
Ġlit er
Ġm ix
ĠSU MMARY
Ġabst ract
ĠSund ay
ĠShare holder
Ġar ms
C ourt
Ġn urse
Ġign ored
E ach
issu e
Ġv ice
ĠS avings
Ġaccess ible
Ġanalog ous
Ġappro ving
Ġover night
Ġfore st
Ġaffirmative ly
Ġencour aged
F P
O UN
ĠCon dition
Ġsever ally
d id
Ġtechn ologies
EC TION
ĠM is
49 5
55 4
ĠCom b
cill ary
56 2
ĠV III
ĠTHERE FORE
ĠP ier
app ing
Ġ[ *
ĠServic ing
Ġmult i
5 26
4 46
Ġpractition er
ge l
Ġsever ity
ĠH UD
47 8
Ġintern et
4 39
ĠL loyd
ĠTr anche
Ġce ases
Ġf resh
ograph y
Ġboard s
ĠRat io
N ER
Ġnegoti ate
Ġinvo ices
m t
6 25
ĠMur ray
4 28
Ġfarm ers
48 6
Ġconstitu ents
ĠId ent
Ġvend or
70 6
Ġc ards
ĠF Y
ĠRe yn
................................ ....
Ġvac ation
ĠConserv ation
un eration
O ffic
Ġendorse ment
47 2
Ġg ame
-c omp
ĠĠĠĠĠĠĠĠĠĠĠĠĠĠĠĠĠĠĠĠĠĠĠĠĠĠĠĠĠĠĠĠ ĠĠĠĠĠĠĠĠĠĠĠĠĠĠĠĠĠĠĠĠĠĠ
O G
ann on
Ġvirt ually
ĠY ORK
Ġde prec
R ED
ĠM ethod
s ome
he red
-d e
ert ed
90 1
Ġrest ore
Ġimport ed
Ġs s
ĠC over
Ġadequ acy
t ures
Ġobject ively
Ġvar iance
ĠA bs
u ated
Ġ lying
N ame
Ġno ise
Ġopp ose
Ġf illed
ĠP ack
ĠEle venth
Ġint im
ĠElect ronic
â ĸ¡
Ġimpl ication
s er
b ec
Ġover time
Ġretro active
- [
Ġcl othing
Ġcru cial
Ġfrequ ency
Ġtemp ore
Ġfl at
Ġgreat est
f all
ĠGovern ing
qu er
oc racy
), Ċ
Â °
39 9
Ġnurs ing
f air
N Y
ĠS R
Ġsur pr
ĠU CC
Ġinqu iries
ĠC all
5 48
ur suant
Ġelect s
* Ċ
el ess
Ġmess ages
Ġinv oked
Or der
5 27
ĠC lay
ĠF oster
ere m
5 38
Ġf inger
B ar
Ġc attle
Ġindu ce
ĠR ating
Ġm agn
xi ety
Ġdraft ed
Ġreal ized
Ġforth with
Ġbroad cast
ĠP ass
- for
Ġprior ities
ĠLe on
Ġforesee able
ĠHaw aii
Ġ ï
US TR
Ġprescrib e
ĠWar ren
Ġrespon ding
Ġs olid
ĠEl iz
pos al
du ly
80 2
ĠF our
Ġutil ized
IN S
ĠAr med
45 6
ĠP ledge
bur gh
Ġn arcot
Ġapproval s
ĠB at
ateg ory
Ġfunction ing
ĠP owell
Ġresid ual
ĠN ext
R ec
49 8
Ġsh ut
al t
70 5
ĠCon clusion
Ġinj ustice
ĠH ans
Ġinstall ments
ĠGeneral ly
ĠD od
Ġmil k
ĠFac ilities
Ġinv oke
Ġconsequ ently
ĠF CC
Ġexam iner
ast e
Ġexp ire
45 3
is prud
men 's
ĠDesign ated
Ġslight ly
Ġdocument ary
M ore
G O
ĠDEC ISION
Ġsuspect ed
H R
Ġcustod ian
ĠLi k
5 46
ĠIndust ries
- V
B E
Ġcar go
_ Ċ
Ġc ities
............ .
ĠVeh icle
anc ery
Ġhere with
Ġadministr ators
ol n
la psed
49 6
Ġhour ly
IS TER
ĠQu arter
Ġe mission
Ġliquid ated
ĠJ enn
Ġst ability
............ ...
ĠTown ship
ĠSp ace
49 4
G RA
-d efendant
Ġren ders
57 4
5 80
ĠH enderson
Ġprogram mes
Ġinteg ral
5 28
- ing
Ġinvest or
WH ERE
ĠAnt on
ĠC AR
M ar
Ġunambigu ous
ĠProf essional
ĠDe pt
own ed
Ġb ars
Ġdis se
5 43
em ic
ĠC S
ĠM ason
act or
Ġm ixed
Ġcap ac
Ġan g
FID ENTIAL
Ġconsist ed
Ġhe at
au per
57 1
ISTR ATION
Ġcontrib utory
5 49
ĠV iol
ĠRecommend ation
Ġde vis
ĠTer ry
oun ger
ĠBr idge
rog ation
Ġmind s
Ġsh oot
Ġh ot
cept ive
Ġh iring
ĠA P
Ġlif etime
ĠAtt ention
ĠW ife
pd f
56 3
u ous
.ĊĊ ĊĊĊĊĊ
Ġmis sion
Ġdevelop ments
ĠF ive
ĠPost al
Ġconsult ing
ĠS ut
8 50
Ġheav ily
Ġtri p
Not ice
F r
ĠIssu ers
Ġscreen ing
66 6
he ast
ag on
âĢŁ s
com pl
Ġcult ural
pret ation
Ġp o
Ġissu er
Ġre b
p resent
IT TED
ĠO cc
Ġinf ra
Ġattrib uted
D ATES
Ġdis appro
Ġ[ ***]
Ġwid er
6 30
ish op
Ġcomp uted
Ġaccompl ished
Ġext ract
Ġrest oration
App eal
ĠAust in
ĠTra vel
Ġinspect or
uls ory
Ġunanim ously
Ġpip e
ĠSever al
ĠB ul
Ġcl ot
l ow
y es
Ġtest ifying
Ġspec ulative
Ġur ges
ĠS oft
Ġexhaust ed
Ġdiagn osed
ed ent
Ġperce ived
ĠC ru
ĠM erc
Ġst ored
at ible
Ġdelet ed
5 36
Com mission
ĠH CA
Ġt angible
ĠCo x
ĠBut ler
6 11
ĠQual ified
Ġquot ations
Ġsupervis ory
I TION
at us
ĠWel sh
ĠE th
me an
ĠLe v
pro per
Ġf ourteen
âĢĿ ).Ċ
Ġeng agement
6 40
Ġadjud icated
ĠD ick
n sic
Ġwh oles
Ġpre fer
ĠInspect or
Ġb ip
Ġword ing
y le
Ġb on
Ġrepe at
00 4
sequ ent
ĠHaz ardous
Ġus age
Ġhereto fore
Ġinvalid ity
Ġcommunic ated
Ġins isted
46 4
ĠUnder w
o on
Ġinc orporate
`` (
ĠMain tenance
ĠCOUN TY
Ġanalyz ed
Ġresol ving
Ġaffili ated
ĠShe l
Da vid
Ġmed ium
Ġguarant y
ĠSH ALL
Ġair port
ĠJust ices
. (
Ġc f
49 2
ĠChrist opher
Ġinstall ment
ĠJ ordan
ĠT el
45 8
" .ĊĊ
ĠG U
6 60
v iii
Ġnuis ance
ĠSt ar
Ġconstru ing
ĠInter ior
Ġrele ases
80 3
Ġprom oting
58 6
Ġcalc ulate
ĠV illage
Ġcar bon
ĠAccount ing
Ġpar l
und ed
Ġwh ichever
Ġlod ged
Ġrep aid
Ġnewsp aper
ĠV ar
[ Â¶
Ġple ased
ain t
ĠJ ul
Ġinterrog atories
Ġind icted
sub stantial
ĠComm encement
D P
oubted ly
9 22
ĠP as
ĠBenn ett
Ġconstitutional ity
ĠO H
ĠW orth
Ġcompens atory
D S
5 34
Ġto ol
Ġ --------
Ġartic ulated
Ġapp rehen
P RE
ĠSwing line
Ġcod es
-s pecific
ĠC arr
id el
C omm
Ġdrink ing
Ġvalu ed
Ġborrow ed
vert ed
4 48
Ġdead ly
h ow
Ġaware ness
C al
56 1
Ġspeed y
Ġsepar ated
Ġrein statement
Ġf abric
a e
Ġt ending
Ġreserv ation
Ġcompl ies
ĠPro sec
Ġp end
Ġgl ass
ĠRe levant
ĠS oc
ĠH or
F L
ĠStat utory
Ġ____ __
h ave
ĠH ence
ĠV AT
ĠEqu ival
ĠR ub
Ġsear ches
6 20
Ġaffirm ing
)- (
ĠâĢľ (
Ġinteg rated
Ġhapp y
ĠLandlord 's
Ġrespons ive
Ġpar alle
Ġproject ed
Ġappropri ation
Ġco erc
vol ution
ipp ed
ĠCont ribution
Ġgovern s
Ġc atch
ĠPat rick
................................................ ....
âĢ ĭ
Ġan xiety
[ FR
Ġinc hes
7 25
Ġout set
Ġst ations
Ġte aching
ĠC raw
Ġconsc ious
ĠD enn
ĠM ail
ĠF ri
Ġpsychiat ric
Ġbul let
Ġdef icit
ig ently
Ġp i
Ġexpl os
Ġconvert ible
ĠTechn ical
out s
L I
ĠCON TR
que z
Ġver ified
ĠST OCK
g ood
ĠCo leman
Ġfra me
a ved
6 21
Ġc ulp
. regulations
ĠAr r
Ġordin ances
ĠGonz alez
ĠGEN ERAL
ĠP ere
L AND
ĠOrd inance
Ġout comes
Ġtim ber
ĠM ag
ĠL J
str ong
er man
( m
id s
-c ourt
Ġg arn
ĠComm unities
- way
u an
Ġtarget s
Ġse greg
ĠL ater
Ġatt itude
Ġunsuccess ful
VER N
ĠPro grams
Ġexecut ors
ĠPerson al
z en
Sec retary
47 9
Ġp overty
ĠB all
Ġm ode
Ġver ify
e ven
Ġwork place
h tt
Ġcontra vention
ĠFar go
ĠIsra el
EN E
Ġt ack
Ġb la
ĠNO TE
D is
Ġallow ances
ĠPUBL IC
55 7
Ġspok en
Ġinc ent
ĠD HS
eric an
roll er
Ġdom ic
âĢĻ ,
ath an
un ning
Ġsee med
55 9
im p
Ġg ather
ĠJeff erson
ĠPART Y
oc ational
F E
ĠRep lacement
ĠC ro
are st
I RE
er ry
d den
ĠW ind
ĠOwn ers
ing ent
Th us
Ġfor bid
- per
u x
Dec ision
Op inion
ĠD an
ĠN C
ĠS av
Ġprud ent
56 6
con viction
Ġtra um
est ions
ĠLim itation
ĠBrook s
Ġserious ness
ĠAr thur
N C
Mr s
gg s
Ġstrateg ies
f ts
ĠG E
Ġsign atures
Ġh um
Ġsubs crib
Ġdebt or's
i ar
Ġacquitt al
ĠL ittle
Ġinsure rs
Ġh orse
ĠG ross
Ġcompr ising
ins ic
Ġhand le
ĠSupp l
ĠBal t
ĠM aine
m ir
.C rim
7 10
ĠTrib e
Ġcorrect ness
h ire
-def ense
Ġcomp osition
ĠAm ong
Ġcapac ities
ĠL TD
Ġminim ize
Ġstat istics
ĠBa iley
ĠImp lement
ĠMan ual
Ġfin es
ĠO S
vious ly
Ġrep la
Ġ ________
C ase
quot ation
5 75
ĠRepresent ations
vent ory
Ġn ative
Ġp oly
Ġqu ote
ĠRe ading
ĠPROC ED
] e
Ġar chitect
ĠHud son
-- -
P r
ĠExp ress
Ġpay s
Ġsear ched
AC E
ĠC orporations
ĠM IN
ĠĠĠĠĠĠĠĠĠĠĠĠĠĠĠĠĠĠĠĠĠĠĠĠĠĠĠĠĠĠĠĠ ĠĠĠĠĠĠĠĠĠĠĠĠĠĠĠĠĠĠĠĠĠĠĠĠ
ow ing
al ter
ab il
ĠCh arge
- part
Ġnomin ee
Ġp us
Ġext ingu
Ġhom estead
Ġsu dden
Ġsam ples
60 7
Ġarr anged
6 22
Ġdelinqu ent
ĠSal ary
ut er
6 31
ap ed
Ġagree ing
ĠCl in
inc oln
Ġun ions
Ġmet al
6 15
Ġindu ced
ĠLe ad
Ġw inding
ĠConserv ative
it ably
atur day
k o
Ġm ap
Ġlegal ity
Ġfr ust
ĠH otel
Ġin her
Ġs ir
orm al
Ġ. âĢĿ
Ġcons p
hib its
ĠI LC
ĠC lean
Ġdepart ments
Ġconsult ed
Ġrest aurant
70 7
Ġthink ing
Ġparent ing
Ġin ure
Ġw ww
ines e
Ġacqu ies
ĠTRANS FER
Petition er
ĠC EO
ĠB ou
Ġinqu ire
ĠLik ewise
Ġqu as
Ġp auper
ĠLi ke
Ġdep ression
isprud ence
ĠP ut
form ing
m et
0 20
5 39
56 5
Ġcapric ious
Ġaccommod ate
6 12
ĠPUR CH
Ġindemn ifying
Ġen abling
Ġw orse
57 3
ĠB as
Ġsix th
Ġprofession als
ĠMill s
Ġar re
ens or
ess ed
Ġsecret s
ĠCent re
ight s
Ġwarn ings
ĠK ore
Ġsurv iv
ĠSpr ing
re stricted
6 56
ow ered
Ġpreclud es
Ġtre es
ĠD R
60 8
Ġkind s
ick en
Ġfree ly
Ġoverse as
Ġc ents
Ġconsult ants
Ġag gress
AL YS
ĠCR EDIT
Ġwh ilst
ed s
om en
Ġunsu pp
ĠProceed ing
Ġdom in
Ġview ing
Ġundermin e
pos s
Ġsustain ing
Ġinspect ions
P ri
abin et
Ġver ification
- paragraph
ĠCapt ain
Ġdef ending
ĠP ip
Ġin equ
ĠN OR
ĠLi abilities
Ġd ie
6 90
Ġabandon ment
57 2
Ġfell ow
pon ent
/ d
ĠAMEND MENT
y e
Ġdisc ern
Will iam
Where as
c roft
s en
ĠHarr ison
Ġofficer 's
Ġres entencing
ĠAuthor ization
Ġt rend
et e
Ġex cell
Ġemb od
Ġh or
Ġm ile
Ġprivile ged
Ġincompet ent
empor ary
ĠMe eting
ĠImp act
burse ment
ert o
Ġoverr uling
Ġun duly
ALYS IS
69 4
Ġsens itive
S ince
ours es
iv ities
Ġab ol
ows ki
or a
ĠB onus
ĠS aturday
ĠHERE BY
ĠFranc isco
ĠRem ed
Ġsh ipment
do es
Ġlength y
6 79
Ġd ry
ĠM un
ĠIN V
eas ance
Ġinterview ed
ab y
ĠA p
ĠM CL
ĠPL AN
Ġro ck
de termin
Ġb ath
ĠL at
ĠOb ject
Ġinstru mental
o z
ĠDep 't
6 33
Ġdocument ed
Ad dition
Ġrem uneration
ĠLIM ITED
Ġindepend ence
5 90
ĠEx cess
Ġmand ated
" Ċ
ompl iance
Ġto b
ĠE MPLOY
Ġv ag
Ġrec ourse
Ġco ordination
Ġterror ism
Ġnonmo ving
- owned
del ivered
[ ing
ĠRe alty
ĠS ession
ĠF a
Ġinterven ing
6 32
Ġtermin ates
ov a
ĠV oting
cell aneous
ĠT al
Ġemphas ized
Ġbl ue
Com mon
Ġch ronic
lim ited
l ington
Ġbr and
ĠCERTI FIC
Ġeight een
ĠĠĠĠĠĠĠĠĠĠĠĠĠĠĠĠĠĠĠĠĠĠĠĠĠĠĠĠĠĠĠĠ ĠĠĠĠĠĠĠĠĠĠĠĠĠĠĠĠĠĠĠĠĠĠĠ
ĠAl leg
ĠST ANDARD
Ġtyp ical
h r
Ġthat 's
I TI
Ġirres pective
Ġdatab ase
ne g
Ġded icated
iz ational
ĠEst imated
- serv
ĊĊĊĊ ĊĊĊĊĊ
Ġbo at
SU MMARY
is a
P re
Ġdis allow
u a
-f ree
ĠCor rections
Ġderiv ative
Ġ________________ ________
Ġfoot note
idav it
Ġpresum e
ĠH ernandez
B orrow
Ġe arning
son 's
Ġv iable
7 30
Th ird
Ġw earing
Ġtrad ed
Ġguid eline
Ġlink ed
Ġunavail able
Ġcan 't
- cl
aren cy
Ġpropri ety
ĠSch w
Ġhapp ens
Ġcre w
Ġascertain ed
vest ed
ĠEnt ry
Ġto ll
Ġmach ines
7 27
ĠPl ant
Ġirrevoc able
ĠSu p
Ġsimult aneously
Ġw arehouse
Ġhard ly
ĠAltern ative
Ġexhaust ion
; ĊĊĊ
ĠS ure
Ġassoci ations
Ġbal ancing
Ġsw itch
Ġgreat ly
. [
B ound
Ġrevis ions
nt il
Ġkid n
Ġt ail
80 4
Ġim minent
Ġcritic ism
Ġs la
Ġsolic itation
Ġas bestos
ĠH an
Ġnom ination
Ġperfect ly
M ed
55 8
Ġsupervis ors
Ġto w
ĠC orn
Ġtrigg er
it arian
Ġcompr ised
Ġchar itable
ĠR ico
6 19
Ġtob acco
wh ile
B O
ĠILC S
b orn
7 38
umb ered
ĠAMERIC A
Ġmod els
ĠEliz abeth
ouri er
Ġroy al
let ion
Sc hedule
T e
Ġinform al
Ġasse mb
ĠD ictionary
Ġless or
oint ed
] -[
ĠLyn ch
.ĊĊ ĊĊĊĊĊĊ
ĠTele phone
ĠT ab
Ġun ex
R ef
ex cluding
Ġreim bursed
ĠC ases
labor ation
Ġpart ly
ĉ E
umb ent
b ed
Ġdef ining
Ġaud itor
er ical
- cont
f ish
Ġim ag
gr at
ĠE AS
ĠShare holders
ĠConvert ible
expla ining
Ġ ____________
ĠR ural
ag an
ĠSub t
Ġlabor atory
Ġthreat ening
- on
- Appellee
Ġcollect ing
ins urance
M ay
ĠTra ining
âĢĻ d
ĠK at
ĠCl ient
Ġd ivers
stru cted
Ġrece ivable
68 7
vant ages
Ġpre requ
ĠEPA 's
aw are
Ġs ynd
red ited
Ġvar iation
ĠH al
Ġur ban
ĠBar b
ĠF iling
Ġperf ected
ĠPh ase
âĢĶ I
ĠP oll
Ġproportion ate
f idential
Ġm ax
Ġtempor arily
ĠReyn olds
ĠâĢ¦ Ċ
58 7
p arent
d irect
Ġun iversity
.'' Ċ
P s
Ġform ally
Ġperiod ic
ĠNich ol
Ġborrow ing
Ġsustain able
Ġexerc ises
Ġpl ural
Ġunsupp orted
anche z
z one
Ġhaz ard
Ġclar ification
ent ry
Ġdisag reement
ĠSign ificant
ĠO ri
ĠSoft ware
her s
ĠBer ry
Ġign ore
Ġsu s
ang ered
im ore
Ġc at
Ġadjud ged
Ġto lling
c redit
g a
EN DER
Ġcomp ulsory
EX IS
Ġc ry
Ġp up
Ġf ract
ĠStand ing
Ġconc ession
Ġappro aches
Ġy es
ĠCh inese
Ġhom icide
ĠAmount s
ĠRec ip
Ġw ard
-A m
ĠUl t
Ġprevent s
Ġen roll
vest ment
uck er
Ġaltern ate
oc ate
ĠC AP
Ġtrans mitted
Ġelimin ated
Ġc ig
Ġtra iler
ĠAf ghan
ĠFor ces
Ġtarget ed
ĠM ack
ĠP ubl
be it
u ct
Ġfore cast
it chen
ĠTax ation
Ġc art
Ġqu ash
] o
as ters
il der
ĠR ow
ĠI bid
Ġv ast
ĠCOUN SEL
Ġpers pective
Ġtax ed
ĠAuthor ized
Ġhelp ing
ĠWork ing
-------------------------------- ---------Ċ
ĠBorrower 's
C ons
se x
Ġau ction
ĠF A
75 1
ĠInd us
ĠS AR
ĠLe ased
V ISION
Ġinad vert
AL E
ĠL incoln
F I
al ia
ĠMO TION
57 7
Ġside walk
." );
ĠPres iding
ĠDist rib
Ġretro act
ĠR oll
Ġhero in
art y
ĠP ool
ĠBro ther
Ġrec ol
Ġg ap
Ġexchang es
Ġp an
erem pt
Ġy ard
Ġpred icate
ERS ON
Ġdeg rees
Ġcru el
Ġag greg
Ġt ape
ur ally
Ġpred icated
Ġre class
ĠEx am
ĠL A
Ġwhe el
Ġfact o
ĠNon etheless
ĠQue en
oc c
Ġt act
Ġbill ing
ĠPu erto
G C
Ġen qu
r ance
58 8
ĠChrist ian
Ġcontra ven
ĠDO T
et ter
Ġsc ore
D uring
Ġcent ury
ĠW elfare
56 8
Ġcompet ency
8 10
Ġaccord ed
lo ad
ĠHun ter
if er
onn ell
ll ll
56 9
ĠH um
ur it
ĠF ut
ĠCal c
UTH OR
Ġadjud ic
Is su
ic ians
ev in
.S t
worth iness
ĠSe a
ĠHist ory
Ġsummar ized
Ġrecip ients
, ,
L eg
Not withstanding
on ed
ĠShe lf
ĠIS SU
Ġ" (
Ġwrong do
ĠW ritten
Ġlitig ants
ĠB i
ĠCopy right
establ ished
Ġb as
ĠP an
-d isc
o qu
Ġsh ifts
oy le
ĠL ight
Ġliber al
ĠStan ley
ĠSt ation
Ġpauper is
56 7
ĠPAR TIES
het ic
d on
7 21
Ġk il
6 14
Ġspecial ist
ĠB rian
Ġin clusive
[.] âĢĿ
ĠR a
Ġiniti ate
overnment al
in ct
ER G
Ġspec ifies
Â £
ĠH as
ĠTh ough
Ġkn ee
ĠD av
Ġst ages
er ion
ĠStat us
ĠTEX AS
ĠE S
Ġinterrog ation
z ing
ys ical
Ġmedic ine
Ġstri p
Ġspec ulation
ag le
Ġcom fort
ĠS Y
65 1
Ġasse mbly
Ġpret ext
Ġfor t
Ġexpect ations
ĠO x
ĠD ra
ĠAr n
Ġpresum ably
Ġmotiv ated
ĠS qu
Ġlack ing
J A
Ġmill ions
ĠSh aw
ec onom
WHERE AS
Ġweigh ing
Ġst able
Ġcondition ed
Ġintrodu cing
Ġso il
ĠPurch ased
o val
Ġsp ect
Ġcar ries
Ġred esign
it ate
Ġsp ring
oot note
ĠCommon s
PR M
58 4
N OW
ach ment
rich ment
ĠJud iciary
ĠH ur
n am
ĠF BI
Ġdo ors
Ġmed iation
Ġtele ph
Ġten ancy
ĠEll is
ĠImprove ments
Ġrec ruit
end um
Ġd ies
port ed
67 1
st at
Ġpres ervation
66 5
ĠCraw ford
ĠAssoci ate
Ġlow est
- min
ĠM ah
ĠT IT
Ġparalle l
Ġcogniz able
Ġover la
Ġsu cc
Ġharm ful
ĠTreat ment
Ġalter ations
Ġpark ed
Ġprospect s
ĠL EXIS
IR ST
ĠRece ivable
ĠFED ERAL
ĠP lace
ra ge
g eneral
6 13
Ġlit eral
Ġadd itions
ĠP owers
Ġp erempt
ĠMar sh
67 4
ĠJO HN
Ġinterest ing
pre ad
Ġwide ly
Ġlight s
5 78
7 13
Ġunf ort
6 17
ĠF itz
Ġexcept ed
ĠQ C
ĠIn ventory
ĠGib son
& R
Ġh all
Ġred ress
ĠÂ ·
com mittee
Ġappeal able
ĠEs q
ĠIn te
6 80
Ġmechan ical
ed ing
igh ty
ĠNO W
Ġcolleag ue
EA KER
Ġpr oud
us on
Ġmedical ly
ĠB asic
ĠPre liminary
g ers
D ated
Ġlog ical
Ġide as
l og
.âĢĿ )
Ġv ision
Ġsl ip
ON E
N ational
asm uch
ĠB oe
Ġl ending
Ġw et
Ġclos ure
Ġbul k
Ġdetri ment
ĠSan ders
ĠCas ualty
ĠH AS
ĠFisher ies
ĠBarn es
ĠAppropri ations
I ll
âĢĿ :
Ġintox icated
if ting
Ġpop ulations
ĠCon g
E d
Ġse wer
Ġcompla ining
58 1
ĠPriv acy
Ġrun s
65 4
Ġresol utions
Ġcamer a
W S
ĠSim p
6 70
75 2
Ġdecl aring
ĠT C
Ġwon der
Ġunequ iv
a ud
Ġcounsel ing
ĠSur vey
Ġman ip
ens on
ĠTr adem
6 29
Ġprox y
Ġey es
ult s
Ġcomplet ing
ber ry
Ġe lic
erv es
M otion
Ġappellee 's
ĠH od
Ġ- ,
ĠEnt ities
ĠWal lace
6 23
6 41
h ill
part ments
Ġadj o
ic an
Ġearl iest
Ġclear ing
ĠCo hen
ol is
ĠĠĠĠĠĠĠĠĠĠĠĠĠĠĠĠĠĠĠĠĠĠĠĠĠĠĠĠĠĠĠĠ ĠĠĠĠĠĠĠĠĠĠĠĠĠĠĠĠĠĠĠĠĠĠĠĠĠĠĠ
ra ms
ĠK a
im m
ĠBurn s
Ġund oubtedly
Ġnot ion
ĠDefin itive
Ġterror ist
-c laim
Ġexpand ed
Ġmar g
" ĊĊ
Ġincon ven
h l
Sign ature
Ġserv ant
ĠMed ia
ro e
Ġcustod ial
con sid
na ire
ĠPer haps
Ġbeg un
Ġinfl ation
Ġhand ed
( iv
ĠH off
ĠM err
Ġf at
ĠOpp ort
omb ly
Ġs ponsor
ĠKir k
-- ĊĊ
Ġin stitute
Ġdisturb ed
Ġconfirm ing
ĠL IC
Ġ ..
ĠJen kins
ĠPrior ity
6 35
D O
Ġspon te
ĠT imes
Ġnum bered
7 60
a a
Ġtransf erring
ac ies
end o
ĠDe an
ĠNSW SC
Ġgar age
M y
sp ir
57 6
ar ial
7 80
ĠÂ§ Ċ
ĠCo le
Ġcon grat
ra c
6 48
Ġintim id
ĠC MS
Ġc able
ST ATE
B r
ĠGuarant eed
Ġor ally
jud icial
Ġ ___
ĠU p
ĠAl bert
ĠC le
Ġmitig ate
ĠB us
ĠPat ents
6 26
Ġpled ged
Ġsus cept
ĠM iddle
-------------------------------- ----------------
Ġparl iament
ĠE vid
P AR
6 58
ia z
ĠBench mark
Ġachieve ment
or um
Ġtrans l
b o
Ġ âĢĻ
58 5
ĠMat ters
ĠP S
level and
L ES
ĠJ ew
Ġtra ined
70 8
ĠCr it
ure ment
8 25
ĠB eck
ĠC el
Ġrespect ing
ĠSP EAKER
ĠF il
ĠN ative
Ġdeal ings
ĠAssign ee
59 5
ĠM ull
Ġw ound
ĠBank ing
59 7
N ES
Ġcont ending
ĠUS C
P ar
7 22
( D
lam ation
Ġuns afe
ap ore
{ Â¶
at i
7 35
ĠCol lect
yd ney
Ġtransport ed
Ġprep ay
Ġinvestig ated
ĠChe v
Ġsal aries
P l
Ġag enda
Ġdisproportion ate
ĠB ishop
6 27
ot ions
og ue
it ively
ĠPled gor
BIT DA
Ġtax ing
Ġrece ivers
WE EN
Ġmanifest ly
-m atter
Ġproduc er
g rieved
ĠM ood
ol f
Ġver bal
w ere
57 9
Ġinconsist ency
6 16
A PP
UL T
IC K
ocr atic
Ġconsequ ential
compl iance
ĠGO VERN
Ġres ale
Ġinterpret ations
ĠC ant
ĠW ildlife
Ġadvis able
7 75
Ġmultipl ied
ĠTra ffic
Ġgrant ee
I owa
ĠB orough
Ġtrack s
ĠCra ig
Ġto ur
Ġdisc rep
Ġarri val
Ġdemonstr ation
90 2
Ġsu a
_ ĊĊ
os a
Ġapproach ing
o en
Ġstock s
Ġreflect ing
S pec
ĠTw ombly
ĠTIT LE
abb ed
58 3
erv ing
Ġmechan isms
Ġdeport ation
58 2
Ġh uge
Ġallow able
ĠO nt
Ġgeograph ic
Ġtravel ing
Ġsh ock
Ġattack ed
ĠRec overy
59 1
ĠC at
ĠAccept ance
Ġserv ants
AD DRESSES
8 33
59 6
ĠMaj est
Ġconf irms
Ġqu iet
Ġred und
59 4
ĠLe ave
ct or
ĠM ess
ĠContin ental
59 8
58 9
Ġimm une
ĠL ang
Ġun ilateral
ulp atory
Ġfl ows
- ass
UR AL
N on
ress ive
Ġborrow er
ĠL es
Ġargu able
Ġconfront ed
ce ls
pl ing
Ġreg ions
ĠDISMISS ED
Ġanaly ze
im ity
Ġa uth
___ ĊĊ
ĠT RA
ĠG A
cl ock
employ er
ĠF irm
Ġt ree
ĠDam ages
iz er
Ġover rule
7 11
Ġfore nsic
] f
ĠD ie
ĠPaper work
ĠRegistr y
THER N
Ġsafegu ards
anc hes
ĠRes p
-app eal
ĠD er
Ġr ough
59 3
aw ay
Sub ject
90 3
Ġdefam ation
Ġpar as
t is
irm ation
Ġincomp lete
Ġoccup ational
su its
9 60
Ġgra ms
Ġafter wards
ĠMajest y's
ivid ed
. org
og en
ĠTe am
59 2
ĠParliament ary
Ġformer ly
ĠO cean
oth y
er ies
I m
ĠTR IAL
ell ow
/ S
6 24
TI T
Ġch att
-w ide
Ġdem ocracy
Ġprem ature
Ġconting ency
ĠDisc ussion
rog ate
ĠMar c
Ġdeleg ation
ĠM aximum
sure r
ĠAtt orneys
6 45
Ġconsist ency
ĠG ary
65 2
- ch
Ġc ourses
Ġfin ished
Ġref rain
-f our
ĠD ar
qu arters
ipp ing
u y
Ġachie ving
C laim
rom e
Ġfix ing
ĠE ric
Ġ iron
Ġcrit erion
ĠH EALTH
ĠSec ret
Ġs ac
ĠEst abl
Ġinter val
Ġe c
q bal
IN I
ĠPRO VID
6 75
C ode
Ġinvestig ator
ĠD IR
Ġexam inations
Ġpred ict
Ġant itrust
Ġincent ives
to ok
ĠH osp
ĠFinding s
i ot
ĠPre m
Ġb and
Ġover look
Ġtort ious
âĢĶ âĢĶ
Ġproc ured
ĠDOC U
Ġpossess ing
ender s
Ġovert urn
7 31
ĠEvent s
Ġcou pled
ink ing
F T
ĠProt ocol
OL DER
ĠClaim ants
ic ian
re m
ĠAd min
Ġdeal ers
Ġvis ual
] here
ĠUn like
Ġclar ified
ĠConsid eration
ĠM ountain
ĠP resent
Ġsect ors
Ġb rain
.] Ċ
Ġadult s
n an
ĠMet ropolitan
ĠD U
ĠIndemn ity
ĠIn stit
ĠWood s
ĠManufact uring
Ġcert ifying
Ġwe ighed
Ġnarcot ics
ĠT ort
" :
Ġimportant ly
Ġqual ifies
M N
yn am
S o
B oard
Ġwe b
ĠSant a
Ġcut ting
Ġfin anc
ĠT uesday
9 50
ĠPract ices
Y ER
ent iary
ĠCust od
oc he
Ġdisc laim
SU s
Ġrecall ed
Ġfla g
ĠSecond ly
Ġprotect s
ĠF ERC
De partment
ĠMin imum
ount ed
Ġgir ls
Ġstake holders
Ġref erral
Ġinv asion
Ġoff ending
im b
Ġcooper ative
7 42
ĠT EN
j o
Ġfix tures
ĠParticip ation
. c
CE ED
Ġwa ivers
atter son
Ġfl o
ĠS anchez
ab s
pl ane
Ġ ice
ĠWarrant ies
idel ity
Ġe lapsed
ĠP ick
un n
Ġright ly
Ġchann el
ĠB arr
ĠM ach
Ġtreas urer
Ġele ven
sign ificant
ĠLAW S
Ġincap able
Ġv ocational
ĠF ish
Ġadminister ing
Ġent ers
ĠCh anges
ĠR u
ĠB ol
employ ee
our age
ĠAnton io
Ġmand ates
ĠH amp
ĠR osen
ĠAct ions
Ġun aware
not es
Ġlib el
ĠP ensions
ĠBet ween
ĠAb b
ĠPRO VISION
disc uss
ĠREM AND
Ġmax im
k inson
] )
7 12
ĠBrad ley
Ġsolic it
Ġaff 'd
ĠReg ion
/ c
on el
6 18
ĠT ob
6 55
F O
ĠPled ged
ut r
ĠS ydney
E ven
ĠBE EN
Ġp orn
Ġrecre ational
u its
w an
Ġjur isprudence
Ġfrequ ent
Ġpropri et
M ich
il ation
P E
ri en
/ EEC
Ġdecre ased
ĠBur den
ĠE FF
Ġarbitr ators
ĠĠĠĠĠĠĠĠĠĠĠĠĠĠĠĠĠĠĠĠĠĠĠĠĠĠĠĠĠĠĠĠ ĠĠĠĠĠĠĠĠĠĠĠĠĠĠĠĠĠĠĠĠĠĠĠĠĠ
Ġroyal ties
Ġrein stated
ĠIssu es
ĠMay or
ĠMan aging
sec ond
Ġne arest
Ġcontempor aneous
ĠG all
Ġprox imity
pat ient
e 's
Ġmisrepresent ations
Ġunderwrit er
Ġaim ed
. pdf
ĠSil ver
ĠD ivid
- reg
Ġassoci ate
ĠI qbal
Ġresc ission
ĠTh ursday
ĠC M
Ġmer ged
88 8
ĠM oney
ĠInc orporation
Ġre struct
Ġs n
ĠSuper vis
- v
-b ar
Ġ ----
Ġutil ize
ĠUn ivers
V ol
Ġpip eline
ĠHon or
Ġcontrib uting
Ġsub ordinate
59 9
ĠS hip
ĠRe in
ĠAsh croft
Ġoverwhel ming
Ġdriver 's
accept able
Ġd im
ĠBalt imore
Ġre ct
Ġstat istical
Ġrel inqu
Ġann uity
W hether
Ġalternative ly
Ġne uro
Ġour selves
6 39
u ary
ĠCert ification
Ġv illage
Ġres ided
Ġen richment
Ġtemper ature
is le
Ġfeas ible
ĠPe ters
Ġinterview s
ĠSolic itor
Ġn ations
90 4
Ġdeprec iation
Ġinform ing
Ġanalys es
Ġd ial
8 20
I FIC
i ro
Ġv ig
Ġres ide
a ut
part s
Ġclear ance
ok es
ĠP orter
. f
Ġl es
7 15
L aw
Ġguard ians
Ġ _
Ġpray er
ĠSte ven
ĠE A
n ic
69 1
S en
ĠM ental
Ġshe l
6 42
76 1
ac he
ĠM CA
ĠD uty
Ġdisclos ing
6 59
âĸ¡ âĸ¡
ann a
Ġc os
Ġa wa
m ans
ĠTR UST
Ġaccount ability
ĠS et
ĠP o
Ġut ilities
Ġunw illing
Ġt ub
ĠS elf
ĠGriff in
Ġcompens ated
Ġsh orter
b ased
ĠLender 's
Ġinterc ourse
7 41
ĠE arly
Ġilleg ally
ĠU T
ĠA lan
Ġon us
ĠTrib al
me ans
ĠC overed
ĠA UTHOR
- work
ĠFri ends
are r
Ġpost age
Ġliber ally
Ġre aff
ĠE M
ĠDemocr atic
69 3
ĠL ess
vol ved
Ġcomm its
ĠImprove ment
Ġw it
Ġadvers ary
Ġargu ably
ĉĠĉĠ ĉĠĉĠ
Ġcompet e
unic ation
at rix
Ġgen eric
ĠDepos itor
95 4
ak ed
Ġcourt room
ĉ G
Ġc ourier
plan es
Ġpla ying
ĠPerson nel
ĠAnsw er
ig rant
Ġinaccur ate
Ġcontinu ously
6 47
8 30
Ġhand led
T EN
ĠPere z
8 46
ĠPre vention
Ġperempt ory
Ġannex ed
7 17
ĠN ATIONAL
Ġmain ly
ĠPar ish
Ġclean ing
Ġdraft ing
ester day
Ġpost conviction
ĠCr ime
ĠH undred
au er
ĠTreas urer
ĠAr ch
Ġgas oline
ĠW C
ĠOnt ario
ĠLe ader
Ġfulf illed
ĠCover age
ĠJ on
ĠEle c
ĠF red
pt roller
O J
ur isdiction
d um
u els
ĠSimp son
it is
Ġtransp arency
ĠF ixed
ĠM os
Appellant s
m atic
ĠRec on
ĠT an
s ki
Ġins ist
ut t
67 2
ĠC leveland
p ublished
con n
68 2
Ġuph old
s m
sub stant
ĠMajor ity
Ġgovern ance
Ex cept
itor ies
6 37
Ġuns atisf
Ġlender s
enc er
66 1
ec ution
7 14
Ġfee ling
ĠAr gu
Ġrep orter
ĠPeter son
ĠEmployee 's
ĠU C
Ġadjo ining
Ġhealth care
v able
Ġd ental
6 57
T able
ĠS N
RE AS
Ġdisplay ed
Ġprov ince
Ġenjo in
Ġpi eces
Ġcompet ence
ch o
Ġspec ially
Ġinflu enced
m al
7 47
ĠStud y
Ġf o
ĠAMEND ED
are z
Ġprovision al
Ġrec ited
Ġwas t
Ġprocess ed
Ġpend ency
Ġwe alth
Ġdecedent 's
Ġinf ant
atur ally
Ġaccident s
80 5
ĠPRO PER
ĠMar g
Ġa fore
Ġbip art
00 6
Ġguarant or
Ġdis aster
ĠDun can
Ġcy cle
Ġunderw riting
ĠM ic
ĠE BITDA
Ġs ight
Ġrecover able
in ney
ĠM u
Ġrebut tal
Ġfor g
ĠBar oness
P lan
' .
6 38
ĠSur v
ĠS ponsor
ĠAvail able
Ġdis rupt
., ĊĊ
âĢĶ a
TI N
Ġappoint ments
' ve
ĠSp an
Ġ ?
ĠChe mical
Ġin eligible
Ġpat rol
ĠD ollar
ĠFO IA
TI FF
ĠC row
Ġw arned
Ġint est
O b
6 43
Ġab road
h im
S im
ĠH ab
Ġcult ure
Ġfull est
Ġinvestig ative
ĠU ntil
Ġpart ition
ĠTer min
or ry
ol o
Ġ-------------------------------- ----
ĠAct ivities
ĠEx hibits
Ġneighbor hood
ult y
ĠNSW C
Ġaccount ant
Ġag grieved
Ġd rop
ĠAd o
Ġpec ul
ĠH old
ern on
ĠL ove
ĠLEG AL
ĠHay es
Ġ ------------
Ġconce aled
T ax
ĠV essel
Ġholding s
n et
ĠR oth
Ġpred omin
at on
ĠMil itary
ĠInvest ig
Jud ge
Ġtest ament
P I
ĠEx che
Ġo x
Ġiniti atives
Ġpar ame
68 1
Ġjo inder
o ley
ĠIN DE
More over
l ied
Ġaction able
ie l
6 46
ĠSub sequently
8 11
Ġprosecutor 's
Ġwe ather
ĠUn restricted
80 6
Ġno vel
ĠWal ter
Ġdeter ior
Ġmar itime
Ġen rolled
qu estion
Ġpresum pt
ĠN as
Ġappoint ing
7 45
-d is
ĠLe ases
c r
ĠRep urchase
Ġle asing
Ġut ter
ĠI TS
m osp
d raw
ĠR oman
Ġfurn iture
Ġem erg
Ġlan e
ĠAC TION
7 32
Ġhaz ards
ow ed
68 9
Ġbreat h
ĠL ar
ĠNew s
Ġvo ir
ĠSing apore
b efore
ĠK night
ĠIndemn ifying
ĠProced ural
ĠF raud
Ġrel uct
UR ANCE
Ġrel ocation
Ġr id
ĠQu estions
vent ional
ĠTh ousand
ĠC re
% ,
Ġmat ch
Ġsuscept ible
M EMORANDUM
i ating
ĠTod ay
Ġarri ving
Ġfoc uses
ĠRemed ies
âĢĻ m
Ġo mit
Ġeffect uate
ĠP EN
ĠC LAIM
Ġenjoy ment
UN ITED
7 26
Ġadvis ing
ip ally
Ġde ceptive
ĠSep aration
B T
Ġshipp ing
Ġm amm
Ġsu icide
69 7
Ġg ate
Ġbar riers
ĠWhe el
7 37
Ġunconsc ion
Ġsupplement ary
66 4
); ĊĊ
ig inal
Ġf als
ĠExche quer
ĠB id
Ġass ent
ol ars
ĠH op
Ġdrain age
ĠMy ers
Ġ---------------- ------------
Ġdeliber ations
Ġob st
ĠAff idavit
ĠT enth
/ Ċ
B e
en er
Ġretain ing
H O
oint ment
ĠB ald
Ġretain s
Ġp atern
Ġscen ario
Ġy esterday
Ġlook s
is itions
65 3
Ġequal ity
Ġauthent icated
MIN ATION
< /
il a
ĠR uling
ug g
Ġgr at
Ġhead ings
n ty
ĠDEF END
let s
' clock
77 7
Ġbelong ed
Ġhistor ic
" In
- state
Ġst ores
Ġthink s
Ġfore close
OR E
vail ing
Ġlitig ated
ur rent
le ans
ĠPRO CEED
Ġdec ides
ĠFre edom
ĠAN ALYSIS
su fficient
ĠOcc up
D irect
ch apter
ĠFL SA
68 5
Ġl osing
EC TIVE
S u
Ġfisher y
ĠRuss ia
ĠPitt s
Ġdro pped
ĠF lex
Ġj ournal
iam ond
ocu ment
70 9
Ġreform s
ĠAn ders
i h
Ġpre emption
M ark
80 8
8 12
ĠSub sequent
Ġsafegu ard
Ġd rew
ĠRe id
ĠN uclear
R est
Ġest opped
ĠAg encies
ĠParticip ating
ĠSCH EDULE
67 6
Ġsurve ys
Ġholid ay
ra id
-t r
Ġlaw suits
p res
6 34
Ġpursu it
Ġc rop
Ġth row
ĠRen ew
ĠMot ors
Ġpen et
ens en
ĠUr ban
7 43
ter ior
68 8
Bar oness
ĠDeal er
ĠB oyd
Ġinteg ration
ĉ ĉĠĠ
htt p
O ff
Ġforward ed
- ment
ĠJ R
I AN
- In
Ġtown ship
ĠOri gin
Ġfin der
ĠB rew
Ġla ying
ĠC AA
so red
Ġwrong fully
Ġpres iding
econom ic
ĠB ren
Ġvacc ine
Ġappro x
ĠK le
ĠDenn is
Ġt ends
Ġem er
Ġexp ensive
Ġinn ovation
Ġcon ve
igg ins
Ġt ire
ĠAnt i
Ġvis ible
ĠĠĠĠĠĠĠĠĠĠĠĠĠĠĠĠĠĠĠĠĠĠĠĠĠĠĠĠĠĠĠĠĠĠĠĠĠĠĠĠĠĠĠĠĠĠĠĠĠĠĠĠĠĠĠĠĠĠĠĠĠĠĠĠ ĠĠĠ
ĠReg istered
Ġca ught
.St at
sh ould
Ġp istol
re al
ĠF DIC
Ġrem it
ĠĠĠĠĠĠĠĠĠĠĠĠĠĠĠĠĠĠĠĠĠĠĠĠĠĠĠĠĠĠĠĠ ĠĠĠĠĠĠĠĠĠĠĠĠĠĠĠĠĠĠĠĠĠĠĠĠĠĠ
ĠCoven ants
Ġgener ate
67 3
Ġinfring e
[d eg
ĠPro duction
h n
ĠMarket ing
ĠRef uge
Ġneglig ently
Ġal beit
H ouston
Ġloc ate
Ġre action
ĉĉ ĉĠ
ate ll
ĠWeb b
h and
Ġretroact ively
gr ant
Ġarri ve
Ġexc used
Ġproport ional
an i
Ġdefin itive
ĠNSW CA
ĠSim on
Ġg entle
ĠAl b
.V a
Ġvar ied
Ġmoder ate
Ġexc ise
vel oper
Ġdesign ee
ĠA W
om y
ĠHA VE
ĠC nty
utor ily
ĠJ ane
ĠO W
Ġm ob
ark er
ĠAm b
Ġbu ying
ĠContract ing
ĠWay ne
6 49
ĠB C
y p
Ġdenomin ated
Ġenc ounter
-pro fit
Ġcons ensus
Ġan cillary
-mo ving
ut s
6 28
Ġag ed
Ġin cl
ĠCont inu
ĠRE L
Ġm aker
credit or
ĠHol mes
ill ion
au ght
ar on
Ġwithd rew
au x
00 7
ist le
ĠB ig
ust ain
fort unately
w ritten
Ġcommod ity
la ying
Ġqu arters
Ġment ally
Ġbipart isan
ĠBru ce
Ġregul ating
act s
ĠOr leans
ĠIndemn ification
77 3
Ġdraw ings
Ġto uc
================================ ================================
Ġdem ocratic
Ġoutwe igh
Ġchildren 's
Ġpl ate
ĠâĢĶ Ċ
7 44
ĠU P
ĠClear ly
ĠH IS
/ f
ĠS n
ĠC AS
Ġcomb at
Ġexcell ent
6 77
/ b
L o
e k
Ġencour aging
Ġc ro
ĠC IT
7 33
- line
Ġh unt
ĠRecip ient
Ġgir l
ge on
Ġcent ers
Ġmother 's
Ġsuper intendent
g ical
8 17
ĠĠĠĠĠĠĠĠĠĠĠĠĠĠĠĠĠĠĠĠĠĠĠĠĠĠĠĠĠĠĠĠ ĠĠĠĠĠĠĠĠĠĠĠĠĠĠĠĠĠĠĠĠĠĠĠĠĠĠĠĠĠ
sp ace
ĠP atterson
ĠStock holders
ĠSp ain
ĠS ex
ĠT re
ĠS ys
TE E
Ġm outh
ĠSim mons
ĠIm port
e vidence
Ġac ute
90 7
ĠV E
9 21
Ġve get
ĠG M
Ġing red
8 60
es h
Ġemp owered
A TIVE
Ġinter mediate
O UT
ĠMad ison
ĠĠĠĠĠĠĠĠĠĠĠĠĠĠĠĠĠĠĠĠĠĠĠĠĠĠĠĠĠĠĠĠĠĠĠĠĠĠĠĠĠĠĠĠĠĠĠĠĠĠĠĠĠĠĠĠĠĠĠĠĠĠĠĠ ĠĠ
f ather
t ure
Ġf le
Ġany where
ĠS S
8 37
ĠH ob
Ġattain ment
Ġsk illed
ĠW ednesday
Ġrest ored
AT H
ISH ED
-cl ient
ĠInstru ctions
âĢ ĸ
80 9
ĠF AR
ĠMark s
cript ive
V EL
Ġdisag reed
ers u
Ġrelie ved
Ġstrengthe n
Ġs pons
Ġcap ability
ĠAfghan istan
Y L
ĠH OLD
Ġmon op
Ġimpl ies
Ġsecond s
ĠW ag
Ġpremis e
78 2
68 3
Ġemail s
i atory
Ġinherent ly
Ġfield s
pect ed
__ ĊĊ
ĠPal mer
o ffic
cil iation
ĠAut om
ĠRequ irement
Ġw ear
Ġsuff ers
ĠMortg aged
Ġadd s
ap es
ĠAir port
ĠDeb entures
6 44
ĠDe ath
Ġrespond s
ĠFranc is
N IA
Ġdid n
ĠHamp shire
ĠB order
ĠF S
Ġs at
88 1
ĠV end
Ġpoint ing
Ġindividual 's
el la
Ġenjoy ed
7 34
el t
8 40
9 10
J une
Ġh urt
ĠLie ut
ĠSt ri
ir us
Ġro t
Ġm ort
8 13
Ġport folio
tain ment
ĠEx c
Ġrenew able
ĠSubs criber
un a
7 18
ĠFr anch
] .âĢĿ
Ġsell s
Ġsafe ly
Ġab ide
Ġcho ices
Ġb are
Ġch am
ot ive
Ġim ages
79 2
7 67
Ġget s
Ġstri kes
AR ANT
Ġgriev ances
75 9
ĠV iew
ĠMin ing
Ġliquid ator
ĠF IRST
ĠEnter prises
7 65
Ġturn ing
Ġkn ock
Ġgrant or
Ġk itchen
it erated
ĠConstitution al
amb ling
v ity
ĠLib rary
Ġart ific
68 6
pt h
Ġsumm arily
Ġab ortion
Ġcon vention
Ġcounterclaim s
ĠGovern ments
Ġagricult ure
-p ocket
ipl inary
Ġorgan izational
Ġtrans it
ation ally
og g
ĠCorrection al
Ġsuff ice
Ġpartnership s
Ġmin us
68 4
Ġfurn ishing
Ġam ort
ĠB os
ĠCON FIDENTIAL
ĠF CR
Ġdoubt s
ĠE arl
ol ph
ĠG RO
ĠRe vision
ĠAT TOR
Ġest ates
M an
Ġtend ency
ro duct
Ġwilling ness
Ġpick ed
Ġinc umbent
Ġd ual
ĠAc adem
ĠKenn eth
ĠG P
ĠShe et
ĠIn stitution
Ġqu o
Ġform ing
ĠS eal
Ġpl astic
Ġclos er
7 68
Ġdupl ication
H L
h al
Ġsub rogation
Ġrecogn izing
ĠC T
ĠIncre mental
66 9
Ġaccru ing
as p
. The
ere es
Ġisol ated
Ġv ent
int s
Ġboy s
ĠE V
7 24
69 2
ĠK ra
b ound
ĠAll iance
Ġmis under
Ġrest ed
Ġpsychiat rist
arrant ed
itt ed
Ġsuggest ions
ĠIn struction
8 24
Ġpar ol
un iary
Ġcomput ation
ĠEnter prise
78 7
he im
R ober
Ġdisqual ification
ĠNSW LR
ĠSign ature
ĠW AS
ill er
ber ger
Ġlo aded
ĠCERTIFIC ATE
Ġhar vest
sp ection
e termin
lic k
Ġb ol
all ing
bro ok
it ious
Ġaccount able
8 75
OC I
ĠM isc
ĠInt ell
ĠGr ants
Ġcon st
Ġpract ically
Ġcivil ian
ĠOwn ership
Ġtrans mit
m as
Ġconsumm ated
ĠCol o
Ġimper missible
Ġimp ly
ĠDebt or's
ĠT ariff
-s ix
et ies
ĠM en
Ġassign ing
man ent
id umping
O ct
Ġ________________ ____
Ġmis appropri
ĠA reas
Ġavoid ing
Ġcollect ions
ĠPur pose
Ġgra ve
Ġaf raid
and emic
Ġdecl ining
) ''
ĠAss oc
Y es
Ġannoun ce
Ġshe ets
ĠOw ens
75 7
Ġsure ly
da q
t ogether
A ust
Ġpar cels
ĠInter state
I PA
ĠGreg ory
ĠLO AN
ĠS ess
8 15
un ct
ĠW R
Ġnom inal
Ġbid s
Ġcount ed
ĠTA X
85 1
ĠSpan ish
ĠRuss ian
Ġcomm end
Ġcouncil s
ad or
ĠS on
ĠInstru ment
ĠBr un
Ġoblig or
" It
Ġqu it
LR B
-d eal
Ġun pro
un ate
Ġdec ades
Ġrecol lection
Ġcorrect ive
Ġout put
Ġmis sed
80 7
Ġcance led
Ġme at
Ġob sc
Ġas cribed
sel s
Ġacceler ated
Ġl ove
Ġinfl iction
ĠUn iv
Ġunivers al
ĠSt ein
Ġcapital ized
66 3
Ġen orm
8 18
Ġg lad
7 23
ock s
CH ANGE
ĠDes cription
Ġalt ogether
f in
7 29
Ġpremis ed
ĠSuppl ier
Ex ecutive
ĠH ills
ĠTe ch
ĠTh ank
Ġass urances
ĠA PA
ac le
Ġunp ublished
ĠV acc
ĠPrim ary
Ġamount ing
Ġcomment ed
90 5
ĠTru ck
Ġassist ing
Ġch ancellor
ĠEx piration
Ġsupp lements
Ġha ir
ĠDis position
IT S
ĠSher man
rimin atory
Ġwholes ale
H IP
ĠV ictim
Ġrescind ed
ĠP lacement
Ġd ark
ĠEm p
Ġcomp osed
ĠHart ford
Ġro oms
V IS
Ġlog ic
ĠâĢ ķ
ĠH C
Ġsome body
ĠE valuation
ĠE EA
D o
Ġliter ature
OL IC
Ġprinc ipally
Ġtick et
ĠT ol
Ġf law
77 1
Ġwill fully
ig ure
if ier
Ġb es
Ġpack aging
ĠH HS
Ġex empl
ĠFra mework
& P
Ġtro ops
7 36
er b
ig en
act ing
Ġk ick
Ġdecla res
Ġgun s
Ġmotor ist
ab et
ĠC E
ĠRich mond
Ġleg end
ĠNO TICE
Ġhundred s
Ġar isen
Ġfight ing
ap olis
ĠT ier
Ġillust r
7 19
Ġcompar ative
Ġprec a
clud e
ĠSw ap
ĠW itness
Ġfut ile
Ġep is
I FOR
ĠAndrew s
gr ade
ĠAff irmed
the y
USTR AL
Ġ" ĊĊ
Ġbe er
o om
ĠBill s
ĠE t
ĠH ong
ĠComp etition
Ġce le
Ġauthor isation
ĠR A
Ġsched uling
ĠF ax
Ġincap acity
75 4
Ġmed ications
Ġpurported ly
Ġf itness
ĠC ath
ĠZ eal
ĠNote holders
c ence
B rien
Ġun insured
RE G
8 34
Ġde pth
IN A
ĠS r
Ġreferen dum
ĠGonz ales
8 80
ĠC her
ĠT am
-f act
8 44
Ġam ends
M inn
Ġ* ĊĊ
Ġprovis o
ĠRobert son
ĠC ab
ĠN ash
ĠInvest igation
âĢĻ .
Ġsevent y
Ġterr itorial
i ences
Ġv it
Ġresid ing
7 55
ch t
Ġinconsist encies
Ġkidn apping
S umm
Reg ulation
Ġincorrect ly
Ġinv itation
Ġbal anced
um es
Ġca ption
Ġverdict s
ĠR ICO
8 66
Ġdefault ed
ĠRe habilitation
Ġun acceptable
Ġm ag
Ġsil ence
- established
ĠIt aly
Ġadvoc ate
Ġtox ic
Ġsw ap
ĠSt ip
Ġexperi ences
ane y
l u
ĠNet her
\ Ċ
ĠLic ensor
ar atus
ĠK en
or ity
Ġholid ays
Ġinn ov
Ġnation ally
ep end
itor ious
7 90
ĠCr imes
IFOR NIA
form ed
ĠE ACH
ĠFre eman
Ġdr illing
Ġoccasion ally
Ġtri be
ĠD ES
7 49
Ġrepla cing
Ġex it
ĠCham bers
ĠBul let
leg al
ĠI B
Ġvers us
. );
ĠT a
ĠMot ions
ĠSERVIC E
K S
d ivision
Ġserv icing
ĠShort ly
ap ing
Ġdisad vantage
Ġb ilateral
ight ed
Ġsing ular
ĠP AT
Ġmin ors
ĠHar vey
Ġnon pro
ĠSched ules
p aid
Ġsubs cription
ĠComp are
ĠPier ce
ĠF ront
c uff
ĠBr and
ĠMer ch
p etition
75 3
Ġob struction
c ation
Ġal ert
ĠZeal and
ĠAppro ved
Ġdoes n't
BER T
ĠEngine ering
Ġflex ible
- man
Ġtruck s
ĠSaf e
Ġhusband 's
ic er
Ġclot hes
ĠF UND
Ġwhere ver
ĠD ixon
69 5
Ġwork force
id al
ĠWar ner
Ġstr ingent
Ġy ounger
ab and
Ġput s
st ead
Ġs and
arc eny
ament ally
7 16
8 65
ĠR ULE
69 6
Ġp ensions
Ġab atement
ĠT ucker
Ġcheck ed
ĠI MP
Ġquant um
Ġintent ions
79 4
under ing
Ġcorrobor ated
ĠD own
Ġsol utions
8 77
h igh
ĠK evin
Ġel der
Ġgeneral ity
Ġper jury
G U
Ġtrou b
Ġcert ifies
0 11
Ġf ruit
Ġinter rupt
__ Ċ
7 66
onym ous
Ġad mon
Ch ange
8 43
8 70
ĠR onald
ĠAD MIN
âĢĿ ĊĊ
Ġc old
Ġra w
Ġanticip ate
ĠĠĠĠĠĠĠĠĠĠĠĠĠĠĠĠĠĠĠĠĠĠĠĠĠĠĠĠĠĠĠĠ ĠĠĠĠĠĠĠĠĠĠĠĠĠĠĠĠĠĠĠĠĠĠĠĠĠĠĠĠĠĠĠ
ĠIssu ance
7 46
Ġcontrad icted
Ġbl ind
t een
ĉ H
ĠC hen
mitt al
ul ly
ĠW ould
Ġeng ines
ann uation
Ġr ing
Ġnomin ated
ĠA u
ĠAll state
Ġs essions
78 1
Ġany body
ĠOpport unity
ĠREG ISTRATION
ĠF erg
Ġunder took
unning ham
ĠREG UL
8 14
ĠAll ow
ar gu
Ġsu n
lf riend
Ġcompl icated
R equ
ĠLegisl ative
t ra
Ġgain ed
IN C
Ġtrib es
ĠA ck
ĠB A
ĠA la
Ġquot a
air y
76 2
com mon
Ġunderwrit ers
c ould
Ġe ighty
ĠB ros
77 2
ĠLuc as
ĠR ice
ot o
ust er
Ġnear by
Ġins ists
ĠCar p
ĠS B
Ġpreempt ed
ac o
ĠQue ens
medi ately
Ġvic inity
| Ċ
Ġnon compliance
Ġrest rain
Ġp ose
Ġtit les
ograph ic
ĠV AL
ĠPolic ies
ĠBry ant
ĠRepublic ans
7 48
ĠEx posure
Ġqu orum
ĠINV EST
Ġarbitr ate
Ġhabit ual
Ġshipp ed
ĠJ oe
Ġinter action
Ġencumbr ance
ĠG row
br idge
Gu arant
ĠL iving
ĠB est
â Ī
ĠBel g
ĠREC ORD
Ġimport ation
ĠM icro
ĠCAL IFORNIA
9 80
Ġcompet itors
ĠK ings
Ġresid ue
ĠD W
ĠV enture
ĠSever ance
m id
Ġland sc
Ġaccum ulated
Ġrat ified
ĠItem s
8 45
est one
ĠArm strong
8 21
ra ine
ĠStrateg y
discuss ing
9 40
AM E
hes is
Ġpoll ut
Ġdimin ished
Ġcomp are
ĠL ines
Ġe arth
INI TIONS
Ġind isp
8 42
Ġc otton
Ġansw ering
R ev
Ġexpress ing
ect or
Ġexempt ed
ĠCom mittees
ĠF er
Ġad vantages
Ġrel atives
velop ment
Ġarre ars
ĠB ob
Ġdet ective
ĠC amb
rodu ced
Ġaud ited
Ġd ipl
Int erest
e ither
Ġab usive
ĠPROVISION S
Ġfather 's
Ġver b
Ġrep ud
.C r
EX HIBIT
ĠPet roleum
AN N
OR ROW
ĠOC GA
Ġann ul
ĠC abinet
Ġnarrow ly
P ursuant
-M art
Ġcod ified
ĠLim itations
Q S
Ġfalse ly
ĠSen ators
Ġfisher ies
Ġdetermin ative
Ġminister ial
m ist
ian o
ion e
âĢĺ s
8 32
Ġen velop
i ors
69 9
ĠTrans p
ĠInstru ments
Ġrespect fully
ĠCoven ant
Ġnegoti ating
E l
Ġle ak
- being
J O
S p
Ġdise ases
ĠR ee
-inc ome
ĠM T
Ġn aturally
Ġow e
act ual
8 22
00 8
Ġ/ /
Ġfinanc ially
ĠD ise
Ġor ient
78 3
ot es
ĠT S
9 12
Ġadvertise ment
ĠS BA
-t wo
Ġunw arranted
ear ance
Ġdecl ines
ĠUlt imately
ĠDeb enture
Ad d
Ġparliament ary
iv est
Ġw alls
ĠS om
ĠIr ish
Ġfact ually
ĠSt ra
89 3
Ġuncond itionally
F orm
Ġhand cuff
w ich
Borrow er
ĠA USTRAL
Ġsh ape
on er
J uly
m un
ĠInter im
ĠCl inton
ĠA RE
Ġnav ig
Ġporn ography
Ġlist en
Ġfail ures
Ġre iterated
Ġacknowled gment
N ERS
Ġbal ances
Ġbelief s
h ard
8 16
ro it
AM ES
Ġt ied
Ġlo ading
S CH
ĠT her
b oth
ĠWy oming
t aking
Ġextr insic
Ġfraudul ently
Ġadvis ors
76 3
ĠSt ores
Ġw il
Ġche st
Ġinfl icted
Ġst im
UG H
ĠD aw
ĠG S
Ġre mitted
Ġexhib ited
0 30
der ick
P erson
ell s
Ġla d
ro lling
Ġgrand mother
ĠK ong
b ox
pri v
ĠRece ipt
ĠOther s
." ).ĊĊ
ĠB U
ĠVer mont
T er
Ġdown ward
7 39
-- ``(
Ġac id
Ġcont amin
ĠBank 's
in f
ĠB ull
Ġconcept s
la g
ĠMar gin
ĠAn not
ĠX X
ĠUnderw rit
ĠC AT
Ġseal ed
z o
Ġunder c
Ġhe ating
Ġinher it
Ġcor rections
Ġact or
ĠAltern atively
90 6
Ġuncond itional
8 27
Ġn arr
- I
E MP
Ġab und
ost s
" [
em e
Ġsubsid y
78 8
Ġbro kers
ĠAssum ing
ĠMatthe w
Ġe labor
Ġsp ort
omin ium
-exam ine
f irst
B B
ĠI F
ost ic
ĠAg gregate
or ous
bu ilding
Ġret ire
en able
77 6
D onnell
7 28
child ren
79 1
og a
B ased
ĠC os
Ġenroll ment
Ġincre as
( v
Ġbrother s
Ġ __
Ġp andemic
ĠZ one
ĠY e
ĠClark e
Ġtouch ing
it ud
ill an
ĠD raw
z y
87 1
and om
Ġsome how
t rial
Ġdomin ant
V AN
Ġmat ern
Ġstat utorily
ĠA id
Ġevalu ations
ley 's
-ex isting
Ġcomplex ity
Ġcomplain ants
Ġconced e
Ġder og
Ġj unior
ĠDemocr ats
te enth
Ġb aby
Ġthereto fore
Ġfil m
D es
ĠW aste
it o
ĠMonth ly
Ġent rance
ine es
IA B
c ase
ic ates
irt een
ĠAssum ption
ĠOrd inary
W C
ĠOk la
85 2
Ġmeasure ment
ĠASS IGN
and ed
9 30
clus ions
iam i
Ġbelie ving
8 47
ĠN LRB
Ġthorough ly
ĠĠĠĠĠĠĠĠĠĠĠĠĠĠĠĠĠĠĠĠĠĠĠĠĠĠĠĠĠĠĠĠ ĠĠĠĠĠĠĠĠĠĠĠĠĠĠĠĠĠĠĠĠĠĠĠĠĠĠĠĠĠĠ
Ġapprec iation
ĠH ig
Ġal iens
ĠSing h
ĠMortgage e
Ġexclud es
Ġpossess es
ĠSP EC
chang ed
âĢĻ re
Ġgood will
-re c
ĠCitizens hip
as se
ĠL umber
ĠImplement ation
ĠEn c
Ġdivid ing
Ġoccup y
ĠCont rary
Ġoff ensive
SE E
Ġneglect ed
Ġsevere ly
cur rent
Ġconsumm ate
ĠG ov
Ġsh ield
- res
iat ric
int ed
99 9
Ġdetri mental
Ġt ons
78 6
Ġvers ions
ou ch
ĠBullet in
Ġpost ing
Ġover due
Ġdev oted
Ġincreas ingly
e ys
ent on
ĠĠĠĠĠĠĠĠĠĠĠĠĠĠĠĠĠĠĠĠĠĠĠĠĠĠĠĠĠĠĠĠ ĠĠĠĠĠĠĠĠĠĠĠĠĠĠĠĠĠĠĠĠĠĠĠĠĠĠĠĠ
ĠVe ter
Ġg old
Ġst orm
Ġdepend ency
Ġem pt
Ġt u
Ġremin d
, ĊĊĊ
ĠKe ith
ĠInter creditor
78 9
- ac
Ġparame ters
Employ ee
78 5
Ġstrong er
:ĊĊ ĊĊĊ
Ġcontr aband
8 36
at ched
ST EM
ĠCop ies
8 68
ĠFM LA
Ġs aving
ĠF am
- pr
Ġur gent
al ian
76 4
G S
ĠST E
ĠFarm ers
ott ed
Part ies
9 25
ĠF el
ĠST AT
E xt
ĠAG ENT
Ġweak ness
ĉĠĉ ĉĠ
b orne
Ġdes c
ĠNas daq
S ept
ac on
ĠCertain ly
Ġ______ ĊĊĊ
Ġoccup ants
ĠMinister 's
V ES
ĠC ow
- judgment
et ween
R Y
Ġstr icken
Ġnetwork s
ff er
'' ,
ĠUn fortunately
Ġlease hold
Ġl arceny
Ġliquid ity
ĠA ve
Ġhand gun
i ott
Ġref uses
Ġatt endant
ĠH ale
C t
ĠSam uel
y cl
85 3
Ġext rad
Ġapp aratus
ĠH omes
ĠCar roll
0 21
C arth
Ġpubl ishing
Ġd angers
Ġproced urally
ĠHar ry
ĠChar ges
Ġtop ic
Ġcontain er
Ġdemand ing
TR UC
ĠPay ne
appro ved
Ġexp orts
ĠFed eration
ĠHealth care
Ġprosecutor ial
ĠCustod ian
Ġhe s
ĠT IM
Ġfraction al
ex ts
There fore
8 26
7 69
Ġun employed
85 4
IV E
8 23
ĠK ar
E uro
Ġfore closed
Ġtouc hed
ĠV is
ĠAd am
IN D
69 8
ub b
] h
Ġpec uniary
ĠPl at
- class
sum ing
ĠCity 's
ĠTor res
ĠAb out
Ġten ure
Ġpr ime
Ġsucceed ed
] ."
pt ly
Ġautom ated
Ġre un
ĠChap man
Ġaccount ed
ĠNether lands
ĠK u
EAR ING
8 31
ĠFund amental
Ġpersu ade
ĠCust om
ĠWhe never
Ġp al
ĠJ unior
ĠT emporary
us sels
8 35
Ġadjourn ment
Ġdeduct ible
p ol
Ġret iring
- ,
Ġprerequ isite
Ġquas i
ĠJeff rey
ĠCom ptroller
ĠA ffected
ĠUnivers al
ul sion
ĠSuper intendent
it ial
ir a
ĠWol f
Ġfarm ing
S erv
Ġsubcontract or
ĠC itation
m end
Ġ---------------- ----
Ġdisag rees
77 4
9 26
Ġcomp uting
ĠR S
ĠBra z
Ġthen ce
AN TIES
- he
9 19
Ġenjo ined
] ),
ĠASS OCI
I LE
IS DIC
Ġmod ifying
PRE ME
x us
ĠPart s
ĠOl iver
-law s
Ġup set
ivest ock
Ġsh ips
ĠApp lying
et ting
ĠConc ern
ĠJ ob
ĠJ am
ire z
ĠM all
7 78
IN AL
Ġhe d
l ast
Ġtrigg ered
at hered
oc ated
-st ep
Ġtele communications
Ġrecital s
ĠMor rison
I H
ar ious
Ġafore mentioned
G ES
ĠA FF
Ġnurs es
Ġvot er
8 55
ĠR out
8 56
Ġorigin ating
-c ompliance
w ing
Ġmis led
ĠCont rolled
ere r
Ġunderstand ings
ĠArn old
med iary
Ġpun ished
ĠSp encer
ĠM oh
Ġ ....
ĠR ange
Ġign or
ĠT EC
Ġtit led
Ġm icro
Ġfr ank
90 8
ul ates
Ġintox ication
ĠL in
ĠA verage
Ġrefuge e
Ġpray ed
Ġtraum a
ĠT it
Ġcoll oqu
ĠSuccess or
ĠIntell igence
Ġhigh ways
ĠGil bert
ĠProt ective
Ġp ump
Ġjud iciary
Â Ń
il ders
Ġsur prise
ĠINS URANCE
ĠOp en
ic on
Ġed ge
Ġassault ed
Ġdis qualified
Ġpregn ancy
R ever
D isc
89 5
Ġinspect ed
Ġsp aces
F ollowing
Ġdes criptions
Ġs oci
i ac
e et
M AR
ĠApplic ations
Ġeas ier
C an
Ġemploy ing
Ġinstrumental ity
___ Ċ
Ġdiss olved
ud d
ĠX I
UM BER
Ġaccommod ations
% .
Ġpurport ing
ĠLe ague
Ġregistr ations
rog en
Ġgu ess
Ġlock ed
t wo
Ġconfront ation
ell o
ĠEr n
ĠE P
ĠP t
ĠN PRM
ĠDec isions
are tt
Nor thern
8 90
ĠSub mitted
Ġaccident al
C itations
Ġrent ed
err or
ĠThat 's
A pr
C ar
Ġdead lines
ĠPA GE
ĠCP LR
ĠRiver a
ĠD uties
ry s
ĠB asis
CA P
Ġanalyz ing
app ed
Min ister
.âĢĿ ).Ċ
Ġcomp an
ĠDun n
ĠGriff ith
Ġconceal ment
âĢĶ in
ĠNor man
Ġhousehold s
7 56
ĠWh o
ĠHM RC
75 8
Ġsens ible
ag ain
ĉ W
IR D
Ġvar iable
Ġadjourn ed
ĠEx emption
." )
ĠCru z
G L
ĠRespons ible
Ġb arr
ĠDav ies
- end
ĠCH A
ĠInter pretation
se en
( S
ter ling
Ġc ere
art z
ĠR R
Ġbro ke
ĠC unningham
Ġresid es
-third s
Ġim age
88 9
ĠW als
l ers
ĠM f
Ġcor ruption
D ATE
Ġpro long
Ġrem em
Ġmerch ant
ĠCalc ulation
Ġco ordin
78 4
Ġr ated
ag g
ĠPUBLIC ATION
Ġwell s
Ġapp endix
ĉ V
ne ed
f inder
ard less
EM BER
A GE
iv isions
ain ted
ator ium
ĠBro ker
ĠĠĠĠĠĠĠĠĠĠĠĠĠĠĠĠĠĠĠĠĠĠĠĠĠĠĠĠĠĠĠĠĠĠĠĠĠĠĠĠĠĠĠĠĠĠĠĠĠĠĠĠĠĠĠĠĠĠĠĠĠĠĠĠ ĠĠĠĠ
& T
us able
Ġconf ident
p ool
8 28
ĠOM ITTED
ĠEr ror
79 9
Ġunp ersu
Ġwrongdo ing
cop y
Ġreal ize
t est
ĠC ASE
ĠT orts
88 3
Ġprom oted
ĠTransf eree
Ġintest ate
9 29
ĠH IV
Ġ ii
Ġfulf il
Accord ing
Ġlim ine
Ġexc ulpatory
ĠBoe ing
Ġg ambling
al though
igh ter
C redit
ĠIN T
oph ist
Ġsubcontract ors
Ġeconom ically
ĠWITH OUT
ĠRes ults
s ing
AT URE
Ġabs urd
Ex change
ĠOper ator
en as
.R ev
- qu
âĢľ (
âĢĶ to
Ġprof ile
95 1
Ġsy mb
ĠEX CHANGE
Ġin asmuch
Ġst eal
ĠN H
ĠDe partments
Ġtown s
79 6
Ġent rust
Carth y
Ġcorrection al
79 5
ĠSus an
Ġbr anches
8 38
Ã© s
Qu estion
9 13
Ġbe at
Ġund ivided
ĠHoll and
ĠNY SE
Ġwife 's
Ġindu cement
ĠC amer
ĠDe termin
Ġdeath s
ain es
Ġsequ ence
Ġone 's
ĠGuard ian
ĠCO L
ĠEx cluded
.' "
Ġfund amentally
son s
ĠPar ole
ĠMood y
Ġtranscript s
Ġdrive way
|||| ||||
ĠAvail ability
an ity
Ġaim s
Addition al
Ġaccompl ice
Ġne xus
Ġs orry
ĠMet ro
W R
ĠM iami
8 49
00 9
ĠAr ab
Ġdispar ate
Ġd ig
ĠRe im
Ġtrans itional
Ġpay ee
ĠL anc
A FFIRMED
Ġcompens able
ĠEX EC
e h
ĠDef s
Ġpass ion
ALL Y
Ġ ................................
9 27
ides pread
8 48
ĠWARR ANTIES
Ĥ ¬
agistr ates
un als
he m
Ġt ended
ĠC ty
An n
li able
Ġb orough
ĠKore a
ĠRIGH T
Ġe ar
ĠPeople 's
Ġencumbr ances
89 1
Ġapportion ment
ĠComp letion
US A
ĠZ oning
ĠM H
ĠP B
ed er
g am
Ġs now
ĠCal endar
j amin
Summ ary
ĠA h
ard o
ous al
Ġ________________ ____________
Ġvac ant
Ġpe er
Ġmis car
c ount
Ġvary ing
Ġbre aking
-c ount
ĠSpec ified
Ġpleas ure
Ġsem i
Ġwa iving
Ġunfair ly
ask et
ĠB ri
Ġimplicit ly
Ġ[ ***
ĠPer mit
ul ance
ĠPresident 's
ISDIC TION
Ġdil igently
9 90
Ġgir lfriend
9 70
Ġequ ipped
A ug
n ormal
Ġpsych ologist
Ġdem ol
l ies
a wn
ig er
Ġimp ract
Ġsub lic
ĠU k
Ġoutwe ighed
8 29
] .)ĊĊ
ĠC ut
ĠV esting
Ġinfring ed
ĠCounter parts
ĠP ak
P at
Ġh ors
AB ILITY
ĠH utch
el iness
Ġleg acy
spec ial
ific ated
79 3
DI TION
us er
ĠR ac
Ġconcent r
Ġsupp ose
79 8
Ġpower ful
ĠGU ARANT
Ġcap abilities
\ ----ĊĊ
ar o
-se tt
ĠD igital
ĠN eed
ĠDec ree
N et
Ġfor c
- contract
atell ite
Con fidential
Ġc ul
Ġint ending
ur able
Ġerect ed
u art
ĠPROVID ED
Ġexpect s
Ġobtain s
ĠW ool
leg es
Ġadopt s
work s
Ġsix teen
ĠSt art
m ere
LA IN
ĠTro oper
ra me
________________________________ ____________
.htm l
ĠM as
ĠPhil ip
9 41
p laced
Ġcollect or
Ġro se
utr ition
m ade
ĠInd ians
Ġr andom
ĠMarket s
ĠF idelity
ond ition
). "
79 7
Ind emn
- k
ĠE agle
9 15
Offic ial
Ġd ress
. uk
8 39
90 9
Ġreclass ification
ĠLit ig
Ġrecord keeping
ail ing
Ġbox es
ĠVictor ia
ro ck
S mith
ĠĠĠĠĠĠĠĠĠĠĠĠĠĠĠĠĠĠĠĠĠĠĠĠĠĠĠĠĠĠĠĠĠĠĠĠĠĠĠĠĠĠĠĠĠĠĠĠĠĠĠĠĠĠĠĠĠĠĠĠĠĠĠĠ ĠĠĠĠĠĠ
ĠPr ud
9 23
ĠCt r
he y
Ġpun ct
ard en
Ġpat ron
ĠL T
Ġhar med
ĠOb ama
G AN
AR ES
- en
Ġcont amination
Ġsp ot
ever age
ĠDisc rimination
c re
Ġsett lements
8 19
ĠRad io
form er
Ġcharge able
Ġb le
Ġfinger print
F eb
ĠHar bor
Ġen ables
y ard
Ġpass es
87 2
Ġfac ial
ĠD y
p in
ĠPURCH ASE
-oper ation
B ET
ĠTest imony
ĠUS DA
it ter
and ing
c or
Ġpurport s
p an
Ġsu gar
âĢĻ r
re z
Ġafford able
Ġse venth
ĠINTER EST
CO MM
la x
Ġoccasion ed
ĠS SA
app ellant
ĠINTER N
Ġa venue
Ġdefault s
Ġlicense es
Ġe ffic
Ġav iation
ĠK il
ĠF ACT
Ġow es
ĠI MM
J ames
Ġassemb led
Ġpet roleum
Ġset off
ĠR ivers
ĠIndividual s
M B
Ġjudic ially
for ward
W O
ab out
ell i
Ġauthor izations
ĠAtlant a
Ġmer itorious
ĠT ake
ĠNichol as
P UBL
ins ki
OUN T
ĠWard en
ĠS yl
ĠB anc
ĠCapital ized
Ġconf used
Ġspecific ity
b ors
G e
ĠDef erred
ĠAUSTRAL IA
ĠS ource
Ġrein state
/ k
Ġsupervis e
Ġcho oses
ĠT V
Ġpro ves
ĠW AL
Ġan c
RE AT
clear ly
7 79
int ention
ĠM AN
Ġco ol
Ġpecul iar
Ġwitness ed
ĠM ead
Pri or
anie ls
aw a
ĠIn spection
ĠV iet
ĠConf lict
G l
Ġup ward
Ġaver red
ĠDet roit
ĠIt 's
ĠCent ers
Ġsoon er
Ġimpact ed
ĠCur tis
Ġre iter
la pse
Ġfederal ly
ĠDie go
Ġb ore
Ġobs er
gr oup
ĠHer itage
Ġnot ifies
V O
ĠF ried
Ġ---------------- --------
ol vency
Ġident ifiable
9 14
ĠBla ke
Ġtrib ute
Ġwor st
ĠA ge
ĠC ad
Ġorgan ic
Ġded ication
E ffective
Ġgeograph ical
Ġlic ences
8 57
Ġrecomm ends
8 58
Ġbill ed
Ġwid th
ĠR ut
). âĢĿ
ĠProgram me
Ġhom eless
-p etition
Ġappeal ability
DE A
am an
ĠMult i
ĠD iaz
ĠBL M
ĠPr ince
-Am erican
use um
T otal
ĠD ill
Ġtermin al
Ġnot ifying
Ġbenefic ially
ing ham
87 3
Ġmaterial ity
ĠJ ay
Ġsucc ession
OM B
ĠProsec utor
Ġg ear
Ġrank ing
rog ated
Ġexc av
- ple
Ġpolit ics
Ġred e
itz er
Ġroad way
Ġnor thern
9 17
SU ANT
Ġform ulation
Ġdistrib uting
Ġsub c
Ġproject ions
ĠPrinc iples
bour g
D ep
Ġdiff ers
ĠT ask
Ġveter an
Ġsh opping
Ġch ap
ag en
Ġhuman itarian
ĠT op
he e
ob e
ĠH E
Ġchann els
f eas
Ġcomp atible
Ġprosec utions
Ġf ib
ĠTechn ologies
g ow
emorand a
Ġh ole
ess ation
ĠVacc ine
Ġdefam atory
ĠA er
st ar
C are
P RO
Ġmotiv ation
Ġf allen
let cher
ĠS i
in ue
ĠSt ated
89 4
urit ization
Ġimpl icated
CE LL
9 18
ah l
Ġvac ancy
Ġreal ise
Ġad here
Ġconcur s
/ M
ĠW eek
Ġex pos
ĠBrother s
ĠInf rastructure
ĠDIR ECT
/ p
ĠP D
Ġpret ty
ĠN S
Ġevery body
EO US
Ġend angered
ĠRespondent 's
at able
Ġcharacter ization
Sec urities
Ġdispos ing
Ġenact ing
9 16
-s c
Ġreg ret
ĠR idge
Ġretal iatory
OP E
IC HA
th rough
Ġpre clusion
Ġrevers ing
oen ix
ĠHist or
ĠPROPER TY
Ġimpeach ment
Ġon set
Ġtradem arks
clos ing
Ġsatisf ying
Ġsurpr ising
arent ly
ib us
/ m
Ġcomp ound
Ġre ward
lam m
Ġalloc ations
N ow
ĠREQU EST
ract ed
-m ark
ĠGard ner
Ġint angible
Ġembod ied
ĠJ oy
ĠC ub
88 6
ĠSubs cription
Ġacqu ires
Ġprint ing
ĠTER MINATION
crib ing
re lated
ĠE IS
Ġreg istry
ĠB ed
Ġpursu ance
ĠSchool s
89 7
Ġput ative
w ords
Ġconsc ience
-c ase
ot te
86 3
Ġdet ection
Ġw idespread
W CA
ĠHar per
ĠAl v
Ġbag s
F AC
ĠC ategory
Ġcell s
Ġopp on
ĠA k
= Ċ
Ġremem bered
issu ed
Ġrestruct uring
ĠAssign or
Ġsho es
Ġro les
ĠMod ification
- ray
Ġmay be
Ġorder ly
Ġexplan ations
ĠMon itor
Ġproof s
ĠM ED
ĉ We
Ġton ight
88 5
Ġadjud icate
Ġrout es
Ġover head
Ġphot o
Ġgra ce
Ġnum er
Ġsc re
ĠPark s
ĠPro posal
let ed
N P
Ġh arsh
i y
ĠEx port
ĠBur ton
86 1
Ġ[ ]
99 5
ĠF T
err als
Ġ[ Â¶
ĠCOMM UN
Ġw ild
ĠM agn
ĠRestr ictions
ĠM emorial
ain ed
Ġcon ventional
ĠAud it
Ġm ir
el ated
Ġpharm aceutical
ann el
A c
ĠAPPLIC ABLE
p a
Ġartic ulate
Ġplaus ibly
Ġsub ordinated
Ġrestra ined
l ings
ud s
ather ine
- ad
Ġpus hed
ĠL ex
ĠB ENE
ric ia
Ġth rown
ĠLegisl ation
ĠRay mond
v ia
ĠRequ ests
re ck
ĠM aker
ĠJ uvenile
og an
8 59
ain s
Ġblock s
ĠPro v
ĠB or
ĠPRO DUC
Ġtruth ful
Ġdesign s
Ġsym p
h ol
Ġbre ast
8 76
Ġre sume
Ġinv ite
O ption
ol ving
bor ough
x ious
Ġprot ocol
ur st
AN EOUS
ĠAuthor ities
ĠS ky
Ġair planes
ĠOS HA
ON G
on str
ount ered
ĠK al
Ġpup ils
Ġd ust
Ġdischar ging
Ġensu res
Ġpref erences
Ġenorm ous
ĠAPPELL ATE
-app ellant
ĠIt alian
ĠC BA
ĠPUR SUANT
ĉ ĠĠĠĠ
S he
ĠM IS
'' .Ċ
lic op
Ġ' ĊĊ
Ġla unch
ĠCommission er's
Ã³ n
con f
97 2
Ġp ra
ĠSc ient
St at
ĠJUR ISDICTION
ad s
] âĢĿ
ĠShe ll
ĠBu y
ICHA EL
B l
ĠĠĠĠĠĠĠĠĠĠĠĠĠĠĠĠĠĠĠĠĠĠĠĠĠĠĠĠĠĠĠĠĠĠĠĠĠĠĠĠĠĠĠĠĠĠĠĠĠĠĠĠĠĠĠĠĠĠĠĠĠĠĠĠ Ġ
ĠA y
ĠCOMM ON
88 2
s a
0 50
B ack
ĠGovern ors
Ġwind ows
ĠLu x
Ġs oc
Ġsupersed ed
hab it
Ġchatt el
Ġv ou
ĠPro vision
Ġindic ative
BL IG
Ġhealth y
ĠG ST
Ġroutine ly
id den
Ġsac r
ĠMon roe
Ġab uses
O f
Ġa iding
IN ESS
Ġinvalid ate
al ing
sh ot
Ġlif ting
lab us
ĠN ON
B IA
Ġrapid ly
IC AL
86 4
E PA
ĠAgricult ural
Ġdisturb ance
Ġ( âĢĺ
Ġsp orts
.âĢĿ ).ĊĊ
ĠFlex ibility
ĠN ort
Ġb ru
e ter
ou red
U TE
ĠAbs ent
ĠN ic
it entiary
ĠM ON
Ġconsider ably
Ġspecial ized
Ch ief
ĠB erg
97 1
c ott
[ ***]
ĠFut ure
f ill
B usiness
ĠRh ode
the n
Ġw ildlife
Ġbreak down
J ECT
Ġc ow
so ft
ĠOk ay
Ġce iling
ap h
ĠPro gress
Ġenc ountered
ag ency
'' .ĊĊ
ĠPro hib
Ġdoubt ful
Ġenter prises
Ġamong st
ĠEC R
G T
Ġdest ination
Ġfact ory
ĠMar riage
ĠGuarant ees
Ġinf ection
ĠDisc overy
e at
87 4
Ġunsatisf actory
sid eration
Ġped est
86 2
Ġdev iation
ĠCONTR ACT
Ġfinal ity
Ġw inter
gin ning
Y N
Ġrestrict ing
necess arily
ĠH ours
ĠD aily
Ġbath room
Ġalloc ate
ĠV t
ah n
Ġhighlight ed
ĠSU PREME
Ġth irteen
Ġinc rimin
Ġob struct
Ġparticular ity
ĠBen jamin
Ġcarri age
Ġaud io
Ġpop ular
Ġ ~
ĠK ay
Ġp estic
Ġdec ade
ĠGuid ance
BET WEEN
Ġconsolid ate
ï ¬
9 45
ĠSecretary 's
in 's
rent ices
ĉ SECTION
Ġvide ot
ĠĠĠĠĠĠĠĠĠĠĠĠĠĠĠĠĠĠĠĠĠĠĠĠĠĠĠĠĠĠĠĠĠĠĠĠĠĠĠĠĠĠĠĠĠĠĠĠĠĠĠĠĠĠĠĠĠĠĠĠĠĠĠĠ ĠĠĠĠĠ
pri etary
Ġcur t
lement ary
Ġrec oup
ĠP i
ĠBar ry
ĠExp ense
ĉ a
Ġcongrat ulate
Ġdra fts
âĢĻ âĢĻ
ĠIn v
ĠIn jury
Ġher itage
ĠBern ard
ure a
Ġcon sumed
Ġchemical s
Ġtechn ological
ĠJe an
Ġde mean
ĠPart ial
Ġcoerc ion
ĠOr ange
ri p
Cl ass
Ġdevis e
ĠH R
Ġs outhern
est ation
ĠGu ide
Ġunconscion able
8 99
0 40
Ġa w
ĠA A
ĠF ace
ĠEmploy ers
ĠG ut
S an
IE F
Ġhors es
ĠD TC
9 31
al o
ĠQ U
Ġcommod ities
- or
Ġlink s
ĠRem oval
Ġcontradict ory
miss ibly
ot ic
ĠEx pert
Q ual
Ġinev itable
Ġresist ance
Ġcho osing
ĠD raft
ĠF IF
âĢĻ y
IR S
0 60
Ġpain t
Ġnational s
ĠREMAND ED
R IN
98 1
ĠBarb ara
ANC ES
la us
Ġaccru al
ĠBr ussels
ĠMaj esty
Ġpregn ant
Ġfore ver
G ED
Ġt ies
ri ger
Ġprodu ces
Ġal le
Ġs ib
ĠSY STEM
[ e
I bid
Ġadvis ers
f und
Ġdivers ion
Ġoption al
ĠOther wise
ĠY outh
ĠNation 's
ĠSell ing
ĠTradem ark
Ġb und
ĠMarg aret
OL OG
Ġsm oking
w l
Ġinstruct ing
De cember
Ġd ock
Ġ[* ]
re ach
8 78
CON CLUSION
Ġpetition ed
Ġsupersed es
) :ĊĊ
Ġcirc uits
ĠN AA
ĠBre ach
Ġk eys
ĠAdjust ed
Ġsch olars
Ġw ise
ĠFOR M
Ġwa ited
Ġse gment
Ġcas ualty
Ġcolloqu y
ĠTravel ers
Ġs ons
U K
ĠFerg uson
0 12
Ġland owner
L and
Ġascertain ing
ĠCath olic
ENT URE
con cluding
ER K
. a
id ges
Ġdeb ates
Ġrecruit ment
M D
est on
inc orporated
S outh
arr ass
Ġexp ires
POR T
ĠJ ail
ĠC ore
. d
w oman
Ġexplo itation
Ġprejud gment
fe ld
ĠEX P
ĠDisp ute
ĠP ERSON
Ġv ind
Ġdiscount s
C LAIM
Ġby laws
Ġpict ures
Ġbase line
ĠEx pl
u ating
Ġenl arge
ĠDef ender
ĠCR IM
B RA
ĠWH ICH
Ġwarrant less
Ġw estern
ĠB ec
w estern
it ol
-s ite
Ġeng ages
Ġlitig ate
p ra
Ġo st
Ġadvis or
ĠH icks
ĠInc orporated
ĠB uch
ens able
ĠH orn
ĠI ron
Ġdiscrimin ated
Ã ±
89 6
Ġl oy
ĠTribunal 's
Ġsubd ivisions
c er
ĠR EST
Ġmor atorium
ERG Y
ĠL IAB
ĠL em
Ġease ments
is ive
ĠE ve
Ġaut o
ĠD al
Ġsimilar ity
ffect iveness
ĠWals h
Ġperpet rator
Ġbrief ed
ĠC ult
get t
ol ve
ĠPol it
mir alty
ĠDE L
ĠMex ican
Ġmiscar riage
Ġsk in
ĠK h
'' .
ĠW omen
en ary
Ġartific ial
Ġobserv ance
igr ants
Ġproduct ivity
et na
Rever sed
Ġpost s
Ġship ments
Ġnot ation
Ġsm oke
] ).ĊĊ
Ġpublic ations
Ġmus ic
d em
ĠP ad
lan der
-d own
ĠJohn ston
m ers
ĠV en
G I
Ġelimin ating
Ġlib rary
Ġgain ful
ĠP oss
TS A
R em
cur rency
Ġmult ip
Ġre habil
ĠAir lines
man der
M F
ous ed
re a
g al
-bar red
sec urity
Ġt ip
Ġcoast al
ĠT X
Ġcustom arily
ĠChrist mas
ĠH end
9 35
ort ium
Ġen vis
Ġincorpor ates
Ġcontempl ation
ĠBenef icial
ĠOH IO
ĠM ike
i ative
Ġcheck ing
ĠW aters
O MM
ich ard
In s
Ġselect ing
Ġs aved
Ġg ames
Ġmove ments
ur red
CELL ANEOUS
ĠC N
ĠH yd
Ġaddition ally
ĠHol t
Ġnonpro fit
cy cle
Ġcontempl ates
m m
ĠDavid son
Ġur g
Ġfin anced
==== ==
89 2
ĠSqu are
- use
/ her
ĠC Y
Ġculp ability
Ġsp ine
ĠAdvis or
Ġrec ru
Ġprogram ming
ĠMan n
ier ra
Ġacquitt ed
Ġsupp ressed
Mich ael
ĠBe h
Ġexecut ives
ĠO BLIG
Ġ ................................................................
8 67
ĠDem and
Ġt ion
Ġre aches
d ie
Ġpublic ity
Ġpres erving
ĠCh ancery
ĠBald win
-t ra
ĠP P
ĠBren nan
Ġret ros
ĠRam irez
St ep
. n
U LL
Ġvend ors
Ġhunt ing
Ġfoot age
a ft
, \
mid t
ĠW ire
ĠC ass
Ġcop ying
Ġdoct r
Ġo u
Ġn aming
89 8
Ġadvis er
Conn or
Ġpunish able
Ġtoday 's
char ged
ĠWheel er
ĠSever ability
ĠC ENT
mun ition
Ġinev itably
AT A
Ġbroker age
ĠV eg
Ġp m
fol k
Ġturn over
Applic ation
Ġvis iting
Ġs ad
ĠLoss es
ic ative
Ġcro ps
Ġtrad es
f ront
ĠFl ores
inc ent
ĠSO UTH
- interest
Ġcontain ers
Ġbon uses
Ġshe ll
i ably
Ġmunicipal ities
Ġb rack
And rew
Ġinf lict
nt on
the ir
ĠL obby
al gam
âĢĭ Ċ
Sc ot
ĠPetition er's
att an
ĠBur ke
Ġcent res
ĠInte gr
Ġdisse min
Ġshot gun
Ġinit iation
ĠR SUs
Ġtra il
'' ),
ĠMortg agor
Ġdiscount ed
Ġdes erve
ĠReason s
ĠS ud
ĠPROCED URAL
ĠO '
Ġfelon ies
Ġremed ied
ĠPubl ishing
Ġaccess ed
Ġpractition ers
Ġact ors
am per
Ġinc red
ĠDEFEND ANT
Ġf n
ĠTrans it
Ġc essation
Ġtort feas
Ġmis placed
.) ĊĊĊ
Ġisol ation
Further more
ID S
Ġtra ce
ĉ If
ib i
Trust ee
C ompl
ĠDEF INITIONS
( E
Part icip
8 79
ĠD S
Ġjust ifying
Ġair plane
ĠBow en
Ġweek end
Ġunivers ities
98 3
Ġconstitu ent
Ġinterf ered
Ġsupersed e
ĠGreen e
88 4
95 2
ĠFood s
Ġmis use
Ġpresent ence
Ġhar bor
inc ipal
Ġmat ching
******** ********
Ġrating s
9 67
parent s
m outh
ĠL ending
ĠCO P
Ġh ur
ĠAcadem y
Ġrenew als
Ġrecord ings
Ġweigh s
ĠT F
im mer
Ġdes k
vol ver
Ġcor rel
Ġbott le
rec ogn
ĠF al
epend ence
Ġfa ces
Ġst ick
Ġz ones
Pro posed
ib les
Ġm emoranda
Ġbu yers
IGH T
p ower
ny der
ĠATTOR NEY
ur p
Ġcomm ences
r as
or ia
ĠH S
ĠEll iott
Ġal arm
Ġrecon c
Ġs hed
ĠSan ctions
ĠB an
ĠAL R
R ATION
< S
Ġspect rum
ĠEquival ents
t ax
Ġfact finder
Ġred acted
sc he
ir k
App ro
Ġhelp s
9 56
Ġla un
ign ity
ĠDE A
Applic ant
Ġw ine
Ġind igent
lev ard
Ġs li
ĠDepos itory
ĠV augh
ĠCAP ITAL
-e ight
GE MENT
ĠHoff man
Ġa vers
G IN
Ġst abil
Ġown ing
ĠT aking
ĠV ac
G ood
Ġelder ly
ĠW end
Ġin ject
ĠStat istics
ĠTod d
ĠGl ass
ĠLind a
ĠTw enty
ĠN urs
Ġall ot
ĠSh ield
ĠN AT
Ġr iding
Ġtank s
9 32
Ġd ynam
reason ably
Ġdeep ly
sh aw
Ġprompt ed
ĠM P
8 69
ĠKnow ledge
p ension
mn ibus
Ġstay ing
Ġsearch ing
ĠIs lam
C UR
ĠMf g
ĠPer kins
enn a
ĠPh oenix
Con clusion
ĠPort folio
Ġdirect ives
ĠRet ail
Ġenqu iries
ĠGold en
um stances
Ġsold iers
âĢ¦ Ċ
ĠCast le
Ġspeak s
Ġmis app
ĠAl f
Ġsquare ly
ĠNSWC CA
v iol
Ġto m
ĠL AND
ĠMatthe ws
Ġprosec utors
ENT H
gr ad
Ġsign als
ĠComm od
ĠI CC
Ġmagn itude
9 55
Ġm ild
ur pose
Rest r
tain ing
ĠĠĠĠĠĠĠĠĠĠĠĠĠĠĠĠĠĠĠĠĠĠĠĠĠĠĠĠĠĠĠĠĠĠĠĠĠĠĠĠĠĠĠĠĠĠĠĠĠĠĠĠĠĠĠĠĠĠĠĠĠĠĠĠ ĠĠĠĠĠĠĠĠ
9 78
Ġaff ixed
ĠSe attle
DI TIONS
Ġs yn
occ up
Ġo zone
Ġl en
im a
ĠOb jection
ĠE QU
ĠAdo ption
ĠREG ISTER
D D
9 39
Ġappeal ing
Ġinter ruption
ĠIT AA
ĠJUR Y
ĠC arm
ĠRespons ibility
Ġdomic ile
f essional
ĠSub lease
Ġsovereign ty
ĠTh or
ump ed
ĠREC E
Ġweight ed
TH IS
Ġcoun ters
Ġreview able
ĠDef erral
ĠSt ore
ĠT ony
ĠM ob
ĠDE PARTMENT
] hen
Ã ¼
Ġanticip ation
ĠC m
EL LE
ĠDe leg
ar ia
Ġdistrib utor
a ith
ĠTrans cript
Ġguardians hip
99 4
âĢĶ which
Ġir r
ĠPat ient
Ġarrest ing
Ġseiz ures
ĠW ade
. ).ĊĊ
ĠLeon ard
Ġreal istic
Ġdel ine
Ġinj ure
Ġar ra
W ork
Ġout rage
al leg
ĠE rie
ĠGre ater
Ġm ol
Ġmay or
iolog y
ĠDis abilities
Ġinqu ired
Ġrat ification
ĠS ab
K A
Ġg ifts
Ġattach ments
now led
Ġwhere upon
96 1
Ġra c
ĠO pt
umb ing
Ġtack le
verse ly
ĠEx ecution
Ġemb arrass
ĠAcc ident
' Brien
Ġb ird
ĠTrans ition
ĠWill is
Ġra ck
ĠSEC OND
Ġattain ed
Ġs ophist
ĠReg ular
OM AS
Ġwh istle
9 85
ĠDen ver
Ġnational ity
Ġimag ine
9 44
Ġm ask
Ġjo ining
Ġme als
on ic
ll er
ĠR oche
ĠSM ITH
Ġillegal ity
Ġte leg
9 28
ĠEs s
ĠCH AR
Ad ministrative
AT T
. b
. l
-h ouse
t iz
re view
stru e
Ġnav igation
ĠRh odes
9 75
Ġlit em
Ġsur gical
ot ex
Ġsubstit uting
App ellees
Ġaud its
Ġrec ur
Ġlab els
Ġplead s
Ġrare ly
Par agraph
ĠMe yer
Ġincl ined
9 66
9 48
Sub sid
ĠVend or
le ased
ĠEx per
ĠCO M
ĠHaw kins
Ġp ressed
ĠI A
Ġpar ap
Ġpropos itions
RO DUC
t ry
ĠFIN RA
Ġy ards
ĠĠĠĠĠĠĠĠĠĠĠĠĠĠĠĠĠĠĠĠĠĠĠĠĠĠĠĠĠĠĠĠĠĠĠĠĠĠĠĠĠĠĠĠĠĠĠĠĠĠĠĠĠĠĠĠĠĠĠĠĠĠĠĠ ĠĠĠĠĠĠĠ
rec iation
M e
d am
9 43
Ġco ordinate
Ġam bit
Ġse es
Ġd itch
ĠA etna
Ġexpl ore
Ġeth nic
pon ents
Rober t
ĠL akes
ĠĠĠĠĠĠĠĠĠĠĠĠĠĠĠĠĠĠĠĠĠĠĠĠĠĠĠĠĠĠĠĠĠĠĠĠĠĠĠĠĠĠĠĠĠĠĠĠĠĠĠĠĠĠĠĠĠĠĠĠĠĠĠĠ ĠĠĠĠĠĠĠĠĠĠ
ĉ As
9 33
ĠB ORROW
Ġacknowled ging
Ġen em
ĠREPOR T
Ġwas n't
ĠReg ardless
ĠKn ox
ĠF uel
ĠD aniels
) The
Ġmer ge
R ES
ĠCO LL
er able
ĠTim othy
mark et
Ġtort ure
Ġencour ages
ĠOper ation
ĠNAA QS
Ġsurv ival
Ġcapt ure
Ġdecre es
Ġdischar ges
Ġt ables
ĠProb ate
Ġpattern s
Ġdefinite ly
-b ack
9 47
Ġper ception
Ġdis ruption
Ġquestion naire
Ġinherit ance
it ur
ĠM end
Ġ )ĊĊ
ĠL as
Ġins anity
Ġrob ust
ĠRich ards
Ġsell ers
i ances
Ġdisp ense
Ġlist ened
pay ments
ĠF alls
ĠIS O
/ o
Ġtra ins
ĠH eck
Ġindic ators
ĠSub stantial
Ġout line
Ġind ec
Ġl obby
ow der
op ed
Ġlight ing
p m
ĠSw ed
====== =Ċ
ĠH EARING
Ġauthent ication
ident ified
( x
Ġun changed
Ġunfort unate
if le
ĠPre payment
av oid
UR ES
ĠD iamond
Ġrein for
et z
Ġpack ages
ic y
Ġdivid e
Ġpaper work
Ġun limited
Ġdaugh ters
ĠSol utions
ĠH at
ĠMAT TER
Ġdiss atisf
IT E
ra ham
Ġacceler ate
Ġpost al
EM A
Ġexperi encing
95 3
Ġamort ization
ĠAll ied
anche ster
ĠS ons
ĠEx h
Ġinvest ing
or ge
Ġph il
ĠSpec ific
Ġrese arc
Ġdu ress
ĠPak istan
Ġdef erral
Ġrevis ing
br id
ĠWat kins
al so
Ġextrad ition
88 7
Ġterr itories
âĢĵ Ċ
Ġw arm
Ġj our
âĢĻ âĢĿ
ĠLIC ENSE
Ġre mitt
her ty
9 34
reat ment
Ġco inc
ĠL arry
Ġnarr ative
ER IAL
ĠB AS
) âĢĶ
Ġen abled
ĠN eal
Ġund is
part icular
ĠJ ar
rig ation
out heast
ĠEt c
-f oot
su al
ant ed
ĠO CC
- section
Ġthe ore
Ġintell igent
B oth
Ġexp iry
[ Docket
Col o
ĠL ut
ĠWilliam son
St ock
Ġl ivestock
? âĢĿ
ĠF H
Ġm arsh
ĠW O
ĠExp end
ĠNich ols
âĢ¦âĢ¦âĢ¦âĢ¦ âĢ¦âĢ¦âĢ¦âĢ¦
ĠConfidential ity
Ġst opping
Ġelimin ation
ce ived
Ġdishon esty
ĠPrud ential
Ġsam pling
ĠJacob s
CE PT
d ist
Scot land
Ġe minent
99 2
ĠEAS TERN
Ġequ als
ul um
Ġam munition
Ġbid ding
it ees
ome z
Ġl in
Ġleg s
ĠSub part
Ġh ind
Ġbas ically
Ġnone x
ĠClay ton
ĠBar rett
D aniel
9 57
Ġdiscont inued
Ġdistrib utors
w all
ĠS nyder
Ġenvelop e
ĠS IGN
igen ous
Ġimp uted
ĠAcqu ired
ĠF u
ĠLieut enant
Ġshel ter
ĠClear ing
Ġthreat en
re ra
Ġg rown
Ġinvent ions
Ġsummar ised
ĠCent ury
provid ing
Ġdupl icate
G ER
ĠAbb ott
Ġdeter rence
ĠF letcher
Rep resent
M arch
ist ically
Ġexped ited
ĠRes ource
Ġhead s
Ġs yl
ĠFIN ANC
B u
Ġoverla p
ĠWeb ster
ĠS AC
Ġj ack
re levant
ĠGar rett
he rence
Ġbudget s
ĠEX T
Ġconf ers
ic us
H ouse
ĠWag ner
Ġacquies cence
Ġinfring ing
âĢĶ is
m etic
ĠDivid end
Ġmarg inal
ĠE arn
Ġsolic iting
Per mitted
ĠPla za
Ġperce ive
ĠAl ter
ĠM SA
ĠI PO
Ġres isting
pat rick
ĠS aid
Ġtrave led
Ġanalog y
e ure
ĠEN ERGY
Ġperform s
Ġvari ations
-e ffective
ĠPrem ium
Ġexpress ions
Ġsubstant ively
Ġremin ded
ast ro
-exam ined
ĠB and
9 58
ĠC hes
ĠM ake
9 38
, .
ĠL amb
Ġevid ently
9 36
Ġlo ose
Lo an
Ġobject ing
ĠCO VEN
-h and
================================================================ =======Ċ
ĠCh ris
stitution ally
ĠAm er
ens ively
; "
Ġla ding
ĠCredit or
Ġbel t
ĠMand atory
ĠS EN
Ġport s
Ġign ores
Ġstraight forward
ĠPAY MENT
Ġpropriet or
EL D
C r
as gow
Am ended
ĠG H
acc ount
ĠTax pay
ĠM ol
ĠFre derick
Ġbar rier
ew itness
ĠOFFIC E
Ġinconven ience
Ġorigin ated
Ġinter pre
Ġgross ly
97 3
Ġeas tern
Ġcert ifications
ĠTER MS
Ġequival ents
Ġmore over
ĠR ap
Ġmag az
Ġsett ling
9 37
Ġsolic ited
TI TION
Ġ ................
Ġsynd rome
ĠStat s
ĠMem o
t w
C lause
Ġcare less
-R eg
Ġlabel ing
ĠShe p
Ġflaw ed
PA C
app eal
ĠCh and
Ġste am
Ġtestament ary
ĠN J
Ġoff shore
ant on
ĠR iley
97 4
Ġf ol
ĠPRO T
OND ENT
an an
Ġempt y
ĠC ay
-p ublic
Ġelev ator
Ġconstra ints
he lp
ĠCL ERK
ĠCOR P
ĠOx ford
ĠCamer on
ĠOb viously
M or
Ġstrugg le
ĠW inter
Ġdeliver s
Ġconcur rence
ĠP ed
ĠZ h
Ġpass port
Ġc atal
ate l
9 49
Ġunre liable
Ġla undering
ĠE p
Ġmortg agor
ĠB AR
A b
Ġsegreg ation
m aterial
OS S
ĠW E
ĠCon str
ĠMat he
ĠYear s
Ġru b
st al
ĠĠĠĠĠĠĠĠĠĠĠĠĠĠĠĠĠĠĠĠĠĠĠĠĠĠĠĠĠĠĠĠĠĠĠĠĠĠĠĠĠĠĠĠĠĠĠĠĠĠĠĠĠĠĠĠĠĠĠĠĠĠĠĠ ĠĠĠĠĠĠĠĠĠĠĠ
ĠEngine ers
Ġm erc
( F
Ġtre mend
Ġtr unk
Ġbreak s
ĠS em
Ġdelet ing
Ġdiver se
ĠBur g
Ġinvestig ators
determin ed
ĠS ynd
Ġcle ared
igh ters
ĠWith draw
Ġr ising
Ġvolunte er
Ġmis con
ĠSell er's
ĠUnder lying
Ġv iz
[ *
ĠOP TION
ĠChe ck
ĠN R
-c r
ĠL or
Ġconn ections
Ġinspect ors
Ġrecon struction
( n
-th ree
ĠMar itime
Ġalcoh olic
Ġch ancery
O A
Ġbound s
app lying
ĠMe ans
ĠForm er
og le
ĠDisc iplinary
ĠSt uart
m od
.P a
ĠTR US
apital ization
z ier
Ġf led
Ġinter ior
ĠCo ff
Ġsupp lying
ĠR ata
er a
ee med
ĠM L
99 8
Ġrough ly
Ġreceivers hip
ĠDirector ate
ĠB ody
âĢĿ .ĊĊ
Ġf illing
Ġs ake
9 46
Ġprevail ed
Ġc raft
Ġnond is
ĠSU PP
ĠF MC
Ġprot ests
Ġgarn ishment
< TABLE
Ġdeposit ory
ĠRef inancing
Back ground
ĠWh ilst
Ġesc al
ĠDise ase
0 14
Ġapprais er
Ġpatern ity
ĠTransfer or
ĠCER TAIN
ĠTown s
ili ate
ĠCont act
ev a
irming ham
sw orth
b ach
ĠFle et
i eth
Ġbid der
ĠHop kins
ĠArr ange
ond a
ĠPe ace
Ġincur rence
in formation
ĠLast ly
ĠS el
ĠLaw yers
ĠCel otex
Ġp ace
ĠW rit
Ġfin ances
ĠHe ath
; ĊĊĊĊ
-C h
o ir
99 3
ĠSub mission
ĠJ es
Ġfoc using
miss ive
B UR
r ong
ĠN D
Ġsp ite
ĠNote holder
I tal
ĠG az
Ġre organ
un nel
ĠB arker
ĠX V
ĠA uth
im onial
Ġse w
ĠEn h
Ġfra med
Ġredu ces
Ġg athered
ret ies
H ow
ron ting
ĉĠ ĉĠĠ
ĠPart icular
Ġsp ousal
Ġhead quarters
Ġout d
ĠConf irmation
L ORD
IC S
se es
O per
ab is
-B ased
Ġt ight
ĠM att
ĠL od
ĠTH IRD
poss ession
Ġhead ed
Ġadvertise ments
Ġla ches
Th omas
Ġfirm ly
Ġwor ry
Ġd ent
g i
ĠSub committee
l ords
Ġpersonal ity
Ġl end
ĠBroad cast
Ġestablish ments
ĠNot ification
s s
e ff
Ġpers istent
Ġpre med
i ments
ĠSmith 's
ĠÃ ł
ĠD ig
Ġde vised
William s
9 79
Ġal ive
Ġgra in
f ac
ĠInst all
Ġmortg aged
Ġneigh bour
Ġp ush
Ġdiscrimin ate
âĢĶ [
h o
ĠSu ff
olic y
ĠFor ms
Ġgr abbed
Ġâ Ĥ¬
on to
ĠPR C
ĠDesign ation
Ġaut onom
US INESS
Ġb omb
ĠPat ricia
ind ividual
Ġnewsp apers
Ġs od
ĠSub division
U THERN
ĠBou levard
ĠP AC
ĠN UMBER
Ġpresent ment
Ġundert akes
ĠSe ven
ĠSolic itors
ĠWA IVER
Ġtom orrow
Ġfeel ings
Ġconc ert
Ġref inancing
ĠSU PER
Ġte ach
ĠK l
ĠGRO UP
ard ed
ĠĠĠĠĠĠĠĠĠĠĠĠĠĠĠĠĠĠĠĠĠĠĠĠĠĠĠĠĠĠĠĠĠĠĠĠĠĠĠĠĠĠĠĠĠĠĠĠĠĠĠĠĠĠĠĠĠĠĠĠĠĠĠĠ ĠĠĠĠĠĠĠĠĠ
ĠVal uation
ore n
Ġshort age
Ġground ed
ĠGood s
ĠProt ected
ut ic
le es
Ġbelong s
ed a
ĠReim bursement
Add ress
ĠM ul
Defendant 's
mb uds
Ġvis itors
ĠP op
Ġsh ore
ĠFAC TS
Ġdisallow ed
h ar
ĠMic hel
ĠU pper
96 3
ans on
proper ty
ĠBraz il
tain ed
ĠL ear
ro st
ĠR ick
Ġdis f
ĠâĢĵ Ċ
su res
Ġconf ig
VAN IA
f inal
Ġdam aging
Ġm emorial
ĠNot ably
ĠTEC HN
Ġelement ary
EC ED
LAIN TIFF
Ġkil og
Ġsub chapter
ĠG DP
ĠC inc
Ġalong side
Ġamb ulance
Ġburdens ome
Ġcol labor
CO UN
9 89
T X
Ġen closed
ĠK os
âĢĶ it
Ġtreat ies
YL VANIA
Ġfire f
ec hes
Ġyear 's
ĠB ad
Ġconf using
ĠD oyle
icult ural
Ġtreas ury
it ored
ĠS F
ĠF urn
ĠAmerica 's
ĠD ale
Ġmeant ime
Ġjust ifiable
Ġprescrib ing
OMM END
Ġdifferent ial
arett es
Ġtransfer or
Ġheight ened
m aster
p age
ĠE VID
ĠWe in
A H
0 15
ob iles
ĠMis cellaneous
Ġcomplainant 's
ĠF RA
ĠC ed
Ġid eal
Ġex ert
ĠN ick
Ġinterf ering
Ġblank et
dis miss
98 2
ĠPro of
NS YLVANIA
K inney
Ġshot s
** ]
/ P
ĠAl t
9 59
Ġembra ced
Ġsurpr ised
ĠC ited
ĉ No
ĠB ird
ov ich
Ġdecre ed
99 1
ĠB P
ĠHar old
ĠNorth west
CL UD
Ġcan n
Ġcod efendant
ĠINDE MN
-------------------------------- ------------------------------------------------
p es
Ġl umber
ĠDel ta
Ġinterval s
C orm
lean ed
ve red
ĠBry an
ut ting
ĠSt ill
Ġtreat ments
oun der
ĠPer manent
ĉ It
Ġincorpor ating
Ġan te
Ġt ear
abet es
9 65
9 42
Ġequ ities
y ou
Ġrecip roc
Ġpar ish
Ġmat ure
g ate
ĠMill ion
Ġsu reties
- j
ĠREPRESENT ATIONS
ĠComb ination
ĠT ower
Ġeth ical
ĠO g
Ġh inder
ĠStephen s
ĠI l
ĠConsult ing
Ġmist akes
os oph
ĠCredit ors
ĠSub stances
Ġed ition
ĠIns olvency
-- -ĊĊ
ĠCap itol
Ġt ent
Ġf ur
Ġcharacter istic
it ating
Ġflu ct
em bourg
ĠInstit utions
H ER
Ġp il
ĠNE PA
Ġefficient ly
ĠLand s
Ġ >
Ġmass ive
ĠRob b
Ġmeas uring
L ED
ĠChildren 's
Ġdog s
it i
um bers
Ġcondemn ed
m ain
ĠACC ORD
ĠMerr ill
ĠB ax
is ites
ĠDec ided
o ples
ĠAb use
L T
Ġa isle
9 88
Ġdes cent
Ġtechn ically
Ġland ing
h attan
ĠAPP RO
ĠI an
ty pe
ĠEmp ire
Ġe ighth
ĠStud ent
ĠTh om
Ġaggress ive
Ġsusp icious
ĠUs ing
Ġat mosp
ant e
Ġimprison ed
Ġwant on
ĠMe an
Ġabs or
ĠW EST
ĠW ere
Ġappoint s
ER ATION
ĠIn sured
ar b
9 69
ĠPro p
inn ati
Ġrep aired
ĠP el
---------------- ----
ĠLiquid ation
ĠD au
S te
Ġliteral ly
ĠSut ton
ĠCA USE
Ġrecre ation
Ġcur ric
Ġrob ber
ill ar
Ġball ots
ĠEstabl ishment
Ġpro ximately
vant aged
lay ed
Ġe uro
reg istered
Ġpos es
ĠNew ton
ĠApp reciation
98 4
claim s
9 68
ĠM anchester
ĠL ENDER
Ġdec isive
Ġey ewitness
Ġb orders
Ġoverr iding
ĉ J
Ġin action
ĠN ig
actor ily
Ġob ey
per ty
again st
ĠSH ARES
worth y
n ia
Ġse ed
st ers
ĠChev ron
-U p
- .
ĠCons istent
ĠP RA
ig e
ĠPas o
Ġor th
ĠAdd endum
ĠG C
Ġupd ates
Ġforth coming
ĠPEN NSYLVANIA
Ġmod est
ĠS ierra
Ġâ ĸ¡
ĠPh ys
Ġlist ening
Ġjeop ard
ĠL SA
Ġunder go
Ġhand ic
ron ics
Ġconc essions
Ġan xious
Ġgu ided
T erm
Appellant 's
ĠM idd
Ġintr usion
ĠC art
endant s
ook er
Ġtransfer able
Ġconstant ly
-c ash
ĠSar ah
c ock
Ġperf ection
Ġri pe
Ġobserv ing
t able
Ġworld wide
ĠBl oom
ĠAtt achment
Ġde veloper
Ġdispar ity
-P arty
ĠC RA
Ġexchange able
Ġtransport ing
Ġa qu
Ġve x
âĢĶ as
ĠF TC
ĠRog er
ED PA
Leg isl
Spec ial
ene z
Ġst airs
Ġprincipal s
ĠDOCU MENT
cher s
Ġwe 're
Ġtri able
Ġnation wide
ĠSpr ings
ĠM M
Ġm g
ĠFl ood
98 7
Ġpros per
ĠCase y
ĠMar ion
Ġrep r
ĠCurrent ly
der n
ip e
- su
0 80
ĠWork men's
ĠAtt n
Ġc ous
st ock
iv ens
ĠDis qualified
cont inued
erv ous
b ra
ĠCouncil 's
ah a
Ġpos itively
Ġun used
Ġit al
IV ERS
ĠAPPELL ANT
Ġgra vity
Ġlaun ched
ĠB ass
ll o
Ġtop ics
oc o
Ġbehavior al
in ers
96 2
ĠREPOR TS
ĠHum ph
Ġunequiv ocal
ĠWil m
WH C
ĠPar is
ING TON
ĠGR ANTS
ĠOccup ational
pro t
Ġspon sored
Ġintox icating
ĠT IA
Ġa ided
RODUC TION
Ġpl enary
Ġclin ic
ĠWARR ANT
R et
ĠCh allen
ĠFO UR
Ġf lee
C or
Ġbase ment
au f
Ġpredecess ors
Ġfin ish
Ġour s
ring e
O K
Ġe ases
ĠNor folk
ĠEx ecut
ĠORDER S
re ated
9 77
ĠM obile
um ps
e ch
/ D
Ġsubsid ies
ĠAllow ance
Ġaud itors
Ġarrest s
Ġassoci ates
-t ax
Ġatt aches
Ġexpand ing
Ġoccas ional
ĠD iss
% ĊĊ
ĠN urse
C V
Ġf iring
iss ory
ah an
n ame
Ġtick ets
Ġconf isc
a ul
A uthor
e lect
Ġcas ual
ĠSep ar
ĠComm unication
present ed
Ġbenef ited
0 13
ain ing
ĠBook er
f ailure
Ġunder ground
M ac
Ġinequ itable
ly mp
Ġconnect ing
ERS ED
Ġinnov ative
Ġarbitr arily
Ġadvance ment
Ġdiagn ostic
ĠViet nam
- gu
Ġl unch
/ N
Ġw ounds
ĠAg u
ĠO NE
ĠP sych
Ġexclus ions
St and
u cc
person al
Ġdisc rete
âĢĶ but
ĠT em
ro oms
- Y
CH R
D ivision
Ġkid s
b road
Ġder ive
ĠHar mon
bel ie
Ġd ignity
ĠPART NERS
Ġind ebted
Ġacqu isitions
" ).Ċ
ĠC lauses
ĠUnderwrit ers
min ster
ĠB irmingham
ĠCh annel
Ġfun eral
ĠIncre ase
Ġout er
Ġprob abilities
ot ten
ĠT REAT
Ġbla me
Ġgener ating
y o
ĠP ast
Ġauthent icate
ĠM AG
Ġreplace ments
ba um
Ġreserv ations
Ġcontinu ity
Ġexpl oration
ĠStri ke
Ġdeliver ies
ĠSim s
Ġwr its
Ġstruct ured
ĠVeh icles
ĠSch midt
T P
Ġreject s
ĠL ower
Ġex terior
and al
l on
Ġdimin ish
Ġal ibi
Ġdil igent
Ġl ung
Ġmisappropri ation
ĠJohn s
Ġl umb
b enef
ĠGra ce
ĠMeas ure
ĠOr tiz
ire ction
Ġsub ordination
ĠREC OMMEND
Ġcl erical
ĠGl en
ĠH ear
Ġdepend ents
Ġdefe ated
ĠP I
Ġmort ality
aff irming
Ġconsequ ent
ĠPear son
Ġsecond ly
ĠB RO
if ice
ĠJ ason
ĠTrustee 's
ĠU pd
Ġtaxpay er's
Ġd umping
Ġm igration
Ġun lo
c ap
ĠCont ents
Ġsp ray
Ġh at
Ġrecomm ending
ĠJenn ifer
ĠEnt ire
ĠI CR
ĠCIV IL
Ġcele br
ĠB ates
Ġfre ed
ol ar
ĠMan hattan
96 4
Ġtract or
Ġundermin ed
Ġtoler ance
T ARY
Ġimpl icate
Ġper il
id ity
ĠCO A
ĠE WHC
Ġs ke
at eness
z i
Ġc row
Ġcr ash
ar iness
ĠG erald
/ B
Ġproportional ity
ĠApp le
Ġleg ate
Ġrec itation
pe an
ĠUP ON
H ealth
stand ard
r us
ĠInterest ed
ĠG or
Ġgr ass
ĠAnnot ated
Ġ[Â¶ ]
Ġcult iv
Ġconsecut ively
ĠC av
ĠHOLD INGS
Ġte ams
ĠINTERN ATIONAL
Ġmost ly
Ġnon resident
Ġre h
Ġdeploy ment
REAS ONS
ĠLa ure
Ġland owners
ĠM ount
ĠConsid ering
Ġcon sume
Ġres igned
ĠA H
ad ow
Or dered
Ġfac ially
Ġdiscrep ancy
ant ic
Ġsatisf actorily
Ġoccup ant
D on
Ġencompass es
C orp
ĠASSOCI ATION
Ġdef erential
w right
Ġconstra ined
ĠPRO GRA
Ġcur b
-serv ice
V P
ric ing
Ġlast ed
ĠB es
Ġpref erential
Ġsp ouses
Ġsub lease
Ġf ly
esign ated
ĠG ree
ĠH ave
ĠL ink
ĠV o
Ġdiff ering
az ar
ĠALJ 's
Ġp it
ond itions
ĠMor an
Ġpar amount
ĠAn g
kee per
ĠJ ess
-p ayment
Ġprohib itions
ĠMan agers
ĠAr ts
ĠClin ical
Ġhe l
ra pe
ĠC PR
ĠHow ell
ĠRem and
Ġdelinqu ency
Ġst ressed
char acter
Ġattach ing
V ED
ĠMeas ures
Ġtract s
Ne ill
ĠS now
Ġde mis
Ġdetermin able
urch ased
j an
ĠPip eline
GR ESS
ĠCinc innati
F D
ĠInn ovation
ĠGl enn
ĠLiquid ity
ann ed
augh lin
ist ant
g t
re ly
Ġparticip ations
Ġfle et
com b
Ġag es
Trans fer
ĠP LAINTIFF
Ġst ret
Ġret rial
Ġemphas ize
Ġlabel ed
Ġgovern or
ĠBu ff
ĠCh art
[ ***
Ġat h
ĠU SE
Ġmon itored
Ġhon our
Ġdoctr ines
les see
ĠDe ad
rel ating
Ġissu ers
Ġpercent ages
Ġuph olding
ĠA ld
ĠSt ay
ĠJapan ese
Ġde lete
en berg
Ġoverlook ed
Ġprov inc
ĠH AR
ĠI RA
Ġb urea
Ġlat itude
Ġsequ est
ĠO K
Ġme al
ĠG ab
Ĥ ·
Ġpriv ately
ĠAs ia
Ġfor ged
ol k
ove mber
ocu ments
Ġun res
Ġc ab
ĠB od
bor iginal
ĠJ uan
Ġsomet ime
LE ASE
Ġb ow
ĠFace book
Ġten or
Ġpostpon ed
Ġst yle
Ġapp r
ĠM ine
Ġr ide
ol an
not her
ĠCON DITIONS
en sual
Conn ell
ĠEquival ent
Ġis land
ĠUk raine
Ġg aming
G rant
Ġdisburse ment
m ad
Ġrefund s
d well
Ġmob ility
, )
R EC
L S
Ġval ve
ĠIn surer
Ġtim eliness
he mat
Ġ' [
Ġapp rentices
Ġwrong ly
ĠBenef ic
ĠElig ibility
**** *
Ġsc ores
ĠJon athan
Ġme ter
Ġgather ing
Ġact u
Ġfoot ball
ĠD P
Ġfac ulty
Ġauth ors
ĠAssoci ated
ari os
Ġdesign ating
ow itz
ĠF D
ul ous
Ġchar ity
0 70
ĠBla ir
ĠCol omb
s ay
ĠB eth
ĠLim it
Ġind ors
-p age
ĠFitz g
Ġmechan ic
Ġfor get
Ġmineral s
ĠMAT ERIAL
Ġbudget ary
Ġjust ices
ĠQueens land
Ġv iability
Ġintimid ation
o oth
supp ort
it led
Ġsyl labus
ud ed
ĠMar ia
SCH EDULE
Ġreckless ly
th al
ĠR al
ĠR ates
ĠAS IC
Ġtotal ing
ĠApplicant 's
Ġend anger
b able
. :Ċ
Ġsur geon
ĠField s
vi ate
Ġappro ves
ĠLic ensing
ĠStrateg ic
Ġbe qu
AR A
Ġextingu ished
on i
om ed
Ġmisle ad
Ġab etting
ĠExp ansion
Ġvac ating
ĠR ED
Ġst ories
Ġman if
ĠSt ark
Ġe greg
oc ally
Ġdecl arant
Ġcig arettes
iz en
oc a
Ġtremend ous
ĠA strue
Ġarr ay
ĠCh amp
Ġfeas ibility
ĠB row
Ġsleep ing
Ġp ound
ĠH OLDER
Ġtail ored
Ġunf it
Ġint ra
CO M
itud es
ĠF ow
e le
W il
Ġpo ison
S uch
ĠRout e
98 6
ĠGra ves
ĠRefuge e
Ġhop ed
. edu
io x
Ġcompet itor
Ġunfair ness
Ġhor izon
ĠSum mit
S ome
redit ation
Ġborrow ers
Ġsome where
Ġacc us
ĠB right
anc ock
Ġnond isc
L ist
ĠNation wide
ĠCrit eria
ĠG omez
x ual
Ġown er's
Ġspe eches
ak s
Ġunpersu asive
99 6
T rial
ĠT ai
ab ove
ĠC and
j un
f riend
V ernon
ĠSt orage
Ġcirc ular
unt arily
Ġdiscont inue
Ġdimin ution
Ġar ts
Ġaffirm ance
ĠContract ors
ist a
Fin ancial
ĠTy ler
conn ection
ĠFac simile
Ġover d
Ġgen etic
ĠMe chan
Ġpertain s
Ġvol umes
ĠIdent ification
U TIONS
ĠDaw son
ro d
il iary
Ġse ats
R ed
ĠE SA
Y ING
Ġover payment
ag ger
Ġ[ (
Ġdon or
ĠWel ch
ĠPro prietary
Ġemploy s
Ġinsu fficiency
S olic
Ġuncon stitutionally
Ġth rew
Ġar ch
ĠWh atever
ĠB erk
Ġyou 're
not ice
ĠComp etitive
ĠD ub
y en
Ġconve ying
y th
- par
f ect
Ġunf av
ĠH ut
ath am
ĠP ers
ĠSc ope
Ġmet res
& D
Ġdev oid
Ġfee ls
Ġe viction
Ġb attle
ĠSo vi
ĠEm ail
Ġal ike
Ġimper missibly
f el
ĠPort land
Ġnow here
Ġrec ess
Ġtim et
ĠH ot
ĠL isting
Ġgall ant
Ġenhance ments
ĠB ron
Ġrecover ing
ĠK aren
mbuds man
ĠN ap
Ġinjun ctions
Ġt ag
C S
re pre
Ġdo se
ĠT rue
99 7
Ġburn ing
x on
ĠLyn n
r and
AN E
ĠPitts burgh
Ġapprox imate
AT ORY
ĠT P
ĠR AD
tern ational
L D
Ġap olog
Ġn ervous
Ġinter mediary
ĠKle in
ĠRE IT
ĠRec ogn
ID E
applic ation
ĠRece iver
Pa ul
Ġin ex
ĠV incent
Ġentrust ed
Ġadapt ed
ack ing
L ender
Ġpenet ration
isd om
Ġdenial s
Ġra in
9 76
ĠUt ilities
Ġrec ycl
ĠEuro currency
ĠR ank
Ġdraw s
Ġpan els
Att orney
res pect
er pt
- Secretary
E qu
ĠN ancy
Ġconduct s
ĠCOMM IT
-p erson
ĠSh ow
Ġmonop oly
Ġdisqual ify
Ġinfer ior
In itial
Ġextr aneous
ĠCarp enter
ĠThrough out
ic iency
ĠM OR
Ġcirc ulation
." ]
Ġassess or
ĠE q
Â ½
as quez
w riting
Ġentertain ment
T AL
Ġreun ification
Ġvacc ination
ĠR om
Ġconsult ations
lyn n
Ġdis orders
] :Ċ
Ġminim is
ĠWe aver
bour ne
N R
Ġdistingu ishing
Ġcompr ise
Ġfacilit ating
ĠSchw artz
ĠN orton
Oct ober
ĠRe yes
Ġg roc
Ġbre ad
Ġint ensity
Ġexempl ary
Ġin ception
Ġw ishing
Direct or
ĠAD OP
Ġinst al
ĠM oss
Ġdishon est
ĠE WCA
Ġchild hood
Ġsublic ense
ĠC able
ĠAgent 's
ĠPer mits
RE ED
rib le
ject ing
.âĢĻ âĢĻ
Sec urity
y a
ĠCar rier
orse ment
ĠK RS
Ġe rection
C ert
Ġorgan ised
Ġnin et
Ġfavour able
ĠM az
ap y
ĠF arr
MENT AL
Ġt ie
e ur
ĠX II
ĠExc ise
lain ant
).ĊĊ ĊĊ
ĠDod d
F ED
ĠEffect iveness
Ġcond ominium
IS ING
ĠMonitor ing
Ġimp orter
Ġregul ator
Ch apter
Ġsol ve
Ġt urb
Ġp ants
Ġculp able
ĠG ate
Ġcl imb
Ġlocal ity
Ġiniti ating
Ġcon g
ĠPharm aceutical
air d
ĠCommittee 's
op sy
ĠL oc
Ġcomput ers
-sett led
ĠInd ependence
ĠP ilot
ĠTrans ferred
Ġre lax
Ġun incorporated
ĠApp ra
Ġdial ogue
Ġaff ords
ĠSh ipping
spec ific
ĠOw en
ĠU M
ĠOff ered
ĠUt ility
ĠS ears
U t
Ġsign atory
Ġelic ited
Ġsurv ived
Ġsu ing
K Y
ĠPal est
ĠCo ordin
l ist
Ġs inking
Ġ :ĊĊ
Ġcon ject
Ġpriv ity
Ġdemean or
ĠAdv ocate
Ġcontempl ate
ĠFarm er
ĠGr an
ĠK ee
Ġfranch ises
ĠC I
au kee
ĠG ay
stru ctions
Ġan om
Ġutil ization
ĠDist ributions
ult z
ĠMus lim
- al
Ġstip ulations
ĠCOVEN ANTS
S ever
Dep uty
Ġcor n
Ġtrib unals
F ore
Ġsymp athy
Ġcy ber
Ġp ul
alter ation
Ġsh arp
ĠSec uritization
ĠGentleman 's
a cles
] ourt
OLIC IT
- un
Ġdetect ives
ĠAD EA
et al
OW ER
her n
Ġprolong ed
Ġdiv isions
ĠM ell
court s
ĠBur lington
ĠAll ocation
Ġtell s
ĠREQU IRE
ĠL ay
st airs
Apr il
Ġmat hemat
re ams
E vent
Ġcash ier
Ġrecon ciliation
ĠP f
DIS CUSSION
ĠK er
Ġinter ventions
ĠLux embourg
ĠO lymp
Ġcol leges
Ġin habit
ier rez
Ġper missive
ĠRenew al
. us
It em
ĠD ates
ĠS terling
be zz
Ġbirth day
Ġengine ers
Ġpur se
ili ation
ĠTrans mission
interest ed
erv ical
ĠGr p
ĠBy rd
rys ler
Ġde ception
Ġbench mark
ĠScient ific
su pra
ent ing
CO MP
Ġproduct ive
Ġsudden ly
ĠS I
Ġsett ings
ĠAss urance
Ġpharm acy
Ġcontact ing
ĠPAR TIC
Ġpres sures
f ootnote
Ġmot ives
K y
Ġillust rate
ĠC DC
he w
Ġfav ored
eric a
c ust
ĠD il
roduct ory
Acc ount
ĠO B
ĠAffili ated
ĠS entence
Ġcopyright s
Ġelect oral
ĠSO FR
Ġconv ince
ĠSte ve
ĠFar ms
ĠBelg ium
Ġwithdraw ing
Ġincrimin ating
ĠProb ation
Ġclient 's
im ates
ĠH n
ĠIs a
ĠStip ulation
Ġeffect ing
V IR
Ġh al
Ġmind ful
Ġproc uring
Ġsc ar
ST E
oper ative
ĠD M
Ġt aught
Ġs ed
Ġdece ive
ĠTob acco
Ġreluct ant
ast ings
J anuary
L et
ĉ On
ĠSub contract
Ġun necessarily
Ġst ead
ĠTur key
ict ive
ĠJur or
Ġsupport ive
ĠD uff
Ġorient ation
Ġret rie
Ġfore man
Ġinv oking
Ġpreced ents
Ġmo v
ĠRES OL
Ġdisse mination
W ednesday
ĠBarn ett
W ISE
H ar
: C
T wo
om ic
ra ce
ĠDocument ation
ree x
Ġ( [
aret te
ĠCur iam
Ġremed iation
ank s
ĠMin or
em en
ĠK o
Ġregistr ar
As sign
Ġrat ably
Ġutil izing
ĠC od
sett ing
ĠH ancock
Ġref riger
ĠC ry
on ia
Ġbl ow
bor o
Ġins ight
Ġdupl icative
) âĢĶĊ
ĠEN TER
ĠJ osh
Ġdece it
Ġp or
N I
repre ne
ĠS ac
Ġphr ases
enz ie
D OT
iff e
ANA GEMENT
oul try
ĠPr int
ĠDisc retion
ĠSuccess ors
R ules
ĠLiber al
ĠAd jud
Ġunderw ritten
ĠREGISTER ED
y pe
int ended
Ġimm unities
ĠDE FA
Ġcross ed
ĠE li
is ch
Ġst one
O ver
Re port
Ġcons ign
Ġqu e
Ġinjur ious
we igh
ĠRESP ONDENT
ĠF ollow
ĠA boriginal
ĠHead ings
ili pp
Ġsuper annuation
) âĢĿ
Ġtrans form
B ERS
med ical
ĠDecl ar
Ġcol laboration
]n y
Ġtim ef
ĠFitzg erald
M on
Ġr ounded
Ġjust ifies
m ate
Ass oci
ĠS ew
Ġ( '
Ġper v
art ed
ĠDu ke
ĠC ell
Ġan ch
. s
Ġpen itentiary
crib e
] s
Ġreb ate
Ġhypot hesis
ĠW ild
ĠPar cel
ĠA ber
Ġpharm ac
- approved
.ĊĊ ĊĊĊĊĊĊĊĊ
ĠW IL
Ġcomp rehen
Ġsurviv or
se ts
Ġadvoc acy
Ġt enth
om on
ĠL OC
Z A
ĠPROCEED ING
ĠNew man
ĠE ither
" I
ĠLe asing
ĠL isa
DE F
Ar t
Ġsp r
ĠSovi et
i ations
Ġindic ations
Ġegreg ious
d i
Ġpip es
ul ator
ĠMA DE
p lain
Ġam algam
g as
f ire
ĠB io
Ġfut ures
AS T
Ġco ordinated
w aukee
Ġunex pected
Ġautom obiles
ĠSubt enant
op en
ces ter
- resident
Ġve to
ĠComm and
Ġinc omes
ĠF ry
ĠComp ar
Ġun question
ĠAssoc s
ĠDistrib utor
ĠRel iance
ĠClin ic
ĠCooper ation
ĠW or
ĠIND ENTURE
Ġab ilities
Ġflu id
ĠJ PM
Ġtempor al
ĠWal ton
ĠS pect
Ġland lords
0 17
AL D
ĠB arc
ĠOTHER WISE
ĠMax well
u ment
ĠCor rect
ĠG RA
ist ance
ĠSing le
Fr iday
ĊĊĊĊ ĊĊĊĊĊĊ
Ġmerit less
Ġmultip lying
Ġf uels
ĠT oy
Ital ics
ĠL iver
ĠH ew
Ġexplos ion
Ġa x
ĠH UM
Ġal ley
Ġtrad itionally
Ġextre m
ĠApp ointment
b usiness
ĠB ag
ia e
ĠTRUS TEE
ĠK in
ee 's
ĠCom mitted
Ġdenomin ations
ĠVol untary
Ġinter actions
ĠTF EU
Ġthe r
Ġdep uties
ĠS port
VEL OP
Ġass ail
ĠE ver
ĠH ann
Ã ¨
Cl osing
Ġdet ected
ĠInter ven
Ġc aring
ĠD ob
Ġtrave lling
ESS OR
end ments
Ġconf erences
Ġsubscrib e
Ġconstruct ing
ĠTe acher
ĠSubt itle
M at
lig ence
F ile
Ġover see
ĠDIS POS
Ġapprehen sion
ĠE ight
Ġconvey ances
ĠM ANAGEMENT
Ġindefinite ly
b in
ĠLeg end
DA Q
rum p
ĠRes idential
Ġmet ric
Ġsubpo enas
Ġse vered
ĠG ir
ĠHonour able
ĠS CO
ĠH iggins
ĠS ou
Ġdecision al
ĠCap acity
ess able
Ġneuro log
V IN
Ġground water
Ġinf irm
Ġmur ders
ĠTER M
in anced
âĢĿ âĢĶ
Ġc ave
IC A
c irc
T uesday
ĠCar son
ĠO UT
ĠK E
Ġ iv
Ġcompr ises
Step hen
ĠSh ar
Ġfamiliar ity
ĠUn employment
C IL
ull ed
Ġsum mon
ĠAss n
Sept ember
ĠAr chitect
c ern
Ġconc ise
Ġst uff
ĠLaw son
Ġappl iances
ĠWat ts
C ity
f unded
ic z
Ġhistor ically
Ġre ception
Ġlift ed
Ġlev ies
Ġjud ged
Ġdr unk
Ġtransp arent
ĉ This
Ġfor gery
B rown
ac qu
oc ols
ĠK ath
ĠLev y
Ġpre cluding
ĠCoast al
Ġindividual ized
Ġaffili ation
Ġtri ps
Ġl ied
Ġendorse ments
Ġdest ro
F iled
m ake
ĠOrigin ator
Ġsegreg ated
ĠOblig ors
Ġd ensity
ĠCO S
Ġcomp art
Ġevid ences
op y
AL S
ĠO t
Ġcop ied
Ġsister s
augh ter
G M
ĠNo ble
0 18
Ġg est
F TA
ĠA BC
ed o
Ġfar ms
Ġnomin ations
N othing
De bt
ĠL I
ĠOBLIG ATIONS
ĠAUTHOR IZ
ce ased
âĢĻ ve
ĠF ul
Ġawa iting
ROW N
Ġtrad ition
ĠFINANC IAL
g on
Ġcircum vent
la ir
coh ol
ĠD utch
Ġtu ition
ĠInt roduction
ĠMicro soft
G en
Ġ Ã¡
ĠAcc ru
Ġdiscont inu
ĠMR I
Ġt issue
ĠG un
ac erb
Ġre sumed
ĠInit ially
âĢĶ not
S uper
Ġcann abis
Ġcons ortium
un published
ĠP TY
a it
AG ES
ĠDE POS
R ichard
Ġannoun cing
du it
ĠBro ck
ĠFact ual
os ystem
Ġhe ir
ĠB ey
Ġpen is
Ġwatch ing
Ġrestraint s
H earing
it iveness
stat utory
Ġto lled
) --Ċ
ĠDefin ition
Ġto ile
ĠTREAT MENT
Ġdisp lays
Ġcomp iled
v ens
Ġen rol
Ġconserv ative
ĠIm mediately
Ġinvalid ated
just ed
Ġcompan ion
Ġjour ney
requ iring
ĠMil es
Ġsuggest ive
Ġtort s
iz z
Ġlumb ar
Ġext ensively
l en
Ġfals ity
-t ions
Ġincur ring
ĠW ES
TR IB
Ġrele asing
Ġuncont ro
ĠD AM
ĠĠĠĠĠĠĠĠĠĠĠĠĠĠĠĠĠĠĠĠĠĠĠĠĠĠĠĠĠĠĠĠĠĠĠĠĠĠĠĠĠĠĠĠĠĠĠĠĠĠĠĠĠĠĠĠĠĠĠĠĠĠĠĠ ĠĠĠĠĠĠĠĠĠĠĠĠ
-ac re
Ġg aps
Ġven ire
Ġaff d
og rap
r ors
b us
h all
ĠR PD
Ġtrend s
ĠEth ics
Ġp in
U B
in ner
Ġline up
ĠMess rs
Ġpollut ants
ch allen
EN N
JUD GMENT
Ġpr or
Ġmamm als
Ġang ry
ĠNO X
Ġth rust
ĠG ates
ĠR on
Ġtestator 's
Ġremark able
LI ANCE
ĠH ung
ack s
ĠS aw
ĠC otton
ĠSE LL
A nother
ĠHer bert
ĠS ustain
ital s
ĠPal m
Ġobser ver
ĠN ass
z man
Ġhard ware
ili ated
Â ®
Ġdesign ations
ĠJer ry
ĠT E
ra ining
r ite
0 16
en sure
b es
ĠC US
ĠBENE F
-Reg ulatory
Ġver tical
ĠD iff
ĠB B
Ġnot ably
ĠAu ction
Ġneg ate
Ġtest atrix
' g
Ġposs ibilities
Ġbut t
Ġbu ilder
Ġdenomin ator
ĠProm issory
m art
-C l
ĠL everage
ĠRef erences
Ġcost ly
Ġcapt ured
ĠProject s
Ġl v
Ġsophist icated
Ġcompl iant
Ġquot es
Ġignor ance
le en
Ġexc erpt
Ġsupervis ing
ĠHed ging
Ġdivor ced
olid ation
Ġstart s
ob ject
ĠR ental
ro zen
Ġro lling
B AL
Ġexperi ment
Ġp ig
Ġsuspect s
'' ).
ĠS OC
Ġcomp aring
Ġem bezz
ĠC BI
ĉĠĠĉ ĉĠĠ
ĠCLAIM S
H E
ĠEUR OPE
T V
Ġinv ites
ĠLog an
ord ered
p ost
Ġacc redited
Ġmechan ics
Ġmatern al
ict ment
ĠPol and
ĠE c
Ġdiv est
Ġresid ency
Al aska
Ġboard 's
F inal
ol i
Ġant idumping
reex isting
ĠLE ASE
ach t
Ġdeb atable
Ġaid s
ĠB M
AL J
Ġpreca utions
Ġox y
Ġg raph
ĠR anch
m or
Ġdetail ing
ĠW I
omet imes
ĠA IR
Ġhe licop
re cy
ĠH em
ĠS ie
llll llll
Ġprom otional
pons ible
ĠH ope
Ġd ues
ĠFl ow
ut sche
ĠTh ur
J ones
ĠM g
enc hes
ĠQuarter ly
( o
Ġste pped
ĠMiss ion
Ġprobation ary
.... ..
ĠFle ming
ĠWilm ington
ĠManufact ure
ĠP ra
Ġsubscrib ers
ĠT ool
l ining
ib ank
O U
ĠW om
Th ursday
ur ies
F ac
Ġint act
Ġclass room
ĠSub mit
Ġuniform ly
ĠSouth west
ie 's
ĠSpec ifications
ĠGrow th
Not es
ĠColumb us
ĠEMPLOY MENT
Ġref lection
ĠCON GRESS
G reg
ĠColl ier
ĠSure ty
Ġopt im
Ġsh irt
Ġsevent een
[,] âĢĿ
Ġentit lements
Ġine ffectiveness
AM S
F M
O ut
Ġepis ode
Ġ ).
ĠHed ge
f oot
ĠL ank
Ġindic ator
Ġpreced ed
- mentioned
-m aker
Ġassault s
ra ordinary
Ġth ick
ĠD ATED
R IS
ĠK err
as er's
Ġentit ling
Ġwil ful
ĠNe il
-------------------------------- --------
Ġt ier
Ġsystem atic
ĠSUPER IOR
ra ction
Ġphil osoph
ĠO tt
Ġgrand children
.' ĊĊ
Ġirr ational
Ġdisad vantaged
ur ate
ĠSTATE MENT
ĠRoy alty
Ġj ew
Ġn it
Restr icted
ann y
Ġdec k
ĠASSIGN MENT
Ġtalk s
ĠCal dwell
ĠP ine
.R ep
ay ette
se ctions
c ert
Ġimm un
E very
Ġannul ment
ĠLIM IT
-se ven
Ġf ru
Ne il
ĠM es
Ġexp ose
ĠMil waukee
s ch
Ġmat ched
Ġcounter fe
Ġunenforce ability
AR S
Ġ-------------------------------- --------
IF IED
Att ention
Ġexpress es
ar bit
Ġinj ection
Ġs atellite
Ġ iii
Ġdi abetes
can not
Ġdeploy ed
Ġb right
Ġbra ke
Ġrig id
.[ ^
LL C
Ġtransl ation
TI S
Ġeffic acy
ll i
) '
ph is
ĠSpec ies
ĠJ AMES
ou st
G EN
ĠHar v
Applic able
Ġgentle woman
Ġunequiv ocally
ĠMIS CELLANEOUS
ĠBORROW ER
Ġgen erous
Cont ract
Ġplan e
Ġresc ue
& C
Ġfavor ably
Ġexclusion ary
s ky
ĠChe ster
ĠP SR
Ġm alf
Ġfract ure
pr im
Ġgu est
Ġsuit ability
Ġcl ock
Ġc ervical
En vironmental
-ex clusive
c alc
Ġcor rid
ĠEd ison
ĠRe organization
Ġex acerb
] "
Ġimped e
Ġdiscuss es
R oy
ĠTECHN OLOG
ĠGib bs
ĠCommod ity
Ġadmitted ly
it igation
Ġrefund ed
-f ounded
h aw
Ġfeed ing
ĠGro ve
aff er
Ġthought s
Ġrec ites
Ġab normal
st rom
th ose
rad icted
j a
Ġsenior ity
Ġnon con
Ġburea uc
Ġapportion ed
................................ ................................................
ĠCON N
o is
ĠLes lie
ER ISA
ĠAn ne
al ysis
.C l
Ġexc usable
p rom
pt ed
Ġâ Ĩ
ĠWest minster
Ġm m
ĠApp arently
ĠSch ne
Ġnon payment
ĠC uy
ĠM uch
ĠComp rehensive
il ated
Ġr ifle
Ġrelevant ly
ĠDisc ount
Ġair space
ĠA z
ĠT ext
/ h
Ġmix ture
ett a
Ġdisp atch
ĠMin eral
ĠDismiss al
ĠTIM E
ring ement
ĠREST ATED
ĠSh ore
Ġpresumpt ive
Ag ent
O H
Ġattack ing
ge ment
ĠMor ales
ĠKel ley
Ġtr illion
ĠR SA
ĠReason able
ĠCl iff
Ġinterpre ter
ass ion
ĠACCORD ANCE
if ul
IL LE
empt ed
ĠViol ation
he alth
ĠS essions
op ing
FED ERAL
bor der
Ġlog s
M art
ĠMembers hip
che ck
ĠSal t
ĠCircuit 's
Ġlog ically
Ġcurric ulum
Ġcategor ical
VIR ON
fin ancial
chn ical
clud es
ĠCamb ridge
ob lig
substant ially
ru p
Ġneigh bors
Ġsubstant iate
TIC ES
Ġcor rupt
ĠSc reen
ab outs
Act ing
Ġmarket ed
Ġam en
N ING
ĠInd ones
- pre
Ġsubparagraph s
ĠWe ber
Ġsol vent
Ġre app
Sen ate
am en
Ġfarm er
ĠHam mond
Ġadjudic ator
Ġworth y
TR U
Ġconcentr ations
Ġsen iors
Ġcommission ed
Ġretail ers
f ast
ĠHig her
ĠTH OMAS
____________________________________________ ĊĊĊ
LA TING
Ġfor b
ĠR ush
Ġpronoun ced
ĠD omin
Ġacc usation
Ġstaff ing
Ġdeb ated
Ġp hen
Ġindisp ensable
ĠC ite
K e
Ġgu ards
C oy
ĠM ARY
-con spir
Ġimplied ly
ĠIn qu
ĠN ature
ĠPh ysical
Ġmotor cycle
Ġdistin ctive
ĠG arr
ĠFull er
el man
ĠStud ies
Ġunavail ing
ĠBax ter
Ġremand ing
ore r
ĠD ear
Ġt al
e a
ĠBar ber
Ġmanif ested
Ġirregular ity
Ġtechn ique
se ct
ian n
ĠP ap
Def ault
Ġhypot he
ĠS lo
-w eek
Ġtrack ing
Ġ Î
Ġincomp atible
Ġforfe it
at ious
ĠRECE IV
ĠGl asgow
ĠSim ilar
Ġrefuge es
ĠBrad ford
ĠO h
st ract
Ġdev ast
ĠE arth
ber ly
Ġfraud s
ĠAR ISING
ĠC ITY
ĠR un
Ġrep etitive
Ġquestion able
Ter mination
Ġin ch
in structed
Ġunc le
Ġfl ash
ren ces
W ell
ict ory
Ġflood ing
Ġs erial
gy pt
Ġscen arios
Subsid iary
- as
ĠSt age
ĠM ap
.) .Ċ
Ġdeliber ation
P urchase
ĠH uff
at tainment
ĠBarn hart
ĠW es
M IS
ĠWith holding
Res erved
Ġanaly tical
Ġsc an
ĠHis pan
Ġen unc
ĠGree ce
m akers
ĠR aw
ĠExcept ion
SEC UR
ĠK r
ĠDo ct
Ġadvert ised
I 's
ĠQu inn
Ġsy nt
ĠGo ogle
Ġrepair ing
ĠW ing
ĠMAR K
Ġrailroad s
Ġur ging
ĠAl i
P ay
E FF
ĠA FFIRM
ĠOl son
Ġdies el
ĠSh arp
Ġmarket able
Ġun n
ĠPro secution
ĠExt ended
Ġ .,
Ġemer ged
ĠC ort
ĠRESP ECT
m aker
Ġindict ments
ĠK een
Ġcomp ounds
pl ant
Ġc ourage
-p ay
IFIC ATION
Reg istration
C oll
Ġnom inees
TOR Y
Ġlegit im
Ġnor ms
M aterial
M atter
igg s
.App x
ĠRE AS
em a
Ġtact ics
s ur
ĠT esting
Ġredund ant
F s
Ġrebut ted
ĠPoll ution
" We
Ġalter cation
ic i
ĠEngine er
Ġgenuine ly
: -Ċ
ĠTrib es
Ġc og
0 25
Ġint roductory
Ġdemol ition
Ġh idden
ĠDE VELOP
ĠCh i
Wh ite
________________________________ ________________________________
Ġa st
ver ages
Ch ild
XX XX
Ġdep icted
ĠB USINESS
Ġp reexisting
- ag
F ar
H P
Ġingred ients
cont rol
ĠCan al
Ġspec im
pro duct
her ic
Ġreaff irmed
P oint
ĠF oot
Ġflow ing
ĠCorp us
t own
Ġcar p
ĠKat z
ĠC ensus
Ġman ag
ĠV i
it imate
Common wealth
Ġtest imonial
ĠHand book
ĠLar son
UR N
Ġseem ingly
/ L
Ġthe rape
ld on
ĠG h
ug al
ĠW ays
ĠPolit ical
Ġdou b
Ġdep ended
ĠH OM
Ġincap ac
PR ESS
Ġelect ors
ĠRest oration
ĠM ICHAEL
Ġw ors
Ġpla yers
ĠW ang
an ine
ĠI DEA
-r isk
Ġinter change
Ġattrib utes
Ġp owder
t ake
ĠMIN ISTER
Ġst rain
ĠW ald
ĠB ir
fl u
ĠNor ris
ĠW ORK
Ġelect or
Ġprison s
ĠInt ent
-s entence
ig ue
ĠCont rib
Ġdict a
Ġenc ro
Ġforbid den
Ġperman ency
ĠTrust s
Ġregul ators
ĠL ack
h us
Ġcould n't
ĠAct ual
Ġrespect ed
Ġwast es
Ġw isdom
Ġgre w
Ġdiscrep ancies
ĠCon stit
' Connor
ĠF igure
an es
UL ES
c ause
' )
Ġal ign
ab e
Ġloan ed
oun cil
ĠP ending
IN O
ĠC red
Ġm aps
ent ral
Ġres pir
N orth
Ġfin ed
im an
Ġsubs cribed
ERC LA
ĠV AC
C apital
CLUD ING
ĠLe h
-d uty
Ġunilateral ly
âĢĻ )
ĠAut hent
ĠBe a
ĠHUM AN
T L
ĠâĢĺ [
Ġsib lings
Ġpatient 's
ĠObject ions
Ġjudge ment
ĉ ARTICLE
Ġatmosp here
under s
ĠLIAB ILITY
Ġexport ed
ĠExcept ions
ord able
Ġemerg ing
Ġirregular ities
ĠSt ee
Ġoutrage ous
ĠM ath
pri or
s is
Ġsusp ending
- St
ser ious
-ple aded
ĠREGUL ATION
ĠLy ons
Ġu pl
ĠB ever
Ġath let
Ġev ade
________________ ____________
0 90
ĠTri gg
ĠLanc aster
Part y
Ġm akers
) the
pec ified
rit is
Ġpick up
Ġprior it
ĠMon ell
ĠRe lying
ICH ARD
Ġdict ates
Ġoverturn ed
Ġrep roduction
Ġpass ive
With out
Ġcommunic ating
ou x
g overnmental
ĠF unction
Ġcons ensual
Ġapprehen ded
ip her
ĠT W
empt ions
des cribing
ĠBart on
ĠComp uter
Ġt unnel
Ġno on
TR A
Ġmark ing
und ry
hen y
Ġb is
ĠSk ills
reg ulation
) ĊĊĊĊ
ĠMg mt
ĠS earch
Ġint ensive
E lect
B P
Ġr ationally
Ġgrand parents
ĠN a
entle men
Ġwor ried
ĠGut ierrez
ĠR ud
ch ard
Ġkilog rams
ĠKir by
ĠIn stitutional
Ġvide os
Ġelabor ate
ĠTransf ers
ĠRel ator
Ġsanction ed
Ġwhe at
Ġinter cept
Ch rist
PUBL ISHED
ĠAgency 's
.'' .Ċ
h urst
TI VES
J an
Ġgrad uate
ĠDEPOS IT
IC IAL
Ġemphasis ed
ert on
Ġjur ies
ĠT AC
Sh ares
ĠMedic ine
- standing
IT TEN
Ġstatute 's
Ġprec ip
ĉĠ ĉĠĠĉĠ
Ġretain er
m em
) âĢĻ
ĠH astings
ĠCl imate
ĠBr istol
ĠS ALE
f ailed
ĠV ers
at ri
ĠÂ ¡
ĠSw iss
ĠPeriod s
Ġenc umber
Ġstem ming
rick son
Ġp air
u ations
Ġcont exts
Ġcol lapse
ĠElect ions
## #
ut ive
ĠM ik
ĠRem arks
ĠHON OR
Ġinterven ed
.... ĊĊ
ag a
ask ed
ĠI FP
âĪ Ĵ
ad dition
ĠFOUR TH
ĠK am
ĠBenefic iaries
ld man
ĠB ail
Ġadd iction
li ability
ĠĠĠĠĠĠĠĠĠĠĠĠĠĠĠĠĠĠĠĠĠĠĠĠĠĠĠĠĠĠĠĠĠĠĠĠĠĠĠĠĠĠĠĠĠĠĠĠĠĠĠĠĠĠĠĠĠĠĠĠĠĠĠĠ ĠĠĠĠĠĠĠĠĠĠĠĠĠ
Ġconserv ator
Ġblock ed
Ġpres criptions
er ced
i ates
ĠAppro ximately
Ġev il
c ies
ĠB ott
ĠP ricing
ĠBroadcast ing
ĠH eal
se par
Ġdetain ees
Ġconf essed
ISTR ATIVE
ĠLe vin
ĠW age
ĠPres idential
Ġcogn itive
Ġcontempor aneously
Ġstrengthe ning
Ġintell igently
Ġnumer ator
Ġsubc lause
it ches
ĠC ul
Ġa unt
isc her
ĠS CC
ĠL R
ĠB ang
Ġmarket place
Ġcont esting
ĠProcess ing
Ġforc ible
Ġexhaust ive
Ġb at
' r
ĠH ens
ĠBy laws
ĠOut side
eth yl
.................... ..
ĠI EP
ĠL ed
l oss
ĠDis charge
Ġmeasure ments
Plaintiff 's
Offic er
Ġnegot iable
ĠBas in
Ġgr ades
ĠPre c
it ig
LL OW
ĠNAT O
ĠMem phis
Ġb asket
Ġl oud
qual ity
ĠFact or
-n ine
neg ot
B ill
Ġpostpon e
Ġplural ity
Ġt abled
ĠK eller
Ġexpos ures
Ġaccru es
ub e
if ur
ĠC umm
.................... .
ĠT ed
ĠI' ve
land lord
ĠC ou
ave ment
pro ceed
ĠI ce
sid er
TS D
ĠRece iving
ĠS AL
OR POR
DITION AL
st all
Ġun pre
ĉĠĠ ĉĠĠĉĠ
ĠFow ler
Ġa kin
Ġan ger
ame ter
k ay
Ġst ro
Ġanal yst
o a
Ġpestic ide
ĠFre qu
ĠSure ly
ĠâĨ ĳ
Ġcomplet eness
Ġund es
ĠShel by
ĠBr itt
Ġbe verages
L ab
ĠMa e
Ġar son
ĠS L
Ġse ize
ĠO m
ĠIraq i
TRUC TION
ĠP ope
ĠMe et
Ġprescrib es
ER A
Ġensu ing
r in
Ġren dition
ĠS id
ĠAnsw ers
n or
b ow
0 23
ĠReg s
- Q
Ġknock ed
ĠChe m
ĠDU I
ĠP OR
Ġr anges
Ġoppon ent
Ġaggrav ation
Ġcoerc ive
ever y
ĠOwn ed
G reen
ĠBat son
ĠR ic
ĠG ru
0 22
ĠB rig
Ġoffic ially
ose xual
Ġpro ponent
Ġrem orse
' ll
ult on
Ġdeterior ation
ĠInit iative
t z
Ġsound s
ĠProvid e
am ended
ĠIn junction
FOR D
Ġb one
Ġh ip
Ġcon ver
Ġfav ors
ĠDur ham
Ġpar i
Ġ________________________________ ____
Ne ither
ĠConcern ing
less ly
Ġvoid able
ĠPot ter
0 19
ut ers
ah oga
ĠPenal ty
Ġgener ations
ĠPURCH AS
ĠE gypt
Ġback ed
ĠHa ven
Ġe ject
ĠSPEC IAL
U TIVE
Aug ust
ĠS ports
Ġcaution ed
ls en
il ization
ĠPre ston
Ġpur view
ĠP ont
d istrict
Ġbed s
-R elated
ĠChand ler
ĠDef easance
Ġconce ived
ĠJenn ings
oc cur
ri volous
ĠĠĠĠĠĠĠĠĠĠĠĠĠĠĠĠĠĠĠĠĠĠĠĠĠĠĠĠĠĠĠĠĠĠĠĠĠĠĠĠĠĠĠĠĠĠĠĠĠĠĠĠĠĠĠĠĠĠĠĠĠĠĠĠ ĠĠĠĠĠĠĠĠĠĠĠĠĠĠ
ID A
ĊĊĊĊĊĊĊĊ ĊĊĊ
Ġpresumpt ively
Ġperiod ically
Ġloy alty
f ull
Ġc reat
Ġrev oking
Ġnull ity
ore m
ĠC ros
-min ute
Ġunderc over
Ġdepart ed
ĠSU BS
m ps
om ination
pos ing
Ġsh ifting
ĠReg ents
Ġill icit
Ġp ile
Ġsur rogate
ĠRe ad
Ġcap s
In vest
Ġro ot
b is
R I
Ġ row
ĠParagraph s
< Page
est ar
Ġf ing
ĠCol vin
ĠOption al
ĠJohnson 's
Ġcounsel or
Ġtub e
-deal er
AM END
ĠRand all
Ġ ..............
e ffective
Ġsymb ol
f ederal
Ġindic ia
ĠBe ginning
int o
ĠK end
G iven
serv ed
Ġadministrative ly
Ġdesign ates
ĠMo dern
Ġmot el
Ġshift ed
ĠPro ds
Ġaccess ing
Ġfear s
ĠCB P
ĠW ong
ere my
ant 's
c ox
ĠL ocation
ĠTerr or
Ġinadvert ently
enn y
Ġt ab
vol untary
ĠEUROPE AN
Ġinter posed
ia h
ĠCollect ions
Ġs ter
Ġw ires
T M
Ġc ensus
are l
ĠWe iss
ĠDef ined
DC PA
ĠFact ors
Ġdeter rent
-inc rimination
ĠM igration
H on
Ġsh am
Ġsoci eties
ĠCol onel
Ġany way
ĠHonour 's
Ġenem y
Ġpract icing
wl th
ĠTele communications
Ġemp ower
ĠSud an
M ITTED
at ibility
D ou
ĠK ane
ĠPat rol
B 's
ĠSp eech
] [
ĠSh aring
ĠI M
ĠP IP
Un less
Ġarbit ral
ĠG LO
Ġurg ency
ĠM EM
ĠCom mander
Ġenjo ining
Ġpark s
Ġre a
Ġint imate
Ġover ly
ĠEnc umbr
ri ot
Ġb icy
.'' .ĊĊ
Ġp a
ĠSUB JECT
ric ane
let te
Ġy ellow
In ternal
Am erican
Ġfulfill ment
K ee
ĠAlf red
Ġmisunder standing
Ġins ign
Ġlandsc ape
Ġadv ancing
Ġspons ors
- CA
Ġcorrobor ation
ĠJew ish
.-- (
iv a
Ġaver ments
Ġassign or
Ġ( Â¶
ĠT N
Ġhon ored
it iously
ĠNH TSA
Ġf ought
Ġplaus ibility
Ġwould n't
u ros
ĠD V
ĠB ivens
de z
Su preme
Ġin ner
ĠDau bert
Ġproff er
ĠB ear
erg ers
c od
ĠDou ble
ĠMet al
eme tery
Ġunfort unately
g raph
Ġwire less
ĠCo ch
ĠIssu ed
Ġsick ness
Ex p
ĠUS P
r t
Ġcere mon
ĠAct ivity
On ce
Ġthreshold s
Ġo cean
J ustice
ar f
ĠAn imal
D allas
ident al
Ġmin es
me as
-defendant s
Ġde bit
Ġobjection able
ĠDec edent
Ġdiss olve
Ġv irus
ĠCounter party
ĠF ILE
Ġcomment ary
S ch
ĠProm ptly
Am endments
us hed
ĠRespons es
ĠM ans
enn ial
Ġcomb ust
ec o
Ġwarrant ing
ĠP atel
CAP TION
ĠFre ight
CLAIM ER
ĠBrew er
Ġdis bursed
ĠO vers
Ġfor cing
Ġtherap ist
.D ec
Ġt ant
.I ll
M ember
ĠThor nton
ĠAdjust ments
IL D
Ġad ul
ĠHans en
ESS ION
ĠCor r
in ated
ĠOff ender
right s
Ġt ension
ĠD H
ct ic
P ub
ĠNOT ES
Ġensu ed
ĠCooper ative
so le
Ġfe ared
Ġattract ive
val ue
ĠBy r
ĠIsa ac
if or
H OLDER
Ġaff iant
a ccess
ĠCONT ENTS
ĠI CE
ĠH ardy
ef ul
Ġcomb ine
inter pret
Ġbr ick
Commission er
b ie
ĠH ague
stru ctive
ut ter
Ġbi ased
as hed
Ġ" '
Stand ard
Ġhorizon tal
ĠRal ph
Ġabol ished
ud a
Ġconvict ing
ne um
ĠCont ent
] his
Ġimpro pri
an ol
ĠL ad
ĠCh oice
ĠRo e
S w
C ases
Ġrep rim
Ġform ulated
C all
ĠD G
IG RATION
plan atory
Ġun qualified
pt ic
vol ve
Ġinterrog atory
ĠK oh
< CAPTION
Ġpedest rian
ĠIm per
ĠDOCU MENTS
ĠContinu ing
ĠTai wan
Ġinstall ations
ment o
Ġillust rated
-app ointed
mean ing
H ugh
ĠP LC
Ġnon suit
ĠRep ayment
ĠAd ministr
law ful
ĠAt kins
ĠOrgan izations
Ġlo ved
- ne
ĠCON CUR
b ri
ĠVaugh n
Ġindiff erent
c ounsel
Ġclar ifying
Ġmeaning less
-par ole
Ġcous in
Ġde laying
Ġde posed
TIT UTION
Ġpersu asion
ĠL af
& E
Ġcount ing
Ġno body
expla ined
Ġstamp ed
âĢ ©
Ġan k
ĠM B
Cons olidated
b i
Ġre ader
ĠHam pton
-per cent
Ġsubt itle
H AM
-f aith
ĠFIF TH
ĠS G
ĠH ick
Ġeth ics
ĠEx clusion
Ġc mt
ee m
ĠFam ilies
g s
L ER
ard i
Ġfeed back
t otal
ĠLic enses
ĠH H
r ating
ĠNash ville
ĠH us
Ġbra kes
ĠB ab
ĠBu yers
ĠM t
ĠSubject s
ĠBuch anan
ac a
ĠH ack
M onday
Ġcl oud
ĠPot ential
ent ed
ĠCr ane
f ax
Ġdeduct ing
- over
ra il
n ick
ĠRee ves
Ġcr imin
âĢĿ ;Ċ
ĠGood man
Ġaggreg ated
LA W
ĠSw itzer
Ġphot os
or ously
Ġtimet able
og ical
V ING
Def in
ĠDEFA ULT
.................... ...
ĠM orton
arl ow
re me
ĠTh orn
pos itory
ĠCol onial
ĠStaff ord
Ġlod ging
om mission
Ġnavig able
Ġind ul
ĠErn est
a ffected
---------------- ------------
j i
Ġle ve
L aughlin
s or
m ajor
ĠA qu
umin um
v age
Ġc ord
-f inding
ĠAltern ate
ĠLords hips
att ered
Ġrec apitalization
Ġterror ists
k ed
ĠM ust
Ġexp un
Ġpress ing
Ġcr ude
Ġvag ina
Ġbroad band
Ġe at
ĠP un
Ġair ports
ĠS kin
Ġcontrad iction
u er
s ense
Ġinsured s
Ġr ich
Ġis n't
Ġproblem atic
ard 's
Ġindec ent
Ġloc ally
ĠA EDPA
ĠP CR
N ovember
TI P
ĠF all
ĠLi qu
A 's
In formation
Ġfederal ism
ĠSub stance
ĠB our
Ġabst ention
in arily
C ollateral
Ġexpect ancy
Ġ________ ___ĊĊ
ĠSub missions
ĠMat ching
Ġw ed
Ġpeople 's
Ġstate wide
Ġapprec iated
qu ist
Ġun vested
OLICIT ORS
p ursuant
ĠHIS TORY
ĠSE PAR
Ġenvis aged
Ġr anging
K I
ther ly
Ġconsp ired
Ġhonest ly
u um
- known
ĠB OP
Ġuniform ity
ĠOn line
Ġtheore tical
ĠG riev
Ġinstruct s
F ort
Te le
Ġf ert
ĠUS D
n ational
Ġprot ocols
" If
Ġsk y
ĠNurs ing
ur ious
-sc ale
ĠRam os
Ġstop s
ĠFor um
ĠSt ruct
ĠP os
Ġsheriff 's
Ġobserv es
it izens
C ivil
ķ Ĳ
- border
Ġredund ancy
ĠS ed
Ġhand written
Ġingred ient
el ry
Ġre act
ĠSus pension
.... "
Ġcan v
ĠSe lection
Ġan onymous
- type
ak er's
ĠM AS
ĠD AY
ĠR ou
li quid
ĠLam bert
ĠâĨĳ ĊĊ
B ase
ĠHe ld
ener ative
Ġre bu
ĠComp lex
igg est
ort ions
Ġcontraven e
Ġep id
ĠREG ISTR
ĠS PA
ĠJud gments
ot ary
im ming
Ġembra ce
ĠTR IB
ĠLouis ville
Ġunderstand able
Ġdes criptive
Ġentit les
che ster
C a
state ments
ere rs
Ġbo iler
f ree
Ġde volved
ĠSurv ival
ĠC ly
mans hip
Ġdim ension
ĠP il
ul us
Pro perty
C ust
- employee
ĠRu iz
h i
Ġunambigu ously
-w ill
Ġimpract icable
Cal ifornia
ĠFl ight
l ined
urn ing
Ġsumm aries
priv ate
ĠCOP Y
Ġbe ll
Col onel
ĠR omer
E vidence
Ġdistin ctions
ĠS ector
ĠWa ivers
ĠMAG ISTR
Ġfore seen
ĠSO UTHERN
le c
Ġaut opsy
cons istent
ĠFl oyd
Ġt apes
.. .]
Ġa er
Ġd airy
ĠRule making
ub ic
ĠCh rysler
PL ACE
Ġinvestig atory
ĠOvers ight
ul ent
Ġuncont radicted
ĠE ff
y an
Ġrese mb
ĠO d
urb an
ĠMar ie
Ġ ^
ĠHERE TO
ĠEqu itable
J ack
Ġcan al
ĠClear ance
ĠProc urement
ĠPh ilipp
Ġdepri ving
Ġincred ible
A ir
ĠDe utsche
Ġd iox
.C al
ĠDEL IVER
Ġtreat s
ĠH err
igu ous
Ġassign ees
? ĊĊĊ
Ġeconom ies
Ġappropri ateness
Ġcamp us
zz anine
ĠCuy ahoga
ĠCount ies
Ġanim us
Ġmed ian
ed e
Ġquant itative
op a
collect ing
ord ed
Ġdep ict
ĠTermin al
Ġveget ation
ĠV ote
Ġgrant ees
Ġtortfeas or
Disc ussion
ĠIB M
Ġprof itable
ĠIn land
Ġinvol untarily
Ġo mits
Ġoffender 's
Ġcomprom ised
n n
ĠPAT R
ĠRob in
ĠAD DRESSES
Ġtherape utic
ĠAud itor
ĠT ay
Ġemphas izes
jun ctive
Ġpl ates
Ġpil ots
ĠS end
ĠT ar
Ġacc reditation
CE P
V AL
Ġod d
Ġclass ifications
ĠCon clusions
ĠWL R
Ġwork sh
Ġprec ision
Ġhy per
th ree
ĠBO ARD
Ġprof ound
ner 's
w en
Ġimper ative
ĠDeb ate
ĠT D
in burgh
Ġpatent ed
Ġboy friend
N M
ĠBank ers
Ġencour agement
Ġb ureau
................ ..
Ġdistinct ly
Ġir rigation
ĠEx xon
Ġar th
ook s
] ).Ċ
- entry
Ġinhabit ants
ĠWILL IAM
Ġ- ĊĊ
Ġsens it
ĠC arn
Ġrest ate
Ġclub s
Ġconce ivable
Ġw al
Ġvolunte ers
Ġdict ate
ON ES
Particip ant
ĠHans on
z an
Ġsc rap
ĠM I
Ġup gr
-f ourth
Ġconst able
V C
ĠCon vey
A IN
Ġwebs ites
Ġfrank ly
provid e
ĠLiver pool
ĠAd vert
Ġoccup ying
Ġconscious ness
Ġder ives
( p
Ġnation 's
velop ed
ĠWarrant y
Ġspe aker
ĉĉĠĉ ĉĠ
INC IP
ĠP ike
ĠCumm ings
os ity
ĠEFF ECT
F inding
ph a
Ġenh ancing
Ġdim ensions
back s
ĠREQUEST ED
PH IC
Ġplea der
Ġdevelop mental
IS ON
ĠCommonwealth 's
ĠAct 's
ĠDE P
Ġaccum ulation
Ġcorporation 's
ĠV ent
ĠSpr int
com ed
Ġbag g
ĠĠĠĠĠĠĠĠĠĠĠĠĠĠĠĠĠĠĠĠĠĠĠĠĠĠĠĠĠĠĠĠĠĠĠĠĠĠĠĠĠĠĠĠĠĠĠĠĠĠĠĠĠĠĠĠĠĠĠĠĠĠĠĠ ĠĠĠĠĠĠĠĠĠĠĠĠĠĠĠ
Ġod or
m ary
ĠZ immer
Ġall otted
ĠAdv anced
âĢĭ ĊĊ
Ġdetain ee
0 31
Ġfulf illing
-F ederal
ĠA BL
Ġ[ âĢľ
bre ak
ĠN AME
ĠP OL
Ġrece ivables
Ã© e
IA MS
Ġton nes
Ġst y
im port
nel ly
on ies
Employ ment
ĠLa ura
ĠM CR
Ġfavor ing
serv ice
Ġb iggest
Ġcham ber
Ġau x
-tr ans
Ġendeav or
Ġsub committee
ĠS ound
ĠCit ibank
Ġreop ening
T enant
Ġuns pecified
ĠF err
Ġmarg ins
av ior
Ġm ood
Ġco ff
ĠBuff alo
Ġmistaken ly
Ġbrack ets
ĠJ a
ĠSignificant ly
âĢĶ or
be an
ĠP T
ĠB BC
ĠDA VID
ĠEX PRESS
Ġcig arette
RE EN
ĠUs er
C ull
ĠDirect ives
Ġcontrovers ial
Ġequ itably
ĠM useum
ĠA E
Ut ah
ĠSex ual
ĠN gu
ĠSign atory
Ġdwell ings
ĠEL EC
Ġcontamin ated
ĠPro du
Ġdev ote
ro ve
Ġm ic
ĠM ILL
ete ering
ĠL en
hard t
-t ier
ĠSH ORT
iss a
ĠN ie
cont inu
ĠAss igned
Ġretros pective
Ġbank 's
.... .
ĠFO LLOW
u i
ĠAss ess
Ġemail ed
Ġca us
Ġassess able
Ġanc est
Ġwith stand
g overnment
Feb ruary
ENS ION
ĠDis bursement
Ġad m
l er's
R ob
ĠPoint s
Ġpull ing
ĠE sp
] âĢĻ
W ARD
Ġcritic isms
ot er
Ġdisc ourage
az on
ĠLICENSE E
Ġcou pons
Solic itor
Ġsh ops
Ġproport ions
ĠCP L
ĠBE T
ck er
ay a
ĠSched uled
Ġcur ve
ĠEFF ECTIVE
ĠHaw ai
* ĊĊ
Ġless ons
-sh aring
ĠAnt itrust
ĠVal ent
lag her
Ġp ole
ĠBrook lyn
ĠH RS
rel la
Ġco in
Ġconcept ion
Ġcontrib utes
re ferred
ov an
Ġimp ressed
AN CH
ĠAS SE
Ġex ited
ĠDC S
ĠBurg ess
Ġre all
Ġsew age
Ġexped ient
ĠF un
Leg al
ib b
Ġcomp els
ĠC ord
ĠAg reed
Ġenunc iated
Ġgreen house
Ġlod ge
â ķĲ
ĠSub ordination
ĠIN A
ĠDel iver
ĠR ome
ĠP in
UL D
ĠCare y
Ġcondition ing
ĠRE LATING
ĠL G
ĠS ublic
Ġser ver
ĠHON OUR
N ext
Ġmat ured
Ġvex atious
/ F
ĠMid west
Ġun to
ear ly
ĠOffic es
Ġfriend ly
def ined
( vi
Ġital ics
ĠN i
ĠHO USE
Ġburn ed
ĠH P
Ġcontrovers ies
Corm ick
Ġenl ar
Ġh o
Ġgarn is
c leaned
pond ents
Ġalloc able
Ġimpartial ity
ĠMulti employer
Ġappra ised
az i
Ġw agon
Ġp as
Ġla ke
ĠAssign s
ĠA st
Ġb a
Ġvis ibility
Ġdispos itions
Ġtour ism
ĠW yn
ave z
Ġam ply
Ġsol ar
ur g
ĠB il
ĠRe vis
issu es
Ġtariff s
ĠAnge l
ĠZ e
ĠCap e
ĠNational ity
apt ist
Ġv ib
ĠAW ARD
Ġcos ponsor
F iling
Ġtact ical
Ġshe ep
se a
ĠDem ised
ĠS ri
Ġcham bers
avail able
Ġacknowledge ment
Ġf ed
Ġab rogated
Ġinstru ctive
K enzie
Ġoccur rences
ĠAPPLIC ATION
Ġdisclaim er
Ġconf erring
Ġh ide
Ġtimef rame
( G
ĠRes ervation
Ġinadequ acy
Ġsal mon
ĠPl us
ĠCon cur
le ases
c raft
C ategory
Ġadvoc ates
Ġnot ary
Ġbroadcast ing
her d
Ġexpert 's
ĠE ug
ĠCOS TS
Ġelev ated
W ood
G overn
L IN
Ġec osystem
j urisdiction
Ġtrustee 's
Ġparticular ized
Ġperv asive
Ġacre age
Ġstud ied
Ġpp m
Ġâ Ī
ĠREM ED
ĠJ u
Ġspecial ty
Ġ ................................................
int illa
Ġw ra
Ġlast ing
im er
Ġun st
Ġselect ive
Ġwithdraw als
ĠN L
Ġconcent rate
ĠCoal ition
Ġph ones
og s
Ġwant ing
Ġd ating
ĠC SA
Ġutter ly
Ġre insurance
Ġloc om
Ġgra vel
ch ief
re ls
re jecting
Ġarra ignment
ought on
ĠV IR
Ġprop ensity
aur ants
Ġmanip ulation
ĠB ah
ĠAC L
ĠSh annon
Ġdr ill
ĠOFFIC IAL
Ġbird s
Ġfreed oms
ĠN ord
ĠN I
ĠWh itt
M other
Ġconvert ing
ink s
ĠP oly
ĠProv ince
is ee
ĠSC I
ĠB ee
ĠCol laboration
ENS ES
ĠH ood
Ġpro minent
Ġf lying
Ġdeb ris
Ġ." ĊĊ
ile e
ĠC PS
Ġbo ats
ĠNAS DAQ
ĠSur ve
-re f
Ġstip ulate
- like
ĠBow man
Ġw atched
ĠReturn s
ĠTra vis
Ġdes ir
Ġign oring
plaintiff s
th on
Ġcriminal s
Ġmet ropolitan
Ġinf lamm
ĠGe off
ĠClass ification
Off ice
Ġpeace ful
J ose
ĠWES TERN
ĠVeg as
LL Y
ĠAb d
ĠHor izon
.... ...
ĠP lain
ĠSchne ider
ĠT ire
Ġsubs criber
Ġmisrepresent ed
Ġpromulg ate
John son
Ġpus hing
0 35
ĠINT RODUCTION
ĠT ow
Com mittee
ĠAlv arez
Ġlan gu
Sim ilarly
Ġpost ure
ĠS CR
recogn izing
Ġtest ifies
ĠH ER
ĠBu ilders
ĠAb raham
ĠRO BERT
- vis
ĠMult iple
ĠParty 's
ĠCh ad
t l
Ġwitness 's
alk ing
ĠR F
ĠG aming
ĠRobb ins
ĠDod ge
ĠH ugh
- ed
hern alia
Ġcow ork
ĠL ef
Ġfo oting
d et
Ġmin ers
M ER
ĠMember 's
Ġdoes n
Ġunre ported
Ġun fore
ĠH OW
ĠFranch ise
ĠLessee 's
arl ing
irm ative
Ġb ifur
ĠCar bon
ĠS TR
ĠA AA
Ġreconc ile
L ic
L ESS
ĠK rist
Ġrel ocate
ĠL illy
ĠHel en
ĠA U
c ul
g ic
ĠViol ence
i ator
B s
Ġmagaz ine
ITAL S
is al
Ġwhere abouts
ĠAnn a
¿ ½
L ondon
Ġflo ors
Aff iliate
................ ...
Ġbarr ing
ĠB elf
ĠDEN IES
Ġd ys
ĠCh o
ĠC annon
former ly
ĠParent s
ĊĊĊĊĊĊĊĊ ĊĊĊĊĊĊĊĊ
0 24
' y
ĠQu ant
âĢĻ g
Ġb ene
Ġconven ed
Ġco herent
ĠB EN
ON Y
Ġcontin ually
Ġbund le
Ġch ron
val uate
Ġdeceased 's
Ġincre mental
Ġbe que
Ġvari ables
Ġafford ing
Ġyield ing
ĠRE AL
Ġallot ment
uven iles
Ġhy brid
ĠBook s
ĠP ret
ĠDEVELOP MENT
pe ed
ione er
Ġthank s
bl ower
Ann ual
atch words
Ġliqu ors
Ġpre rog
ĠHe art
Ġco erced
ĠPROT ECTION
ĠK ell
ĠLE A
- employed
Ġshoot er
FAC TS
Ġpolic ing
Ġhar ms
Ġse ated
Ġch ances
offic ial
Ġvac ancies
Ġdismiss es
Ġinsured 's
m ble
Serv ice
Ġch amp
Ġhead aches
Ġfru its
ĠÂ °
Ġf ires
ĠLod ge
Ġsil ver
ĠPB GC
Ġauthor ise
Ġp oultry
endo za
ĠLow e
ĠCast ro
orpor al
Ġsec recy
Ġhop es
Ġcity 's
... ***
osp ace
Ġhospital ization
Ġpension ers
/ R
- be
el ing
Ġce ment
ra mento
âĢĶ for
Ġliquid ate
Ġdefic its
ĠĠĠĠĠĠĠĠĠĠĠĠĠĠĠĠĠĠĠĠĠĠĠĠĠĠĠĠĠĠĠĠĠĠĠĠĠĠĠĠĠĠĠĠĠĠĠĠĠĠĠĠĠĠĠĠĠĠĠĠĠĠĠĠĠĠĠĠĠĠĠĠĠĠĠĠĠĠĠĠĠĠĠĠĠĠĠĠĠĠĠĠĠĠĠĠĠĠĠĠĠĠĠĠĠĠĠĠĠĠĠĠĠĠĠĠĠĠĠĠĠĠĠĠĠĠĠĠ ĠĠĠĠĠĠĠĠĠĠĠĠĠĠĠĠĠĠĠĠĠĠĠĠĠĠĠĠĠĠĠĠĠĠĠĠĠĠĠĠĠĠĠĠĠĠĠĠĠĠĠĠĠĠĠĠĠĠĠĠĠĠĠĠ
ĠWithdraw al
ĠHarr ington
ĠSecond ary
ĠRes ident
Ġhome owners
O riginal
Ġv oy
ĠB rent
ĠR ain
ĠSuff olk
t ic
ress ing
Ġelic it
ĠFisher y
ĠP arr
ud i
S IGN
ĠSm art
at re
Ġunderw ent
ĠConf ront
Ġang le
DIS CLAIMER
Legisl ation
-p oint
ĠM eek
sequ ential
Ġdetain er
ĠT ract
ĠG reek
fl ow
Ġmid night
N umber
w yn
ĠH IGH
ĠCirc ular
ĠSh ir
Ġd ow
ĠAlex and
B lack
ĠCom ponent
Ġk g
Ġre volving
a ire
Ġcare g
P RA
Ġha ven
EMP TION
ĠFACT UAL
i ago
Ġent reprene
Ġh oused
ĠPROGRA M
Ġdis bar
f unction
Ġtra ged
Ġargu endo
st an
ĠQue bec
im s
Ġevent ual
ĠF ulton
Ġconcent rated
um s
Ġunfav orable
ok er
Ġres isted
S e
ĠN RS
ĠV O
ĠHob bs
ĠWh ich
Ġdipl omatic
Ġcompet itiveness
ĠF SA
Ġur ine
Ġminor ities
ĠCertificate holders
ĠM SP
Ġk een
M ajor
ĠAc celer
ĠN orm
Ġwin ning
anu p
Ġunsuccess fully
ĠConst able
Ġt ires
ud ge
r ous
App endix
ĠRepresent ation
Ġillustr ates
Ġsub let
az ardous
ĠPR ECED
âķĲ âķĲ
i qu
R R
OP LE
Ġvis itor
-c omm
; ĊĊĊĊĊ
Ġquas hed
ĠWal ters
Ġyour self
Ġexcav ation
uc us
Ġquot as
el 's
ĠMarc us
ĠO mbudsman
ĠT u
Ġc abin
D istrict
lic ensed
ĠNAS D
is i
Ġdisp laced
M J
ann ie
Ġun identified
ĠP ain
Ġm a
Ġunt enable
VIRON MENTAL
ĠV ick
Qual ified
Ġgrand father
Ġad herence
Ġn unc
is se
ĠZ en
En g
ĠGR AN
aud ited
Ġrepr inted
ĠBrown 's
u eness
Ġair line
Addition ally
other wise
Ġsummar ize
Ġdes per
- all
ĠRock ville
ĠPre p
Ġsh adow
ĠM ICH
ĠGal lagher
Ġre ex
av irus
Ġlitig ating
ĠL und
m atically
ĠJ d
ĠH oy
ĠW ick
ĠAm y
Ġpla ys
elf th
ĠW ise
ĠProf it
ton 's
ĠG ould
Ġuncontro verted
ĠStee le
Ġpatent ee
Ġcorrobor ate
t ected
ĠSwed en
ĠSpecial ist
Ġthere 's
def ining
Ġpl umbing
ĠTRANS PORT
Ġval orem
eg er
Ġannoun ces
ĠDo ctor
Ġdisturb ing
Ġunf ounded
E THER
Ġst ar
ĠF DCPA
Ġcase work
Ġdef ended
just ment
ĠCon versely
Ġ" .
laus ible
---------------- --------
ĠRep orter
Ġrub ber
ĠF EMA
ĠK eny
________________ ________
âĢĵ âĢĵ
Ġm agistrates
k eep
h aving
Ġprovinc ial
Ġm ales
G ATION
ĠG mb
ĠCONT RO
ĠVAL UE
.'' .
ĠCert ified
ĉ any
ĠApproval s
ĠX III
ĠAs ian
C T
r ift
ograph ical
ĠSh an
ĠMerch ant
Ġadjud icating
A gain
d uring
Ġf its
Ġbe ating
cast le
-c urrent
B enef
ĠHe ights
ĠSy ria
u ities
" That
ĠCh avez
ĠG ri
Ġbad ly
jud ice
ĠG entlemen
olog ists
Ġshort fall
L ean
Ġlot tery
Ġrad iation
Ġnondisc riminatory
General ly
ist ribution
d iff
Ġn erve
r ank
Ġencompass ed
ĠAr gent
part ies
Ġindemn ities
Inter ruption
IF E
ĠP SC
Ġrep roduced
NE W
Ġdis m
ĠOrganization 's
Ġcred ential
OR TH
ĠEs sex
ĠEnt ered
Ġby pass
IR ED
Ġwel comed
ĠStevens on
Ġrepl ies
Ġpubl isher
Ġscient ists
- employment
Ġdis abling
ia 's
ĠL au
g one
Ã ¤
ĠN V
ĠN P
bur s
ĠH ull
Ġconject ure
mit ment
ĠGu y
ĠIslam ic
Ġt ainted
ang le
ĠBorrow ings
ĠUn d
ĠBr id
ĠAff ordable
regard less
Ġrep etition
ĠR P
ze ch
ĠM ak
ĠQuestion naire
Ġrestrict s
abb ing
ist on
ĠMaj eure
ĠAl ice
pr us
- State
ro let
ĠM AC
ĠExchange 's
oc ations
ĠCo ordination
IL Y
v ial
Ġconform ing
Ġant ib
edent ary
Ġcomp act
ale y
ĠS ME
ĠHispan ic
Ġstrugg ling
D EC
Stat utory
ĠGold man
ĠAlb any
O FF
ĠEVID ENCE
ĠTowns end
ĠF oley
Ġderog ation
ĠW AR
ĠL ip
Ġprefer able
Ġdef ender
Ġyear ly
ĠMAGISTR ATE
n i
Le ase
Euro pean
re ading
u zz
ut ics
Ġph ases
ĠMo vant
Ġpe ak
Ġver acity
s ite
ĠArbit rator
lect ed
ĠPr att
Ġwork er's
ĠJoy ce
Ġun avoid
ĠX IV
k l
ĠNOR TH
ĉ in
d ate
Ġhyd ro
B ANK
ĠSt a
su per
ĠSwitzer land
Ġvolunt ariness
Ġcomp assion
ĠB enson
r ators
NOW LED
Ġreciproc al
ĠAccount ability
ict itious
ĠS ay
ĠPoss ession
Ġw orn
ĠS ad
Ass istant
Ġunre stricted
Ġflight s
ĠMichel le
ĠBo oth
Ġin app
ĠC iting
Ġparap hernalia
ĠGr ounds
CR IP
Ġdes iring
Ġconfig uration
c ated
g ren
ĠH olly
ĠC umulative
G overnment
Sh ort
Ġjur ists
Ġreal ised
Ġk m
Ġdisf av
Ġbr idges
Ġderiv atives
Ġt een
Ġrat able
ĉĉ ĉĉ
ĠH ollow
Ġlad der
o ves
c ard
ĠFE ES
r one
defendant s
Ġed itorial
Ġpass ages
direct ly
Ġspec ulate
Ġsal t
umber land
Ġobst acles
Ch arl
ĠLabor atory
ĠH orton
END IX
t ered
Ex isting
ĠEN FOR
ĠWil der
In ternational
os ion
ap or
Ġundermin es
ĠVeter an
ĠB ert
Ġtoile t
Ġv ests
ĠComp lainant
).ĊĊ ĊĊĊ
ĠAC QU
V II
- action
ĠAust ria
Ġpat ently
Ġgr id
Ġrad ical
Ġcorrect ing
Ġalter ing
Ġin patient
Ġlet ting
Ġreiter ate
Des pite
ph ans
ĠNav al
er ations
ĠPro duc
D F
O s
-------------------------------------------------------------------------------- -Ċ
m arks
ĠB aptist
ing le
ĠC LA
Ġrad ius
ĠH olid
Ġsc intilla
P lease
ĠOr al
Ġinterrupt ed
-m otion
Ġman ually
- ann
Ġt unc
ĠCost a
ĠCOUN CIL
-m artial
ĠPR AC
rend i
ĠOff shore
pos itions
at om
eal ed
ĠPort al
ĠS K
Ġshipp er
Ġinvent or
Ġsp ill
ch i
ĠP osition
Ġhy p
Ġsw eep
vers ed
Ġopp ressive
ĠTem ple
leg isl
ĠAsh ley
aw s
Ġwrit ings
ĠSo le
Ġt or
ĠH ouses
) "
................ .
ĠL ES
ov o
Ġcompart ment
Ġplatform s
ĠI v
Ġautonom y
ords hire
ĠComplaint s
Ġto wer
bal ance
Ġexplan atory
LE X
Ġne p
ĠPL ED
Ġguarantee ing
JUD GE
ĠO PP
Ġserv ic
Ġherein before
ĠC ERCLA
-p at
Ge orge
ĠTaxpay er
ĠC atherine
ĉ Date
Ġvideot ape
Ġdiss ents
ĠCorporation 's
06 4
Ġann oy
col m
Ã ¶
ul k
greg ation
ĉ For
ĠCult ure
ĠP oor
E st
Ġclerk s
Ind enture
Ġcor on
Ġt urp
Ġdisc our
ĠUSC IS
M ont
pro b
Ġcounter vailing
ĠGrant ing
Ġprogress ive
Ġawa it
The y
Ġout patient
Ġsacr ifice
Ġsp an
Ġc yl
ĠLet 's
Ġprom otes
ec a
Ġins uring
verse as
ĠF ig
Ġsubs istence
Ġex agger
ĠF ein
Ġd red
Ġvol at
ĠK C
Ġteleph oned
LE V
ĠSch ultz
ĠBr andon
ens urate
Ġremo ves
Reg ulatory
Ġprepay ments
- West
ĠYork shire
ĠO mnibus
Ġlong standing
ĠGLO BAL
ĠCl ar
Ġscient er
Ġcharacter ize
um ont
âĸ¡âĸ¡ âĸ¡âĸ¡
0 41
ise ment
par a
ĠPR INCIP
gu ard
ĠIn ventions
x y
ĠTradem arks
Ġresid uary
Ġfingerprint s
ĠCons ents
Ġbank ers
im ilar
R el
Ġbes ides
ĠER R
ĠFriend 's
ĠSEPAR ATE
Ġp endent
m and
ĠImper ial
Ġnon attainment
ĠR oh
Ġprevail s
Ġdeg enerative
Ġfinal ized
Ġrec alc
-h ow
Ġcont ests
ĠAn cillary
m otion
Ġn ut
AN I
Ġextra ction
Ġsur charge
ĠM oses
ĠB erger
ĠLan guage
ĠSc iences
Ġharmon y
. U
D et
ĠDO J
Ġter rible
ĠPip e
Ġrecoup ment
Ġimm igrants
SE Y
Ġimp lements
W ash
ĠDISPOS ITION
ĠTur k
P ayment
Ġclos est
ĠSpring field
ĠP lay
Ġpred icted
us p
ĠW TO
id ian
ĠCOMP LIANCE
Ġdisappro ved
Ġproportion ately
T N
Ġchar ities
ĠV ill
ot or
Ġvalid ation
ĠEduc ational
ĠC u
f ound
ĠIndian apolis
ĠGu er
aff iliated
ĠPres ervation
Ġv aries
J urisdiction
Ġt ill
Sub section
ĠG AL
os ph
05 1
ind ex
ĠWA IV
Ġind etermin
ĠReceipt s
ĠMult icultural
Ġoverr ide
[...]
