{
  "<|paddingtoken|>": 0,
  "<|startoftext|>": 1,
  "<|endoftext|>": 2,
  "<|masktoken|>": 3,
  "<|unknowntoken|>": 4,
  "Ġthe": 5,
  ",": 6,
  ".": 7,
  "Ġ": 8,
  "Ġof": 9,
  "Ġto": 10,
  "Ġand": 11,
  "Ġin": 12,
  "Ġa": 13,
  "Ġthat": 14,
  "Ġ(": 15,
  "Ġor": 16,
  "Ġis": 17,
  "Ġfor": 18,
  ")": 19,
  "Ġby": 20,
  "Ġbe": 21,
  "Ġnot": 22,
  "Ġas": 23,
  "Ġon": 24,
  "Ġwas": 25,
  "Ċ": 26,
  "Ġany": 27,
  "Ġwith": 28,
  "2": 29,
  "ĠThe": 30,
  "Ġat": 31,
  "Ġthis": 32,
  ".ĊĊ": 33,
  "1": 34,
  "Ġan": 35,
  "Ġit": 36,
  ".Ċ": 37,
  "3": 38,
  "Ġsuch": 39,
  "Ġwhich": 40,
  "Ġfrom": 41,
  "-": 42,
  "Ġhave": 43,
  "Ġare": 44,
  "Ġshall": 45,
  "Ġv": 46,
  ";": 47,
  "Ġhis": 48,
  "âĢĻs": 49,
  "Ġcourt": 50,
  ":": 51,
  "d": 52,
  "4": 53,
  "Ġ\"": 54,
  "Ġunder": 55,
  "Ġhe": 56,
  "5": 57,
  "Ġother": 58,
  "Ġhas": 59,
  "Ġits": 60,
  "ĊĊ": 61,
  "ĠâĢľ": 62,
  "ĠI": 63,
  "Ġhad": 64,
  "Ġall": 65,
  "6": 66,
  "Ġwill": 67,
  "200": 68,
  "Ġwould": 69,
  "Ġmay": 70,
  "Ġbeen": 71,
  "7": 72,
  "201": 73,
  "ĠĠĠ": 74,
  "Ġno": 75,
  "8": 76,
  "9": 77,
  "Ġwere": 78,
  "Ġcase": 79,
  "ĠIn": 80,
  "Ġif": 81,
  "ĠCourt": 82,
  ").": 83,
  "Ġtime": 84,
  "Ġwe": 85,
  ".,": 86,
  "0": 87,
  "),": 88,
  "Ġ[": 89,
  "Ġevidence": 90,
  "Ġbut": 91,
  "Ġtheir": 92,
  "Ġmade": 93,
  ".S": 94,
  "]": 95,
  "ĠA": 96,
  "Ġtrial": 97,
  "Ġone": 98,
  "ĠF": 99,
  "ĠU": 100,
  "Ġher": 101,
  "Ġalso": 102,
  "Ġthere": 103,
  "Ġthey": 104,
  "Ġ.": 105,
  "Ġthan": 106,
  "ĠCompany": 107,
  "\"": 108,
  "199": 109,
  "ĠĠĠĠ": 110,
  "Ġlaw": 111,
  "Ġdefendant": 112,
  "ĠS": 113,
  "ĠMr": 114,
  ")(": 115,
  "Ġupon": 116,
  "The": 117,
  "Ġdid": 118,
  "ĠAct": 119,
  "ĠAgreement": 120,
  "Ġwhen": 121,
  "Ġmust": 122,
  "Ġwhether": 123,
  "Ġonly": 124,
  "ĉ": 125,
  "ĠNo": 126,
  "ĠSection": 127,
  "ĠState": 128,
  "ĠĠĠĠĠĠ": 129,
  "Ġbecause": 130,
  "Ġafter": 131,
  "ĠÂ§": 132,
  "Ġso": 133,
  "ĠĠ": 134,
  "Ġwho": 135,
  "Ġorder": 136,
  "Ġshould": 137,
  "âĢĿ": 138,
  "a": 139,
  "Ġjudgment": 140,
  "ĠĠĠĠĠ": 141,
  "/": 142,
  "Ġ$": 143,
  "Ġeach": 144,
  "'": 145,
  "'s": 146,
  "Ġaction": 147,
  "Ġclaim": 148,
  "Ġagainst": 149,
  "10": 150,
  "(": 151,
  "Ġright": 152,
  "Ġmore": 153,
  "ĠSee": 154,
  "Ġdoes": 155,
  "198": 156,
  "Ġdo": 157,
  "ĠStates": 158,
  "ĠIt": 159,
  "th": 160,
  ":Ċ": 161,
  "Ġplaintiff": 162,
  "ĠThis": 163,
  "ĠUnited": 164,
  "Ġcould": 165,
  "Ġthese": 166,
  "Ġbefore": 167,
  "s": 168,
  "Ġsaid": 169,
  "Ġout": 170,
  "Ġprovided": 171,
  "Ġsection": 172,
  "Ġdate": 173,
  "Ġinto": 174,
  "Ġshe": 175,
  "Ġwithout": 176,
  "Ġmotion": 177,
  "ĠWe": 178,
  ".C": 179,
  "Ġhim": 180,
  "Ġthose": 181,
  ".\"": 182,
  "Ġwithin": 183,
  "Ġpart": 184,
  "Ġamount": 185,
  "Ġrespect": 186,
  "Ġstate": 187,
  "Ġinformation": 188,
  "Ġabout": 189,
  "Ġtwo": 190,
  "Ġrequired": 191,
  "Ġfirst": 192,
  "A": 193,
  "Ġinterest": 194,
  "Ġproperty": 195,
  ".âĢĿ": 196,
  "000": 197,
  "Ġsame": 198,
  "the": 199,
  "Ġcan": 200,
  "Ġparties": 201,
  "i": 202,
  "Ġissue": 203,
  "Ġparty": 204,
  "202": 205,
  "Ġnotice": 206,
  "Ġuse": 207,
  "Ġthen": 208,
  "ĠL": 209,
  "11": 210,
  "Ġwhere": 211,
  "Ġbetween": 212,
  "ĠCir": 213,
  "Ġset": 214,
  "Ġfact": 215,
  "Ġdecision": 216,
  "Ġperson": 217,
  "Ġappeal": 218,
  "12": 219,
  "Ġpursuant": 220,
  "Ġclaims": 221,
  "Ġmake": 222,
  "ĠN": 223,
  "Ġfiled": 224,
  "ĠId": 225,
  "Ġsubject": 226,
  "ĠP": 227,
  "Ġwhat": 228,
  "ĠĠĠĠĠĠĠ": 229,
  "Ġfollowing": 230,
  "Ġthem": 231,
  "ĠJ": 232,
  "Ġrights": 233,
  "b": 234,
  "Ġbeing": 235,
  "Ġpublic": 236,
  "(a": 237,
  ");": 238,
  "ĠC": 239,
  "Ġour": 240,
  "Ġincluding": 241,
  "ĠR": 242,
  "Ġperiod": 243,
  "Ġterms": 244,
  "Ġprior": 245,
  "Ġagreement": 246,
  "Ġsome": 247,
  "ĠOF": 248,
  "15": 249,
  "Ġquestion": 250,
  "ĠPlaintiff": 251,
  "Ġreasonable": 252,
  "Ġyears": 253,
  "Ġfurther": 254,
  "Ġrecord": 255,
  "âĢĻ": 256,
  "Ġyou": 257,
  "Ġduring": 258,
  "Ġnew": 259,
  "197": 260,
  "Ġbusiness": 261,
  "Ġdistrict": 262,
  "ĠIf": 263,
  "Ġreview": 264,
  "Ġover": 265,
  "Ġsupport": 266,
  "ĠHe": 267,
  "ĠB": 268,
  "Ġjury": 269,
  "Ġcounsel": 270,
  "(b": 271,
  "Ġeffect": 272,
  "Ġheld": 273,
  "ĠĠĠĠĠĠĠĠ": 274,
  "B": 275,
  "Ġcontract": 276,
  "Ġapplicable": 277,
  "Ġmatter": 278,
  "Ġrule": 279,
  "ĠAs": 280,
  "Ġwork": 281,
  "Ġfound": 282,
  "Ġpayment": 283,
  "Ġyear": 284,
  "Ġthrough": 285,
  "Ġapplication": 286,
  "Ġmeans": 287,
  "Ġprovisions": 288,
  "20": 289,
  "Ġ-": 290,
  "ĠInc": 291,
  "13": 292,
  "Ġ&": 293,
  "Ġused": 294,
  "Ġboth": 295,
  "Ġprovide": 296,
  "ĠOn": 297,
  "Ġgiven": 298,
  "Ġdue": 299,
  "Ġcause": 300,
  "30": 301,
  ").ĊĊ": 302,
  "Ġbased": 303,
  "14": 304,
  "Ġpay": 305,
  "Ġotherwise": 306,
  "ĠCo": 307,
  "Ġdays": 308,
  "Ġnecessary": 309,
  "ĠAgent": 310,
  "Ġnumber": 311,
  "Ġmy": 312,
  "Ġfacts": 313,
  "Ġhearing": 314,
  "18": 315,
  "Ġsee": 316,
  "Ġjurisdiction": 317,
  "Ġresult": 318,
  "Ġstated": 319,
  "Ġday": 320,
  "c": 321,
  "Ġstatute": 322,
  "Ġcosts": 323,
  "Ġpaid": 324,
  "ĠD": 325,
  "Ġbasis": 326,
  "ĊĊĊ": 327,
  "16": 328,
  "Ġup": 329,
  "Ġreceived": 330,
  "Ġlegal": 331,
  "Ġtestimony": 332,
  ";Ċ": 333,
  "Ġentitled": 334,
  ".ĊĊĊ": 335,
  "Ġwell": 336,
  "In": 337,
  "Ġcases": 338,
  "Ġauthority": 339,
  "Ġforth": 340,
  "Ġcircumstances": 341,
  "Ġopinion": 342,
  "ĠCommission": 343,
  "Ġaccordance": 344,
  "Ġthree": 345,
  "Ġpurposes": 346,
  "Ġabove": 347,
  "ĠTHE": 348,
  "ĠĠĠĠĠĠĠĠĠ": 349,
  "Ġtake": 350,
  "C": 351,
  "Ġhowever": 352,
  "Ġwritten": 353,
  "Ġstatement": 354,
  "Ġdefendants": 355,
  "Ġrequest": 356,
  "17": 357,
  "ĠBoard": 358,
  "ĠM": 359,
  "ing": 360,
  "Ġappellant": 361,
  "Ġcomplaint": 362,
  "ĠNew": 363,
  "19": 364,
  "Ġavailable": 365,
  "ĠBorrower": 366,
  "Ġpurpose": 367,
  "ĠDate": 368,
  "Ġprovision": 369,
  "Ġcannot": 370,
  "ĠRule": 371,
  "Ġper": 372,
  "or": 373,
  "Ġproposed": 374,
  "Ġamended": 375,
  "ĠFor": 376,
  "Ġconduct": 377,
  "Ġmaterial": 378,
  "Ġgeneral": 379,
  "ĠCode": 380,
  "Ġpresent": 381,
  "D": 382,
  "Ġrelevant": 383,
  "ĠFederal": 384,
  "Ġextent": 385,
  "Ġpolicy": 386,
  "Ġeven": 387,
  "Ġnon": 388,
  "Ġservice": 389,
  "ĠE": 390,
  "Ġservices": 391,
  ".)": 392,
  ").Ċ": 393,
  "Ġalleged": 394,
  "Ġerror": 395,
  "21": 396,
  "Ġthereof": 397,
  "Ġeither": 398,
  "ii": 399,
  "Ġtherefore": 400,
  "Ġtax": 401,
  "Ġprocess": 402,
  "ĠH": 403,
  "Ġtaken": 404,
  "I": 405,
  "ĠThat": 406,
  "ĠDefendant": 407,
  "Ġproceedings": 408,
  "Ġuntil": 409,
  "Ġ'": 410,
  "ĠDistrict": 411,
  "Ġnow": 412,
  "25": 413,
  "Ġfailure": 414,
  "Ġterm": 415,
  "Ġappropriate": 416,
  "Ġ*": 417,
  "in": 418,
  "Ġcertain": 419,
  "Ġdenied": 420,
  "Ġvalue": 421,
  "Ġway": 422,
  "Ġact": 423,
  "Ġown": 424,
  "Ġaccount": 425,
  "Ġneed": 426,
  "Ġplaintiffs": 427,
  "e": 428,
  "28": 429,
  "Ġsecond": 430,
  "Ġreport": 431,
  "ĠLender": 432,
  "ĠW": 433,
  "Ġgranted": 434,
  "ĠGovernment": 435,
  "Ġrequirements": 436,
  "Ġparagraph": 437,
  "Ġp": 438,
  "ĠHowever": 439,
  "Ġform": 440,
  ",Ċ": 441,
  "ĠPlan": 442,
  "ĠT": 443,
  "Ġanother": 444,
  "ĠMc": 445,
  ":ĊĊ": 446,
  "Ġreason": 447,
  "Ġconditions": 448,
  "Ġliability": 449,
  "22": 450,
  ".R": 451,
  "Ġargument": 452,
  "Ġdetermined": 453,
  ")Ċ": 454,
  "Ġissued": 455,
  "Ġconsidered": 456,
  "Ġfailed": 457,
  "ĠThere": 458,
  "Ġ``": 459,
  ".W": 460,
  "Ġfederal": 461,
  "ĠApp": 462,
  "S": 463,
  "ĠCounty": 464,
  "Ġpoint": 465,
  "ĠStock": 466,
  "ĠDepartment": 467,
  "Ġpetition": 468,
  "Ġdamages": 469,
  "Ġplace": 470,
  "Ġapply": 471,
  "Ġevent": 472,
  "Ġtestified": 473,
  "Ġcompany": 474,
  "ĠĠĠĠĠĠĠĠĠĠĠ": 475,
  "Ġsale": 476,
  "Ġprovides": 477,
  "Ġsentence": 478,
  "as": 479,
  "Ġemployment": 480,
  "23": 481,
  "ĠDr": 482,
  "Ġhaving": 483,
  "Ġissues": 484,
  "ĠG": 485,
  "ĠSecretary": 486,
  "ĠLoan": 487,
  "ĠTo": 488,
  "Ġadditional": 489,
  "Ġpower": 490,
  "196": 491,
  "Ġpeople": 492,
  "Ġdiscretion": 493,
  "Ġconnection": 494,
  "Ġhere": 495,
  "ĠâĢĶ": 496,
  "Ġfees": 497,
  "Ġgood": 498,
  "Ġparticular": 499,
  "Ġwhile": 500,
  "Ġrelief": 501,
  "Ġjudge": 502,
  "Ġfind": 503,
  "24": 504,
  "Ġreasons": 505,
  "Ġclear": 506,
  "ĠCommittee": 507,
  "Ġsufficient": 508,
  "Ġfinal": 509,
  "Ġsummary": 510,
  "Ġvery": 511,
  "Ġexercise": 512,
  "ĠMay": 513,
  "Ġfull": 514,
  "Ġgive": 515,
  "ĠBank": 516,
  "Ġobligations": 517,
  ".Ct": 518,
  "Ġunless": 519,
  "Ġconsider": 520,
  "ĠJudge": 521,
  "ĠSecurities": 522,
  "Ġmost": 523,
  "ĠJune": 524,
  "Ġinclude": 525,
  "Ġmight": 526,
  "Ġhon": 527,
  "Ġchange": 528,
  "Ġlimited": 529,
  "ĠMarch": 530,
  "Ġchild": 531,
  "Ġdetermine": 532,
  "Ġless": 533,
  "ed": 534,
  "ĉĠ": 535,
  "Ġentered": 536,
  "ĠDecember": 537,
  "ĠTrustee": 538,
  "Ġdetermination": 539,
  "%": 540,
  "ĠAND": 541,
  "Ġhow": 542,
  "31": 543,
  "ĠArticle": 544,
  "Ġfollows": 545,
  "ĠJuly": 546,
  "Ġbenefit": 547,
  "ĠParty": 548,
  "Ġconsent": 549,
  "Mr": 550,
  "Ġreasonably": 551,
  "ĠJanuary": 552,
  "Ġconsideration": 553,
  "Ġus": 554,
  "(c": 555,
  "ĠĠĠĠĠĠĠĠĠĠĠĠĠĠĠĠĠ": 556,
  "Ġcare": 557,
  "Ġduty": 558,
  "ĠK": 559,
  "Ġgovernment": 560,
  "Ġre": 561,
  "Ġfinding": 562,
  "o": 563,
  "100": 564,
  "Ġmoney": 565,
  "Ġofficer": 566,
  "Ġcourts": 567,
  "00": 568,
  "Ġshares": 569,
  "Ġrelated": 570,
  "Ġplan": 571,
  "Ġdescribed": 572,
  "Ġland": 573,
  "Ġexcept": 574,
  "Ġfinancial": 575,
  "ĠSupreme": 576,
  "26": 577,
  "Ġam": 578,
  "Ġshow": 579,
  "Ġindividual": 580,
  "Ġposition": 581,
  "Ġsimilar": 582,
  "Ġthird": 583,
  "Ġcourse": 584,
  "Ġleast": 585,
  "Ġdifferent": 586,
  "ĠCity": 587,
  "Ġspecific": 588,
  "ĠDefendants": 589,
  "ĠLaw": 590,
  "Ġaddress": 591,
  "ĠAmendment": 592,
  "Ġregarding": 593,
  "ĠApril": 594,
  "Ġlater": 595,
  ".D": 596,
  "Ġagree": 597,
  "Ġreferred": 598,
  "Ġnor": 599,
  "Ġ(âĢľ": 600,
  "Ġdocuments": 601,
  "ĠBut": 602,
  "Ġbenefits": 603,
  "Ġs": 604,
  "Ġprincipal": 605,
  "Ġdefined": 606,
  "Ġmedical": 607,
  "Ġmonths": 608,
  "Ġsystem": 609,
  "Ġnote": 610,
  "Ġtransfer": 611,
  "50": 612,
  "ĠSeptember": 613,
  "ĠOctober": 614,
  "?": 615,
  "ĠAt": 616,
  "Ġinsurance": 617,
  "Ġamendment": 618,
  "29": 619,
  "[": 620,
  "Ġcondition": 621,
  "Ġproceeding": 622,
  "Ġview": 623,
  "Ġrate": 624,
  "ĠExecutive": 625,
  "Ġattorney": 626,
  "Ġestablished": 627,
  "Ġbelow": 628,
  "ĠMs": 629,
  "Ġsupra": 630,
  "Ġagreed": 631,
  "Ġargues": 632,
  "Ġmeaning": 633,
  "Ġviolation": 634,
  "Ġstandard": 635,
  "Ġstatements": 636,
  "Ġcontrol": 637,
  "Ġsince": 638,
  "ĠÂ¶": 639,
  "Ġmaking": 640,
  "27": 641,
  "Ġchildren": 642,
  "ĠMember": 643,
  ",\"": 644,
  "Ġinjury": 645,
  "Ġrequire": 646,
  "Ġlocal": 647,
  "Ġmany": 648,
  "Ġme": 649,
  "Ġsecurity": 650,
  "Ġtitle": 651,
  "Ġend": 652,
  "ĠOrder": 653,
  "Ġpersonal": 654,
  "Ġherein": 655,
  "Ġcommon": 656,
  "ĠCredit": 657,
  "Ġemployees": 658,
  "Ġrules": 659,
  "ĠĠĠĠĠĠĠĠĠĠĠĠĠ": 660,
  "Ġlong": 661,
  "ĠGeneral": 662,
  "and": 663,
  "Ġhealth": 664,
  "er": 665,
  "ĠFirst": 666,
  "y": 667,
  "Ġstock": 668,
  "Ġmembers": 669,
  "F": 670,
  "ĠAdministrative": 671,
  "ĠĠĠĠĠĠĠĠĠĠ": 672,
  "ĠPlaintiffs": 673,
  "Ġsubmitted": 674,
  "Ġeffective": 675,
  "Ġdefense": 676,
  "âĢĵ": 677,
  "Ġcriminal": 678,
  "Ġemployee": 679,
  "ĠNovember": 680,
  "Ġyour": 681,
  "T": 682,
  "ĠAugust": 683,
  "Ġaddition": 684,
  "Ġcost": 685,
  "Ġstatutory": 686,
  "Ġincome": 687,
  "Ġhereby": 688,
  "Ġperformance": 689,
  "Ġpolice": 690,
  "Ġlast": 691,
  "Ġfile": 692,
  "ĠAppellant": 693,
  "ĠV": 694,
  "Ġgrant": 695,
  "Ġpurchase": 696,
  "Ġactions": 697,
  "ĠHouse": 698,
  "Ġarea": 699,
  "Ġpayments": 700,
  "Ġletter": 701,
  "ĠâĢĺ": 702,
  "Ġcontained": 703,
  "Ġthink": 704,
  "Ġmarket": 705,
  "Ġmanner": 706,
  "t": 707,
  "Ġsay": 708,
  "ĠFebruary": 709,
  "P": 710,
  "M": 711,
  "Ġrelating": 712,
  "Ġofficers": 713,
  "Ġlaws": 714,
  "Ġsubstantial": 715,
  "Ġregulations": 716,
  "Ġcharge": 717,
  "Ġagency": 718,
  "Ġexpenses": 719,
  "Ġpresented": 720,
  "Ġoriginal": 721,
  "E": 722,
  "Ġburden": 723,
  "Ġcorporation": 724,
  "Ġasked": 725,
  "f": 726,
  "ĠSo": 727,
  "Ġdeemed": 728,
  "Ġincluded": 729,
  "Ġreference": 730,
  "Ġpersons": 731,
  "Ġnature": 732,
  "Ġestablish": 733,
  "Ġdefendant's": 734,
  "Ġhome": 735,
  "Ġspecified": 736,
  "Ġintended": 737,
  "Ġback": 738,
  "Ġtermination": 739,
  "Ġbreach": 740,
  "Ġbehalf": 741,
  "ĠPerson": 742,
  "Ġname": 743,
  "ĠCal": 744,
  "Ġknow": 745,
  "Ġbill": 746,
  "Ġomitted": 747,
  "Ġfunds": 748,
  "Ġloss": 749,
  "Ġapplied": 750,
  "Ġe": 751,
  "Ġproper": 752,
  "ĠYork": 753,
  "Ġjust": 754,
  "Ġrequires": 755,
  "ĠNotes": 756,
  "ĠĠĠĠĠĠĠĠĠĠĠĠĠĠĠ": 757,
  "is": 758,
  "Ġreceive": 759,
  "an": 760,
  "Ġsuit": 761,
  "Ġrequested": 762,
  "Ġassets": 763,
  "Ġlanguage": 764,
  "Ġdirect": 765,
  "Ġprice": 766,
  "ĠCircuit": 767,
  ".\"ĊĊ": 768,
  "Ġestate": 769,
  "Ġobligation": 770,
  "Ġclause": 771,
  "Ġinvolved": 772,
  "Ġregard": 773,
  "Ġlike": 774,
  "Ġproperly": 775,
  "Ġdeath": 776,
  "195": 777,
  "ĠThey": 778,
  "ĠSecurity": 779,
  "Ġconclusion": 780,
  "G": 781,
  "âĢĶ": 782,
  "ĠNational": 783,
  "Ġinterests": 784,
  "Ġpossession": 785,
  "Ġstates": 786,
  "Ġfindings": 787,
  "N": 788,
  "Ġcourt's": 789,
  "Ġoffice": 790,
  ".A": 791,
  "es": 792,
  "Ġmatters": 793,
  "Ġfiling": 794,
  ".E": 795,
  "ĠAll": 796,
  "Ġrisk": 797,
  "Ġnoted": 798,
  ",âĢĿ": 799,
  "on": 800,
  "ĠO": 801,
  ".Ed": 802,
  "ĠSt": 803,
  "Ġfive": 804,
  "ĠService": 805,
  "Ġ(\"": 806,
  "Ġbrought": 807,
  "Ġpermitted": 808,
  "Ġhereunder": 809,
  "Ġrequirement": 810,
  "42": 811,
  "Ġrecords": 812,
  "Ġrather": 813,
  "Ġfour": 814,
  "Ġdata": 815,
  "Ġcompensation": 816,
  "Ġfuture": 817,
  "Ġdelivered": 818,
  "40": 819,
  "Ġforce": 820,
  "Ġtotal": 821,
  "ĠShe": 822,
  "Ġpayable": 823,
  "H": 824,
  "Ġaward": 825,
  "ĠOffice": 826,
  "ĠNote": 827,
  "Ġtest": 828,
  "ĠShares": 829,
  "en": 830,
  "Ġmuch": 831,
  "Ġwitness": 832,
  "193": 833,
  "Ġtold": 834,
  "Ġtrust": 835,
  "ĠAnd": 836,
  "Ġbecome": 837,
  "R": 838,
  "Ġclearly": 839,
  "ĠMinister": 840,
  "ĠĠĠĠĠĠĠĠĠĠĠĠĠĠ": 841,
  "including": 842,
  "Ġput": 843,
  "ly": 844,
  "Ġsubsection": 845,
  "Ġdated": 846,
  "Ġseveral": 847,
  "Ġknowledge": 848,
  "60": 849,
  "Ġguilty": 850,
  "Ġlight": 851,
  "Ġamounts": 852,
  "Ġnever": 853,
  "Ġportion": 854,
  "ĠWhen": 855,
  "Ġspecial": 856,
  "Ġpossible": 857,
  "Ġoccurred": 858,
  "Ġleave": 859,
  "Ġconviction": 860,
  "Ġauthorized": 861,
  "Ġimmediately": 862,
  "Ġground": 863,
  "Ġsought": 864,
  "Ġwhole": 865,
  "Ġconstruction": 866,
  "Ġevery": 867,
  "ĠCommon": 868,
  "ĠCouncil": 869,
  "ĠâĢĵ": 870,
  "Ġintent": 871,
  "Ġdone": 872,
  "Ġcredit": 873,
  "Ġmember": 874,
  "Ġreal": 875,
  "Ġdirectly": 876,
  "01": 877,
  "Ġsecurities": 878,
  "Ġprogram": 879,
  "Ġcountry": 880,
  "L": 881,
  "--": 882,
  "Ġtreatment": 883,
  "Ġtrue": 884,
  "Ġanalysis": 885,
  "Ġhereof": 886,
  "Ġhold": 887,
  "Ġequal": 888,
  "Ġaccess": 889,
  "Ġactivities": 890,
  "Ġconstitute": 891,
  "st": 892,
  "Ġbelieve": 893,
  "Ġclass": 894,
  "Ġapplicant": 895,
  "''": 896,
  "Ġlevel": 897,
  "ĠTenant": 898,
  "Ġalready": 899,
  "Ġsum": 900,
  "ĉĠĠ": 901,
  "Ġresponse": 902,
  "Ġexecuted": 903,
  "Ġtogether": 904,
  "man": 905,
  "Ġoffense": 906,
  "Ġgenerally": 907,
  "/or": 908,
  "Ġlife": 909,
  "Ġwriting": 910,
  "Ġactual": 911,
  "Ġable": 912,
  "ĠThus": 913,
  "Ġvehicle": 914,
  "Ġdown": 915,
  "(d": 916,
  "Ġrelation": 917,
  "Ġdevelopment": 918,
  "ĠĠĠĠĠĠĠĠĠĠĠĠ": 919,
  "âĢĿ)": 920,
  "Ġn": 921,
  "Ġopportunity": 922,
  "Ġstill": 923,
  "Ġ``(": 924,
  "Ġrespondent": 925,
  "iii": 926,
  "Ġreturn": 927,
  "\\": 928,
  "Ġcurrent": 929,
  "Ġquestions": 930,
  "Ġallegations": 931,
  "h": 932,
  ".App": 933,
  "ĠIndenture": 934,
  "Ġthus": 935,
  "ĠIN": 936,
  "Ġitself": 937,
  "ĠUnder": 938,
  "Ġimportant": 939,
  "Ġjudicial": 940,
  "Ġcontinue": 941,
  "Ġdismissed": 942,
  "Ġexisting": 943,
  "Ġseparate": 944,
  "Ġfavor": 945,
  "Ġdispute": 946,
  "Ġraised": 947,
  "ĠTrust": 948,
  "We": 949,
  "Ġcontends": 950,
  "Ġnext": 951,
  "Ġadded": 952,
  "Ġcar": 953,
  "ĠBy": 954,
  "Ġdismiss": 955,
  "ĠAfter": 956,
  "Ġcaused": 957,
  "Ġconcluded": 958,
  "Ġwords": 959,
  "Ġcomply": 960,
  "Ġadministrative": 961,
  "Ġconcerning": 962,
  "Ġleft": 963,
  "Ġpetitioner": 964,
  "Ġdocument": 965,
  "Ġgrounds": 966,
  "at": 967,
  "Ġmean": 968,
  "Ġorders": 969,
  "ĠOfficer": 970,
  "ĠPresident": 971,
  "Ġprotection": 972,
  "Ġensure": 973,
  "Ġschool": 974,
  "Ġbest": 975,
  "Ġpercent": 976,
  "Ġpermit": 977,
  "ĠTO": 978,
  "ĠII": 979,
  "ĊĊĊĊ": 980,
  "Ġabuse": 981,
  "Ġgo": 982,
  "al": 983,
  "Ġknown": 984,
  "Ġcontrary": 985,
  "Ġsignificant": 986,
  "Ġget": 987,
  "Ġmeeting": 988,
  "45": 989,
  "Ġanswer": 990,
  "Ġprivate": 991,
  "Ġforegoing": 992,
  "194": 993,
  "Ġgoing": 994,
  "Ġfactors": 995,
  "ĠProperty": 996,
  "Ġcharged": 997,
  "Ġassessment": 998,
  "ĠThese": 999,
  "Ġline": 1000,
  "Ġcompliance": 1001,
  "g": 1002,
  "v": 1003,
  "Ġimposed": 1004,
  "ĠAccordingly": 1005,
  "Ġverdict": 1006,
  "ĠSubsidiary": 1007,
  "ers": 1008,
  "This": 1009,
  "âĢľ": 1010,
  "ĠLLC": 1011,
  "Ġproof": 1012,
  "Ġtimes": 1013,
  ".--": 1014,
  "Ġwater": 1015,
  "Ġwhy": 1016,
  "ĠCorp": 1017,
  "Ġcash": 1018,
  "Ġoutstanding": 1019,
  "Id": 1020,
  "Ġconclude": 1021,
  "W": 1022,
  "Ġappears": 1023,
  "ĠCorporation": 1024,
  "Ġread": 1025,
  "Ġnational": 1026,
  "Ġcharges": 1027,
  "Ġconstitutional": 1028,
  "Ġfamily": 1029,
  "35": 1030,
  "m": 1031,
  "ĠAn": 1032,
  "Ġapproved": 1033,
  "Ġmillion": 1034,
  "ĠCongress": 1035,
  "Ġcross": 1036,
  "Ġduties": 1037,
  "Ġde": 1038,
  "Ġcrime": 1039,
  "ĠAlthough": 1040,
  "Ġspecifically": 1041,
  "Ġtook": 1042,
  "Ġrelationship": 1043,
  "n": 1044,
  "It": 1045,
  "ĠJustice": 1046,
  "Ġcalled": 1047,
  "Ġtransaction": 1048,
  "Ġamong": 1049,
  "Ġdelivery": 1050,
  "ĠLandlord": 1051,
  "Ġdetermining": 1052,
  "Ġtaking": 1053,
  "Ġmanagement": 1054,
  "Ġcounty": 1055,
  "k": 1056,
  "Ġagain": 1057,
  "Ġfee": 1058,
  "Ġboard": 1059,
  "Ġcomments": 1060,
  "Ġacts": 1061,
  "Ġlimitation": 1062,
  "Ġagreements": 1063,
  "Ġregulation": 1064,
  "ĠParticipant": 1065,
  "Ġpractice": 1066,
  "Ġerred": 1067,
  "Ġagrees": 1068,
  "Ġcopy": 1069,
  "Ġshare": 1070,
  "Ġowner": 1071,
  "Ġalthough": 1072,
  "Ġassistance": 1073,
  "Ġincrease": 1074,
  "Ġthereto": 1075,
  "Ġnegligence": 1076,
  "Ġallow": 1077,
  "Ġallowed": 1078,
  "Ġpreviously": 1079,
  "ĠCOURT": 1080,
  "Ġagent": 1081,
  "Ġusing": 1082,
  "Ġmeet": 1083,
  "Ġlikely": 1084,
  "Ġoperation": 1085,
  "ĠĠĠĠĠĠĠĠĠĠĠĠĠĠĠĠĠĠĠ": 1086,
  "Ġdecisions": 1087,
  "Ġcorrect": 1088,
  "Ġidentified": 1089,
  "ĠâĢľ[": 1090,
  "Ġaccept": 1091,
  "Ġapproval": 1092,
  "Ġemployer": 1093,
  "Ġsigned": 1094,
  "ĠBill": 1095,
  "Ġcommitted": 1096,
  "Ġholding": 1097,
  "Ġentity": 1098,
  "l": 1099,
  "Ġliable": 1100,
  "ĠBusiness": 1101,
  "Ġcapital": 1102,
  "Ġwant": 1103,
  "Ġexample": 1104,
  "Ġobtained": 1105,
  "Ġhours": 1106,
  "ĠHealth": 1107,
  "ĠBecause": 1108,
  "Ġincurred": 1109,
  "ĠExchange": 1110,
  "Ġoffer": 1111,
  "Ġplea": 1112,
  "ĠTexas": 1113,
  "it": 1114,
  "Ġcertificate": 1115,
  "32": 1116,
  "Ġplaintiff's": 1117,
  "Ġcapacity": 1118,
  "Ġconsistent": 1119,
  "Ġfully": 1120,
  "Ġfar": 1121,
  "Ġobtain": 1122,
  "Ġgiving": 1123,
  "Ġtrade": 1124,
  "Ġask": 1125,
  "ĠMrs": 1126,
  "Ġothers": 1127,
  "?ĊĊ": 1128,
  "Ġfair": 1129,
  "ĠWL": 1130,
  "Ġcome": 1131,
  "Ġnothing": 1132,
  "Ġfaith": 1133,
  "to": 1134,
  "K": 1135,
  "ĠCollateral": 1136,
  "ĠĠĠĠĠĠĠĠĠĠĠĠĠĠĠĠĠĠĠĠĠĠĠĠĠ": 1137,
  "ĠLtd": 1138,
  "ĠAny": 1139,
  "Ġauthorities": 1140,
  "Ġpost": 1141,
  "Ġreceipt": 1142,
  "Ġordered": 1143,
  "ĠServices": 1144,
  "36": 1145,
  "Ġdefinition": 1146,
  "33": 1147,
  "ĠAppeals": 1148,
  "Ġclaimant": 1149,
  "ĠSchedule": 1150,
  "ĠSec": 1151,
  "Ġsafety": 1152,
  "Ġsettlement": 1153,
  "ĠAmerican": 1154,
  "Ġarising": 1155,
  "ĠHolder": 1156,
  "Ġid": 1157,
  "Ġdoubt": 1158,
  "Ġbeyond": 1159,
  "Ġprejudice": 1160,
  "Ġcomplete": 1161,
  "Ġperform": 1162,
  "ĠNotice": 1163,
  "Ġcivil": 1164,
  "Ġappeals": 1165,
  "Ġpotential": 1166,
  "Ġdefault": 1167,
  "Ġthough": 1168,
  "V": 1169,
  "Ġwitnesses": 1170,
  "Ġapplies": 1171,
  "Ġbank": 1172,
  "Ġaffirmed": 1173,
  "500": 1174,
  "ĠTherefore": 1175,
  "Ġaggregate": 1176,
  "Ġlease": 1177,
  "Ġearlier": 1178,
  "Ġstandards": 1179,
  "Ġrelease": 1180,
  "Ġcontext": 1181,
  "Ġfactual": 1182,
  "Ġhouse": 1183,
  "ĠDocuments": 1184,
  "quoting": 1185,
  "Ġclaimed": 1186,
  "Ġsatisfied": 1187,
  "Ġlimitations": 1188,
  "Ġobjection": 1189,
  "90": 1190,
  "Ġsix": 1191,
  "Ġstatus": 1192,
  ".g": 1193,
  "Ġhereto": 1194,
  "Ġshowing": 1195,
  "Ġvarious": 1196,
  "Ġmonth": 1197,
  "p": 1198,
  "Ġlack": 1199,
  "Ġwaiver": 1200,
  "ĠRegulation": 1201,
  "Ġenforcement": 1202,
  "34": 1203,
  "Ġlegislation": 1204,
  "Â¶": 1205,
  "Ġshown": 1206,
  "Ġchanges": 1207,
  "ĠMotion": 1208,
  ";ĊĊ": 1209,
  "ĠSecond": 1210,
  ",ĊĊ": 1211,
  "Ġet": 1212,
  "Ġcommunity": 1213,
  "Ġsubsequent": 1214,
  "Ġregistration": 1215,
  "02": 1216,
  "Ġoffered": 1217,
  "ĠCalifornia": 1218,
  "ĠFOR": 1219,
  "Ġphysical": 1220,
  "Ġexpressly": 1221,
  "ĠRules": 1222,
  "Ġaccepted": 1223,
  "Ġseeking": 1224,
  "Ġprocedures": 1225,
  "Ġproviding": 1226,
  "ĠRights": 1227,
  "Ġadmitted": 1228,
  "Ġsold": 1229,
  "192": 1230,
  "ĠCivil": 1231,
  "Ġoff": 1232,
  "ĠWhile": 1233,
  "Ġoutside": 1234,
  "Ġopen": 1235,
  "Ġmakes": 1236,
  "Ġabsence": 1237,
  "Ġhand": 1238,
  "ĠTitle": 1239,
  "On": 1240,
  "Ġhigh": 1241,
  "ĠLease": 1242,
  "Ġdebt": 1243,
  "ĠALJ": 1244,
  "Ġfree": 1245,
  "J": 1246,
  "ĠEuropean": 1247,
  "Ġworking": 1248,
  "Ġbuilding": 1249,
  "Ġsingle": 1250,
  "Ġexecution": 1251,
  ".J": 1252,
  "Ġc": 1253,
  "\")": 1254,
  "Ġindependent": 1255,
  "Ġbrief": 1256,
  "Ġexchange": 1257,
  "Ġcontinued": 1258,
  "Ġserved": 1259,
  "Ġsole": 1260,
  "Ġwhom": 1261,
  "Ġprove": 1262,
  "Ġexplained": 1263,
  "Ġsubstantially": 1264,
  "ĠEach": 1265,
  "Ġbalance": 1266,
  "Ġactivity": 1267,
  "Ġvictim": 1268,
  "Ġsmall": 1269,
  "O": 1270,
  "Ġtransactions": 1271,
  "ĠSubsidiaries": 1272,
  "Ġdamage": 1273,
  "Ġgave": 1274,
  "Ġinvestigation": 1275,
  "ĠSmith": 1276,
  "Ġhimself": 1277,
  "Ġproducts": 1278,
  "Ġsimply": 1279,
  "Ġinitial": 1280,
  "ĠLoans": 1281,
  "191": 1282,
  "ĠParties": 1283,
  "38": 1284,
  "Ġappear": 1285,
  "ĠPart": 1286,
  "Ġremain": 1287,
  ")).": 1288,
  "Ġexpert": 1289,
  "Ġactually": 1290,
  "Ġindicated": 1291,
  "Ġlitigation": 1292,
  "Ġ\"[": 1293,
  "Ġproduct": 1294,
  "Ġsent": 1295,
  "ĠCommonwealth": 1296,
  "Section": 1297,
  "Ġtaxes": 1298,
  "Ġmaintain": 1299,
  "Ġtherein": 1300,
  "ic": 1301,
  "Ġmajority": 1302,
  "Ġimpact": 1303,
  "Ġadopted": 1304,
  "able": 1305,
  "ĠSeller": 1306,
  "Ġareas": 1307,
  "Ġpro": 1308,
  "Ġconcerned": 1309,
  "z": 1310,
  "Ġplaced": 1311,
  "Ġability": 1312,
  "Ġnotes": 1313,
  "ĠY": 1314,
  "Ġvalid": 1315,
  "Ġdirected": 1316,
  "Ġresponsible": 1317,
  "Ġassignment": 1318,
  "Ġdistribution": 1319,
  "Ġsearch": 1320,
  "le": 1321,
  "Ġbody": 1322,
  "Ġincludes": 1323,
  "Ġsupported": 1324,
  "Ġgroup": 1325,
  "Ġowned": 1326,
  "Ġpremises": 1327,
  "Ġsituation": 1328,
  "Ġeconomic": 1329,
  "ĠCommissioner": 1330,
  "39": 1331,
  "Ġdegree": 1332,
  "Ġsubmit": 1333,
  "37": 1334,
  "Ġoption": 1335,
  "r": 1336,
  "Ġmet": 1337,
  "ĠUnion": 1338,
  "Ġruling": 1339,
  "ĠSouth": 1340,
  "ĠJohn": 1341,
  "ley": 1342,
  "ar": 1343,
  "ĠÂ£": 1344,
  "Ġinstructions": 1345,
  "Ġpast": 1346,
  "Ġwarrant": 1347,
  "Ġcovered": 1348,
  "Ġdemand": 1349,
  "ĠAttorney": 1350,
  "Ġaccident": 1351,
  "Ġwhose": 1352,
  "ĠOption": 1353,
  "Ġsentencing": 1354,
  "ĠPublic": 1355,
  "Ġresults": 1356,
  "Ġscope": 1357,
  "Ġloan": 1358,
  "Ġregistered": 1359,
  "Ġenter": 1360,
  "Ġ,": 1361,
  "Ġfraud": 1362,
  "101": 1363,
  "Ġcall": 1364,
  ".P": 1365,
  "Ġinterpretation": 1366,
  "Ġrespective": 1367,
  "Ġlisted": 1368,
  "Ġarguments": 1369,
  "(e": 1370,
  "Ġneither": 1371,
  "Ġexception": 1372,
  "Ġcustody": 1373,
  "120": 1374,
  "ĠCt": 1375,
  "ĠLenders": 1376,
  "Ġmother": 1377,
  "Ġmerely": 1378,
  "Ġhistory": 1379,
  "Ġdiscussed": 1380,
  "Ġamend": 1381,
  "iv": 1382,
  "Ġgreater": 1383,
  "ĠOne": 1384,
  "ĠDefault": 1385,
  "Ġage": 1386,
  "Ġformer": 1387,
  "Ġdoing": 1388,
  "Ġfails": 1389,
  "us": 1390,
  "Ġdiscovery": 1391,
  "ĠFed": 1392,
  "41": 1393,
  "Ġentry": 1394,
  "ĠEmployee": 1395,
  "ĠTribunal": 1396,
  "Ġdecided": 1397,
  "ĠPeople": 1398,
  "Ġgreat": 1399,
  "Ġseek": 1400,
  "Ġelection": 1401,
  "Ġpolicies": 1402,
  "Ġaffect": 1403,
  "ĠTerm": 1404,
  "Ġinvestment": 1405,
  "Ġcity": 1406,
  "Ġprevent": 1407,
  "Ġbankruptcy": 1408,
  "Ġentire": 1409,
  "Ġwent": 1410,
  "75": 1411,
  ".m": 1412,
  "Ġremedy": 1413,
  "ĠInformation": 1414,
  "Ġreports": 1415,
  "Ġaffidavit": 1416,
  "Ġordinary": 1417,
  "ĠRegulations": 1418,
  "Ġprinciples": 1419,
  "110": 1420,
  "Ġcited": 1421,
  "ĠGroup": 1422,
  "Ġprocedure": 1423,
  "ĠPeriod": 1424,
  "Ġsales": 1425,
  "Ġmortgage": 1426,
  "Ġexistence": 1427,
  "ĠInterest": 1428,
  ")ĊĊ": 1429,
  "Ġwife": 1430,
  "Ġdeliver": 1431,
  "Ġequity": 1432,
  "Ġpending": 1433,
  "ĠIII": 1434,
  "56": 1435,
  "Ġremaining": 1436,
  "<PAGE": 1437,
  "Ġdenial": 1438,
  ".'": 1439,
  "Ġserious": 1440,
  "Ġapproach": 1441,
  "Ġpowers": 1442,
  "Ġforeign": 1443,
  "Ġprevious": 1444,
  "Ġaffected": 1445,
  "Ġindividuals": 1446,
  "ĠPetitioner": 1447,
  "Ġdrug": 1448,
  "Ġheard": 1449,
  "ĠOhio": 1450,
  "ĊĊĊĊĊ": 1451,
  "Ġdelay": 1452,
  "Ġproceeds": 1453,
  "Ġchallenge": 1454,
  "Ġtoo": 1455,
  "ate": 1456,
  "Ġaware": 1457,
  "Ġdesignated": 1458,
  "ie": 1459,
  "Ġkind": 1460,
  "03": 1461,
  "Ġthings": 1462,
  "ĠNorth": 1463,
  "Ġlonger": 1464,
  "Ġprotect": 1465,
  "Ġjustice": 1466,
  "u": 1467,
  "âĢĿ),": 1468,
  "Ġprotected": 1469,
  "ation": 1470,
  "Ġanything": 1471,
  "ĠSuch": 1472,
  "Ġengaged": 1473,
  "Ġpoints": 1474,
  "el": 1475,
  "Ġprimary": 1476,
  "Ġdismissal": 1477,
  "Ġscheme": 1478,
  "ĠTax": 1479,
  "Ġinstrument": 1480,
  "49": 1481,
  "Ġdisability": 1482,
  "U": 1483,
  "Ġconducted": 1484,
  "ĠRestricted": 1485,
  "Ġlimit": 1486,
  "47": 1487,
  "44": 1488,
  "citing": 1489,
  "Ġside": 1490,
  "Ġlocated": 1491,
  "Ġface": 1492,
  "Ġcreated": 1493,
  "Ġamendments": 1494,
  "ĠClosing": 1495,
  "Ġtimely": 1496,
  "ĠChief": 1497,
  "ĠWashington": 1498,
  "ĠOR": 1499,
  "Ġindustry": 1500,
  "Ġdeed": 1501,
  "Ġsubstance": 1502,
  "Ġargued": 1503,
  "ĠManagement": 1504,
  "Ġperformed": 1505,
  "ĠDoc": 1506,
  "Ġcollection": 1507,
  "Ġcoverage": 1508,
  "Ġproject": 1509,
  "Ġneeds": 1510,
  "ĠAppeal": 1511,
  "Ġthereafter": 1512,
  "Ġinstruction": 1513,
  "ia": 1514,
  "Ġequipment": 1515,
  "Ġtype": 1516,
  "Ġexamination": 1517,
  "102": 1518,
  "Ġcontracts": 1519,
  "Ġeducation": 1520,
  "ĠConstitution": 1521,
  "Ġcompanies": 1522,
  "Ġefforts": 1523,
  "Ġharm": 1524,
  "43": 1525,
  "Ġannual": 1526,
  "Ġresulting": 1527,
  "ĠRate": 1528,
  "04": 1529,
  "Ġplans": 1530,
  "Ġmeasures": 1531,
  "Ġresolution": 1532,
  "Ġofficial": 1533,
  "other": 1534,
  "Ġsolely": 1535,
  "Ġmental": 1536,
  "Ġduly": 1537,
  "Ġalternative": 1538,
  "Ġpre": 1539,
  "Ġstanding": 1540,
  "80": 1541,
  ">ĊĊ": 1542,
  "Ġresponsibility": 1543,
  "Ġarbitration": 1544,
  "ĠProcedure": 1545,
  "Tex": 1546,
  "As": 1547,
  "Ġrecover": 1548,
  "ĠĠĠĠĠĠĠĠĠĠĠĠĠĠĠĠĠĠĠĠĠĠĠĠĠĠ": 1549,
  "52": 1550,
  "Ġdisclosure": 1551,
  "ĠIssuer": 1552,
  "ĠExhibit": 1553,
  "x": 1554,
  "Ġjoint": 1555,
  "Ġweight": 1556,
  "Ġpublished": 1557,
  "}": 1558,
  "Ġgoods": 1559,
  "Ġhelp": 1560,
  "Ġten": 1561,
  "Ġlicense": 1562,
  "Ġexpected": 1563,
  "Ġconstrued": 1564,
  "Ġassigned": 1565,
  "Ġdenying": 1566,
  "Ġmoved": 1567,
  "Ġlarge": 1568,
  "Ġadverse": 1569,
  "Ġapproximately": 1570,
  "Ġattached": 1571,
  "ĠCFR": 1572,
  "],": 1573,
  "Ġfinds": 1574,
  "if": 1575,
  "Ġprinciple": 1576,
  "Ġoral": 1577,
  "Ġreported": 1578,
  "Ġmaterials": 1579,
  "ĠMembers": 1580,
  "104": 1581,
  "ĠReport": 1582,
  "Ġqualified": 1583,
  "Ġcircuit": 1584,
  "ĠDirector": 1585,
  "Ġalleges": 1586,
  "106": 1587,
  "Ġrelied": 1588,
  "-year": 1589,
  "ĠRespondent": 1590,
  "Ġsocial": 1591,
  "46": 1592,
  "ĠAD": 1593,
  "w": 1594,
  "Ġdirectors": 1595,
  "ĠAuthority": 1596,
  "Ġcontention": 1597,
  "Ġserve": 1598,
  "Ġappellate": 1599,
  "55": 1600,
  "re": 1601,
  "ĠCase": 1602,
  "Ġcommercial": 1603,
  "Ġminimum": 1604,
  "ĠIll": 1605,
  "Ġemployed": 1606,
  "Ġaccording": 1607,
  "Ġprosecution": 1608,
  "Ġshows": 1609,
  "51": 1610,
  "111": 1611,
  "Ġprepared": 1612,
  "Ġcomment": 1613,
  "Ġunable": 1614,
  ".ĊĊĊĊ": 1615,
  "Ġvote": 1616,
  "Ġmurder": 1617,
  "Ġknew": 1618,
  "ĠJohnson": 1619,
  "ĠWest": 1620,
  "Ġshort": 1621,
  "Ġ\\": 1622,
  "Ġsexual": 1623,
  "ĠPage": 1624,
  "Ġlist": 1625,
  "ĠFurther": 1626,
  "05": 1627,
  "os": 1628,
  "Ġaddressed": 1629,
  "ĠPurchaser": 1630,
  "48": 1631,
  "Ġstaff": 1632,
  "Ġviolated": 1633,
  "ĠĠĠĠĠĠĠĠĠĠĠĠĠĠĠĠ": 1634,
  "ĠStreet": 1635,
  "Ġbinding": 1636,
  "Ġexpense": 1637,
  "see": 1638,
  "Ġmerits": 1639,
  "Ġrefused": 1640,
  "Ġoperations": 1641,
  "Ġarrest": 1642,
  "Ġdischarge": 1643,
  "Ġclose": 1644,
  "Ġadequate": 1645,
  "Ġbring": 1646,
  "Ġsell": 1647,
  "Ġinformed": 1648,
  "ĠEvent": 1649,
  "Ġdoctrine": 1650,
  "Ġjob": 1651,
  "Ġcontact": 1652,
  "Ġasserted": 1653,
  "Ġcame": 1654,
  "Ġremoval": 1655,
  "j": 1656,
  "103": 1657,
  "Ġfund": 1658,
  "Ġargue": 1659,
  "190": 1660,
  "Ġsub": 1661,
  "Ġcontemplated": 1662,
  "Ġappointed": 1663,
  "ĠĠĠĠĠĠĠĠĠĠĠĠĠĠĠĠĠĠĠĠĠ": 1664,
  "ĠIndebtedness": 1665,
  "ĠMoreover": 1666,
  "Ġrecognized": 1667,
  "Ġb": 1668,
  "Ġattorneys": 1669,
  "Ġacting": 1670,
  "Ġexpress": 1671,
  "Ġrendered": 1672,
  "Ġgranting": 1673,
  "of": 1674,
  "Ġbecame": 1675,
  "Ġevents": 1676,
  "ĠDe": 1677,
  "ĠInsurance": 1678,
  "Ġtrustee": 1679,
  "Ġreturned": 1680,
  "Ġbetter": 1681,
  "Ġeligible": 1682,
  "ĠControl": 1683,
  "Ġfather": 1684,
  "ĠClass": 1685,
  "Ġdeal": 1686,
  "Ġd": 1687,
  "Ġrange": 1688,
  "Ġassociated": 1689,
  "Ġt": 1690,
  "Ġunderstand": 1691,
  "Ġcommission": 1692,
  "Ġyet": 1693,
  "Ġproduction": 1694,
  "Ġaffirm": 1695,
  "Ġ/": 1696,
  "Ġproblem": 1697,
  "Ġelements": 1698,
  "Ġwrit": 1699,
  "Ġonce": 1700,
  "ĠEx": 1701,
  "70": 1702,
  "ĠZ": 1703,
  "Ġownership": 1704,
  "Ġfollow": 1705,
  "Ġpage": 1706,
  "Ġsite": 1707,
  "ĠStatement": 1708,
  "ĠFund": 1709,
  "Ġparticularly": 1710,
  "ĠFriend": 1711,
  "Ġconvicted": 1712,
  "65": 1713,
  "Ġfailing": 1714,
  "ch": 1715,
  "105": 1716,
  "ĠObligations": 1717,
  "Ġman": 1718,
  "Ġfiscal": 1719,
  "ĠPrice": 1720,
  "Ġinvolving": 1721,
  "Ġexperience": 1722,
  "Ġtoday": 1723,
  "Ġtreated": 1724,
  "Ġmotions": 1725,
  "Ġdecree": 1726,
  "Ġpenalty": 1727,
  "Ġrates": 1728,
  "ĠPa": 1729,
  "Ġseeks": 1730,
  "Ġco": 1731,
  "ĠĠĠĠĠĠĠĠĠĠĠĠĠĠĠĠĠĠĠĠĠĠĠĠĠĠĠĠĠ": 1732,
  "Ġrequests": 1733,
  "ĠUpon": 1734,
  "Ġcompleted": 1735,
  "Ġexcess": 1736,
  "ĠWarrant": 1737,
  "ĠWith": 1738,
  "Ġissuance": 1739,
  "ĠECF": 1740,
  "Y": 1741,
  "Ġlittle": 1742,
  "Ġincreased": 1743,
  "Ġmaximum": 1744,
  "Ġtraining": 1745,
  "Ġterminate": 1746,
  "Ġdiscrimination": 1747,
  "Ġaround": 1748,
  "Ġitems": 1749,
  "Ġcreate": 1750,
  "Ġpatent": 1751,
  "Ġasserts": 1752,
  "Ġlegislative": 1753,
  "Ġattempt": 1754,
  "Ġal": 1755,
  "Ġconcerns": 1756,
  "Ġunderlying": 1757,
  "Ġinjuries": 1758,
  "ĠAm": 1759,
  "Ġintention": 1760,
  "Ġrecovery": 1761,
  "Ġterminated": 1762,
  "ĠĠĠĠĠĠĠĠĠĠĠĠĠĠĠĠĠĠ": 1763,
  "Ġfactor": 1764,
  "Ġcorporate": 1765,
  "Ġlook": 1766,
  "Ġcontinuing": 1767,
  "ĠBrown": 1768,
  "Ġsays": 1769,
  "Ġconflict": 1770,
  "://": 1771,
  "Ġlien": 1772,
  "ĠAgency": 1773,
  "Ġproceed": 1774,
  "54": 1775,
  "Ġneeded": 1776,
  "Ġexpressed": 1777,
  "Ġthereby": 1778,
  "am": 1779,
  "53": 1780,
  "ĠComplaint": 1781,
  "ĠGuarantor": 1782,
  "Ġself": 1783,
  "Ġcarry": 1784,
  "Ġinsufficient": 1785,
  "Ġtransferred": 1786,
  "Ġbar": 1787,
  "ĠCounsel": 1788,
  "ĠĠĠĠĠĠĠĠĠĠĠĠĠĠĠĠĠĠĠĠĠĠĠĠĠĠĠ": 1789,
  "Ġaccounts": 1790,
  "Ġrecent": 1791,
  "Ġraise": 1792,
  "Ġun": 1793,
  "Ġforward": 1794,
  "Ġfalse": 1795,
  "Ġfacilities": 1796,
  "Ġrequiring": 1797,
  "Ġmethod": 1798,
  "Ġinstead": 1799,
  "Ġmentioned": 1800,
  "ĠLord": 1801,
  "112": 1802,
  "ĠAward": 1803,
  "ant": 1804,
  "Ġregulatory": 1805,
  "ĠDivision": 1806,
  "Ġexceed": 1807,
  "(s": 1808,
  "ĠEPA": 1809,
  "Ġpartnership": 1810,
  "Ġholder": 1811,
  "ĠĠĠĠĠĠĠĠĠĠĠĠĠĠĠĠĠĠĠĠĠĠĠĠĠĠĠĠĠĠĠĠ": 1812,
  "Ġrole": 1813,
  "Ġadministration": 1814,
  "Ġdisposition": 1815,
  "Ġappellants": 1816,
  "Ġpolitical": 1817,
  "Ġinquiry": 1818,
  "Ġrepresentation": 1819,
  "Ġrise": 1820,
  "Ġarticle": 1821,
  "ĠWilliams": 1822,
  "Ġproblems": 1823,
  "?Ċ": 1824,
  "Ġrejected": 1825,
  "Ġremand": 1826,
  "Ġex": 1827,
  "Ġexists": 1828,
  "Ġquality": 1829,
  "Ġweek": 1830,
  "Ġparent": 1831,
  "Ġsomething": 1832,
  "06": 1833,
  "Ġsustained": 1834,
  "Ġtheory": 1835,
  "ĠSupp": 1836,
  "Ġseems": 1837,
  "Ġagents": 1838,
  "Ġrepresentative": 1839,
  "]he": 1840,
  "ĠĠĠĠĠĠĠĠĠĠĠĠĠĠĠĠĠĠĠĠĠĠĠ": 1841,
  "ad": 1842,
  "Ġsuffered": 1843,
  "un": 1844,
  "ĠLetter": 1845,
  "Ġmaintenance": 1846,
  "ĠClause": 1847,
  "Ġturn": 1848,
  "Ġacquired": 1849,
  "Ġreversed": 1850,
  "il": 1851,
  "Ġrepresented": 1852,
  "59": 1853,
  "Ġprograms": 1854,
  "ĠSenate": 1855,
  "ĠHolders": 1856,
  "Ġalone": 1857,
  "Ġproposal": 1858,
  "âĢĶĊ": 1859,
  "150": 1860,
  "Ġdecide": 1861,
  "Ġconcern": 1862,
  "Ġbound": 1863,
  "Ġfunding": 1864,
  ".âĢĻ": 1865,
  "Ġlower": 1866,
  "66": 1867,
  "ĠAccount": 1868,
  "Ġincident": 1869,
  "Ġoperating": 1870,
  "ĠPayment": 1871,
  "115": 1872,
  "Ġstatutes": 1873,
  ".Y": 1874,
  "Ġcurrently": 1875,
  "Ġdemonstrate": 1876,
  "ĠAmerica": 1877,
  "Ġavoid": 1878,
  "Doc": 1879,
  "et": 1880,
  "Ġinjunction": 1881,
  "ĉĉĉ": 1882,
  "ĠNumber": 1883,
  "Ġobserved": 1884,
  "Ġelement": 1885,
  "Ġkeep": 1886,
  "ĠSpeaker": 1887,
  "Ġreduction": 1888,
  "Ġfacility": 1889,
  "61": 1890,
  "Ġconsidering": 1891,
  ".L": 1892,
  "ĠĠĠĠĠĠĠĠĠĠĠĠĠĠĠĠĠĠĠĠĠĠĠĠĠĠĠĠĠĠĠĠĠĠĠ": 1893,
  "ĠWhat": 1894,
  "Ġcharacter": 1895,
  "ĠInternational": 1896,
  "Ġreduced": 1897,
  "ĠYou": 1898,
  "ĠHere": 1899,
  "125": 1900,
  "ĠJones": 1901,
  "son": 1902,
  "ĠĠĠĠĠĠĠĠĠĠĠĠĠĠĠĠĠĠĠĠĠĠĠĠĠĠĠĠĠĠ": 1903,
  "109": 1904,
  "Ġaway": 1905,
  "for": 1906,
  "Ġwaived": 1907,
  "Ġessential": 1908,
  "Ġnamed": 1909,
  "Ġaside": 1910,
  "ĠProgram": 1911,
  "ĠPremises": 1912,
  "Ġfew": 1913,
  "Ġprison": 1914,
  "Ġaverage": 1915,
  "Ġf": 1916,
  "Ġcertified": 1917,
  "113": 1918,
  "78": 1919,
  "Ġremedies": 1920,
  "Ġresearch": 1921,
  "Ġsaw": 1922,
  "Ġreduce": 1923,
  "\"),": 1924,
  "Ġtext": 1925,
  "Ġseries": 1926,
  "Ġenough": 1927,
  "ĠRe": 1928,
  "95": 1929,
  "Ġreviewed": 1930,
  "ĠDISTRICT": 1931,
  "Ġcount": 1932,
  "Ġmaintained": 1933,
  "Ġfeet": 1934,
  "Ġdirection": 1935,
  "ĠFlorida": 1936,
  "ĠSECTION": 1937,
  "Ġremoved": 1938,
  "Ġmodified": 1939,
  "Ġparents": 1940,
  "ĠDocument": 1941,
  "Ġcontains": 1942,
  "Ġreceiving": 1943,
  "Ġequitable": 1944,
  "ĠĠĠĠĠĠĠĠĠĠĠĠĠĠĠĠĠĠĠĠĠĠ": 1945,
  "Ġagencies": 1946,
  "Ġappellant's": 1947,
  "Ġseen": 1948,
  "Ġpassed": 1949,
  "300": 1950,
  "Ġappointment": 1951,
  "Ġsuccessor": 1952,
  "Ġmind": 1953,
  "Ġfollowed": 1954,
  "107": 1955,
  "ĠĠĠĠĠĠĠĠĠĠĠĠĠĠĠĠĠĠĠĠ": 1956,
  "Ġi": 1957,
  "Ġrestrictions": 1958,
  "ĠReview": 1959,
  "Ġfirm": 1960,
  "ity": 1961,
  "Ġhusband": 1962,
  "id": 1963,
  "Ġnet": 1964,
  "ĠThird": 1965,
  "âĢĿ).": 1966,
  "99": 1967,
  "ĠDuring": 1968,
  "ĠĠĠĠĠĠĠĠĠĠĠĠĠĠĠĠĠĠĠĠĠĠĠĠ": 1969,
  "Ġresources": 1970,
  "ĠPurchase": 1971,
  "Ġearly": 1972,
  "Ġpurchased": 1973,
  "Ġroad": 1974,
  "Ġstating": 1975,
  "Ġextension": 1976,
  "No": 1977,
  "Ġpromptly": 1978,
  "Ġattention": 1979,
  "ĠAdministration": 1980,
  "Ġlot": 1981,
  "63": 1982,
  "See": 1983,
  "he": 1984,
  "ĠQ": 1985,
  ".F": 1986,
  "Ġrefer": 1987,
  "Ġidentify": 1988,
  "Ġrepresentations": 1989,
  "Ġthemselves": 1990,
  "Ġthirty": 1991,
  "that": 1992,
  "ĠOther": 1993,
  "ors": 1994,
  "Ġapplications": 1995,
  "ine": 1996,
  "58": 1997,
  "ĠEU": 1998,
  "57": 1999,
  "130": 2000,
  "Ġexist": 2001,
  "Ġconclusions": 2002,
  "Ġplain": 2003,
  "Ġcarried": 2004,
  "ĠĠĠĠĠĠĠĠĠĠĠĠĠĠĠĠĠĠĠĠĠĠĠĠĠĠĠĠĠĠĠ": 2005,
  "Ġtwenty": 2006,
  "ĠIns": 2007,
  "Ġcommittee": 2008,
  "108": 2009,
  "85": 2010,
  "Ġpreceding": 2011,
  "Ġawarded": 2012,
  "Ġsatisfy": 2013,
  "07": 2014,
  "Ġword": 2015,
  "Ġobject": 2016,
  "Ġstay": 2017,
  "Ġvalidity": 2018,
  "Ġcent": 2019,
  ".e": 2020,
  "ĠCh": 2021,
  "ĠCertificate": 2022,
  "Ġattempted": 2023,
  "ĠAssociation": 2024,
  "Ġminutes": 2025,
  "Ġever": 2026,
  "Ġreached": 2027,
  "Ġmove": 2028,
  "Ġhigher": 2029,
  "Ġnecessarily": 2030,
  "ĠDay": 2031,
  "ĠJudgment": 2032,
  "Ġsource": 2033,
  "Ġalong": 2034,
  "Ġsense": 2035,
  "72": 2036,
  ".N": 2037,
  "Ġbond": 2038,
  "Ġremains": 2039,
  "Ġworkers": 2040,
  "Ġproduced": 2041,
  "Ġstop": 2042,
  "Ġdifficult": 2043,
  ".ĊĊĊĊĊ": 2044,
  "Ġfelony": 2045,
  "Ġpreliminary": 2046,
  "Ġalways": 2047,
  "Ġse": 2048,
  "ĠHis": 2049,
  "Ġbeginning": 2050,
  "ĠForm": 2051,
  "121": 2052,
  "ĠAccording": 2053,
  "Ġ)Ċ": 2054,
  "Ġdiscussion": 2055,
  "ra": 2056,
  "Ġmisconduct": 2057,
  "Ġcontain": 2058,
  "ĠCapital": 2059,
  "Ġm": 2060,
  ".Supp": 2061,
  "Ġoften": 2062,
  "62": 2063,
  "ĠCommunity": 2064,
  "ĠRegistration": 2065,
  "ĠBuyer": 2066,
  "ED": 2067,
  "Ġassault": 2068,
  "Ġcompetent": 2069,
  "For": 2070,
  "Ġimmunity": 2071,
  "117": 2072,
  "Ġlimits": 2073,
  "Ġsections": 2074,
  "Ġhuman": 2075,
  "Ġallege": 2076,
  "Ġunreasonable": 2077,
  "ĠRegister": 2078,
  "71": 2079,
  "Ġunit": 2080,
  "ĠSTATES": 2081,
  "Ġsubmission": 2082,
  "Ġbecomes": 2083,
  "ĠAdministrator": 2084,
  "Ġgas": 2085,
  "ĠFinancial": 2086,
  "all": 2087,
  "Ġgovernmental": 2088,
  "Ġcreditors": 2089,
  "Ġexercised": 2090,
  "Ġextended": 2091,
  "ĠCiv": 2092,
  "Ġmarks": 2093,
  "Ġindictment": 2094,
  "ĠĠĠĠĠĠĠĠĠĠĠĠĠĠĠĠĠĠĠĠĠĠĠĠĠĠĠĠ": 2095,
  "Ġinsured": 2096,
  "114": 2097,
  "by": 2098,
  "Ġresidence": 2099,
  "(f": 2100,
  "ĠChange": 2101,
  "Ġold": 2102,
  "Ġenforce": 2103,
  "-of": 2104,
  "08": 2105,
  "Q": 2106,
  "189": 2107,
  "98": 2108,
  "Ġmail": 2109,
  "Ġmen": 2110,
  ".M": 2111,
  "Ġadvice": 2112,
  "91": 2113,
  "Ġsupply": 2114,
  "97": 2115,
  "Ġlocation": 2116,
  "96": 2117,
  "Ġentities": 2118,
  "67": 2119,
  "Ġroom": 2120,
  "im": 2121,
  "Ġbegan": 2122,
  "ĠĠĠĠĠĠĠĠĠĠĠĠĠĠĠĠĠĠĠĠĠĠĠĠĠĠĠĠĠĠĠĠĠ": 2123,
  "Ġrely": 2124,
  "64": 2125,
  "Ġsetting": 2126,
  "09": 2127,
  "Ġnatural": 2128,
  "Ġcriteria": 2129,
  "ent": 2130,
  "emphasis": 2131,
  "122": 2132,
  "Ġpain": 2133,
  "Ġfire": 2134,
  "Ġprocedural": 2135,
  "93": 2136,
  "Ġdeclaration": 2137,
  "ĠJames": 2138,
  "âĢĻt": 2139,
  "Ġdebate": 2140,
  "ĠLa": 2141,
  "Ġenergy": 2142,
  "ĠĠĠĠĠĠĠĠĠĠĠĠĠĠĠĠĠĠĠĠĠĠĠĠĠĠĠĠĠĠĠĠĠĠ": 2143,
  "ĠNotwithstanding": 2144,
  "Ġliabilities": 2145,
  "Ġappellee": 2146,
  "Ġhope": 2147,
  "Ġhospital": 2148,
  "which": 2149,
  "Ġacross": 2150,
  "Ġsteps": 2151,
  "225": 2152,
  "Ġinstant": 2153,
  "ated": 2154,
  "Ġpermanent": 2155,
  "ating": 2156,
  "Ġsubmissions": 2157,
  "Ġdescription": 2158,
  "ĠMy": 2159,
  "Ġdebtor": 2160,
  "Ġinternational": 2161,
  "Ġextend": 2162,
  "116": 2163,
  "Ġparts": 2164,
  "Ġpresence": 2165,
  "If": 2166,
  "Ġinconsistent": 2167,
  "Ġacted": 2168,
  "Ġsubsequently": 2169,
  "Ġl": 2170,
  "ĠDelaware": 2171,
  "Ġfixed": 2172,
  "77": 2173,
  "83": 2174,
  "Ġconstitutes": 2175,
  "Ġrepresentatives": 2176,
  "Ġwrong": 2177,
  "Ġcheck": 2178,
  "Ġelectronic": 2179,
  "Ġaccused": 2180,
  "Ġadmission": 2181,
  "Ġ{Â¶": 2182,
  "Ġoccur": 2183,
  "Ġthought": 2184,
  "ĠRevolving": 2185,
  "ĠIV": 2186,
  "Ġunderstanding": 2187,
  "ist": 2188,
  "Ġmere": 2189,
  "Ġprescribed": 2190,
  "Ġeffects": 2191,
  "ĠIS": 2192,
  "Ġappeared": 2193,
  "ĠGentleman": 2194,
  "68": 2195,
  "um": 2196,
  "ĠTermination": 2197,
  "Ġlost": 2198,
  "Ġ#": 2199,
  "Ġtelephone": 2200,
  "Ġfall": 2201,
  "Ġexemption": 2202,
  "92": 2203,
  "ĠSocial": 2204,
  "ĠTr": 2205,
  "ations": 2206,
  "Ġbelieved": 2207,
  "Ġprofessional": 2208,
  "94": 2209,
  "-in": 2210,
  "Ġlead": 2211,
  "Ġdifference": 2212,
  "Ġpresumption": 2213,
  "Ġdirector": 2214,
  "ian": 2215,
  "Ġ|": 2216,
  "ĠFinally": 2217,
  "Ġcounts": 2218,
  "140": 2219,
  "Ġsystems": 2220,
  "ĠParliament": 2221,
  "Ġstage": 2222,
  "Ġunlawful": 2223,
  "Ġcountries": 2224,
  "-S": 2225,
  "Ġpublication": 2226,
  "Ġimpose": 2227,
  "Ġparticipation": 2228,
  "ĠUK": 2229,
  "132": 2230,
  "ĠSenior": 2231,
  "Ġ<": 2232,
  "73": 2233,
  "Ġsupporting": 2234,
  "ĠINC": 2235,
  "ĠEffective": 2236,
  "ĠThomas": 2237,
  "Ġair": 2238,
  "IN": 2239,
  "Ġintroduced": 2240,
  "118": 2241,
  "\".": 2242,
  "Ġunderstood": 2243,
  "Ġworked": 2244,
  "Ġrun": 2245,
  "81": 2246,
  "Ġdesigned": 2247,
  "Ġaid": 2248,
  "Ġprivilege": 2249,
  "ĠUS": 2250,
  "Ġappealed": 2251,
  "Ġviolations": 2252,
  "ro": 2253,
  "Ġsecure": 2254,
  "Ġcalendar": 2255,
  "Ġstand": 2256,
  "Ġillegal": 2257,
  "Ġreporting": 2258,
  "ĠFR": 2259,
  "Ġcopies": 2260,
  "Ġpractices": 2261,
  "Ġtemporary": 2262,
  "Ġmultiple": 2263,
  "Ġproduce": 2264,
  "Ġsuggested": 2265,
  "Ġindicate": 2266,
  "Ġresulted": 2267,
  "X": 2268,
  "Ġcontrolled": 2269,
  "Ġo": 2270,
  "129": 2271,
  "Ġchanged": 2272,
  "133": 2273,
  "Ġvoluntary": 2274,
  "II": 2275,
  "144": 2276,
  "250": 2277,
  "Ġobjections": 2278,
  "Ġdepartment": 2279,
  "128": 2280,
  "Ġrepresent": 2281,
  "Ġnotify": 2282,
  "ĠNon": 2283,
  "84": 2284,
  "Ġadvance": 2285,
  "Ġexclusive": 2286,
  "Ġparagraphs": 2287,
  "ĠDist": 2288,
  "Ġorganization": 2289,
  "Ġsecured": 2290,
  "Ġenvironmental": 2291,
  "Ġopinions": 2292,
  "]ĊĊ": 2293,
  "la": 2294,
  "Ġpleadings": 2295,
  "123": 2296,
  "ĠWhere": 2297,
  "Ġgenuine": 2298,
  "ner": 2299,
  "Ġminor": 2300,
  "ĠIllinois": 2301,
  ".gov": 2302,
  "119": 2303,
  "131": 2304,
  "ĠDevelopment": 2305,
  "ĠPolicy": 2306,
  "Ġreach": 2307,
  "Ġimprisonment": 2308,
  "88": 2309,
  "ell": 2310,
  "Ġcollateral": 2311,
  "(i": 2312,
  "Ġprobable": 2313,
  "Ġthroughout": 2314,
  "ĠLocal": 2315,
  "-C": 2316,
  "Ġadjustment": 2317,
  "87": 2318,
  "Ġliving": 2319,
  "69": 2320,
  "Ġinstance": 2321,
  "Ġtried": 2322,
  "Ġhead": 2323,
  "Ġproperties": 2324,
  "79": 2325,
  "-day": 2326,
  "Ġentirely": 2327,
  "74": 2328,
  "www": 2329,
  "Ġdomestic": 2330,
  "-P": 2331,
  "76": 2332,
  "].": 2333,
  "Ġadvised": 2334,
  "Ġofficials": 2335,
  "not": 2336,
  "Ġplus": 2337,
  "Ġbad": 2338,
  "Ġparticipate": 2339,
  "82": 2340,
  "Ġrecorded": 2341,
  "ĠSh": 2342,
  "Ġchapter": 2343,
  "Ġoptions": 2344,
  "Ġarrangements": 2345,
  "Ġreviewing": 2346,
  "Ġlow": 2347,
  "Ġpossibility": 2348,
  "Ġthereon": 2349,
  "Ġdeny": 2350,
  "ĠDavis": 2351,
  "Ġtechnical": 2352,
  "Ġrent": 2353,
  "89": 2354,
  "_": 2355,
  "Ġmilitary": 2356,
  "Ġeffort": 2357,
  "ĠStat": 2358,
  ".)ĊĊ": 2359,
  "Ġdisclosed": 2360,
  "ings": 2361,
  ".]": 2362,
  "ĠEnvironmental": 2363,
  "ER": 2364,
  "Ġnormal": 2365,
  "Ġinter": 2366,
  "Ġworld": 2367,
  "Ġobjective": 2368,
  "Ġoperate": 2369,
  "Ġmajor": 2370,
  "Ġforms": 2371,
  "ur": 2372,
  "ee": 2373,
  "ĠEnergy": 2374,
  "Ġstep": 2375,
  "ĠAnn": 2376,
  "ĠIs": 2377,
  "ĠUNITED": 2378,
  "ĠSeries": 2379,
  "Ġdeposit": 2380,
  "ECF": 2381,
  "86": 2382,
  "ĠLaws": 2383,
  "ĉThe": 2384,
  "Ġvoid": 2385,
  "ĠAGREEMENT": 2386,
  "Ġholders": 2387,
  "Ġnone": 2388,
  "Ġclosing": 2389,
  "Ġmain": 2390,
  "Ġhabeas": 2391,
  "Ġfavorable": 2392,
  "ĠCanada": 2393,
  ".)Ċ": 2394,
  "ĠFacility": 2395,
  "124": 2396,
  "Ġreflect": 2397,
  "Ġcredibility": 2398,
  "Ġdesign": 2399,
  "Ġprecedent": 2400,
  "ĠMiller": 2401,
  "-t": 2402,
  "Ġchallenges": 2403,
  "Ġprobation": 2404,
  "Ġlatter": 2405,
  "Ġlate": 2406,
  "ĠDirectors": 2407,
  "Ġassume": 2408,
  "Ġimproper": 2409,
  "ot": 2410,
  "se": 2411,
  "ĠEmployment": 2412,
  "ĠAmended": 2413,
  "Ġequivalent": 2414,
  "ĠCenter": 2415,
  "Ġfunction": 2416,
  "ES": 2417,
  ">": 2418,
  "Ġcover": 2419,
  "Ġsign": 2420,
  "ĠEven": 2421,
  "Ġdeceased": 2422,
  "Ġconvictions": 2423,
  "ĠProtection": 2424,
  "Ġcauses": 2425,
  "Ġoil": 2426,
  "Ġstreet": 2427,
  "Ġacquisition": 2428,
  "188": 2429,
  "180": 2430,
  "Ġconfidential": 2431,
  "Ġaccounting": 2432,
  "ĠContract": 2433,
  "Ġdeveloped": 2434,
  "Ġtestify": 2435,
  "ĠX": 2436,
  "ĠBY": 2437,
  "Ġdollars": 2438,
  "Ġreverse": 2439,
  "Ġindirectly": 2440,
  "Ġsure": 2441,
  "Ġviolence": 2442,
  "Ġmeasure": 2443,
  "Ġsentenced": 2444,
  "Ġcovenants": 2445,
  "ĠAl": 2446,
  "ĠChapter": 2447,
  "Ġowners": 2448,
  "ĠIndeed": 2449,
  "Ġcontribution": 2450,
  "Ġsubdivision": 2451,
  "ĠMortgage": 2452,
  "Ġvoting": 2453,
  "Ġfunctions": 2454,
  "ary": 2455,
  "134": 2456,
  "ĠRevenue": 2457,
  "Ġthing": 2458,
  "Plaintiff": 2459,
  "Ġgross": 2460,
  "Ġdisclose": 2461,
  "Ġmerit": 2462,
  "There": 2463,
  "Ġoffence": 2464,
  "ĠSpecial": 2465,
  "one": 2466,
  "Ġhousing": 2467,
  "ĠSince": 2468,
  "Ġrespond": 2469,
  "Ġapparent": 2470,
  "Ġfail": 2471,
  "Ġemergency": 2472,
  "ĠFiled": 2473,
  "Ġestablishing": 2474,
  "Ġbase": 2475,
  "Ġremove": 2476,
  "Ġsuggest": 2477,
  "Ġexplain": 2478,
  "Ġfloor": 2479,
  "ĠCourt's": 2480,
  "Ġseven": 2481,
  "Ġinspection": 2482,
  "Ġdetailed": 2483,
  "ard": 2484,
  "400": 2485,
  "ĠWhite": 2486,
  "Ġcommenced": 2487,
  "Ġoccurrence": 2488,
  ">Ċ": 2489,
  "Ġexplanation": 2490,
  "Ġevaluation": 2491,
  "Ġdrugs": 2492,
  "Ġexceptions": 2493,
  "ĠBuilding": 2494,
  "ĠTex": 2495,
  "Ġg": 2496,
  "Ġclient": 2497,
  "Ġweeks": 2498,
  "ĠCompensation": 2499,
  "Ġconsequences": 2500,
  "Ġcalculated": 2501,
  "ĠPennsylvania": 2502,
  "ates": 2503,
  "Ġoffender": 2504,
  "Ġmodification": 2505,
  "ĠDavid": 2506,
  "Ġwomen": 2507,
  "\",": 2508,
  "Ġlegally": 2509,
  "age": 2510,
  "Ġfront": 2511,
  "Ġrefusal": 2512,
  "ĠLimited": 2513,
  "Ġincorporated": 2514,
  "Ġaccrued": 2515,
  "CA": 2516,
  "135": 2517,
  "Ġassessed": 2518,
  "Ġcustomers": 2519,
  "Ġcommunication": 2520,
  "127": 2521,
  "Ġquite": 2522,
  "ING": 2523,
  "ies": 2524,
  "Ġineffective": 2525,
  "126": 2526,
  "Ġconspiracy": 2527,
  "Ġhalf": 2528,
  "Ġgot": 2529,
  "ĠSections": 2530,
  "Ġsoon": 2531,
  "Ġart": 2532,
  "Ġarrangement": 2533,
  "Ġalleging": 2534,
  "ins": 2535,
  "Ġsufficiently": 2536,
  "Ġacknowledged": 2537,
  "ol": 2538,
  "ĠĠĠĠĠĠĠĠĠĠĠĠĠĠĠĠĠĠĠĠĠĠĠĠĠĠĠĠĠĠĠĠĠĠĠĠĠĠĠ": 2539,
  "ĠParent": 2540,
  "Ġconversion": 2541,
  "ĠPolice": 2542,
  "Z": 2543,
  "Ġprosecutor": 2544,
  "ĠĠĠĠĠĠĠĠĠĠĠĠĠĠĠĠĠĠĠĠĠĠĠĠĠĠĠĠĠĠĠĠĠĠĠĠĠ": 2545,
  "Ġquotation": 2546,
  "Ġlands": 2547,
  "ĠSchool": 2548,
  "ĠGa": 2549,
  "Ġdespite": 2550,
  "ĠAmount": 2551,
  "ĠSch": 2552,
  "))": 2553,
  "Ġdriving": 2554,
  "Ġcertification": 2555,
  "ter": 2556,
  "Ġsatisfactory": 2557,
  "Ġassert": 2558,
  "Ġallegation": 2559,
  "Ġmoving": 2560,
  "ĠVirginia": 2561,
  "-c": 2562,
  "Ġdealing": 2563,
  "Ġoffenses": 2564,
  "whether": 2565,
  "Ġlevels": 2566,
  "Ġexpiration": 2567,
  "ne": 2568,
  "Ġdetermines": 2569,
  "om": 2570,
  "Ġbear": 2571,
  "ĠDecision": 2572,
  "Ġdrawn": 2573,
  "$": 2574,
  "Ġpercentage": 2575,
  "Ġimplied": 2576,
  "Ġitem": 2577,
  "ĠCriminal": 2578,
  "ĠHome": 2579,
  "Ġexecute": 2580,
  "Ġlabor": 2581,
  "Ġdetail": 2582,
  "ĠPty": 2583,
  "Ġdeclared": 2584,
  "ĠMarket": 2585,
  "Ġr": 2586,
  "Ġindicates": 2587,
  "ĠProject": 2588,
  "Ġsubstantive": 2589,
  "ay": 2590,
  "Ġrespondents": 2591,
  "ment": 2592,
  "Ġinjured": 2593,
  "Ġpleading": 2594,
  "Ġplanning": 2595,
  "(g": 2596,
  "Ġenvironment": 2597,
  "136": 2598,
  "ler": 2599,
  "Ġschedule": 2600,
  "ĠFurthermore": 2601,
  "ĠExcept": 2602,
  "Ġprices": 2603,
  "Ġreleased": 2604,
  "ĠĠĠĠĠĠĠĠĠĠĠĠĠĠĠĠĠĠĠĠĠĠĠĠĠĠĠĠĠĠĠĠĠĠĠĠ": 2605,
  "ĠEducation": 2606,
  "Ġinternal": 2607,
  "Ġexcluded": 2608,
  "Ġrecently": 2609,
  "Ġbudget": 2610,
  "Ġallegedly": 2611,
  "ig": 2612,
  "-based": 2613,
  "Ġinstitution": 2614,
  "ĠUniversity": 2615,
  "any": 2616,
  "ĠSenator": 2617,
  "Ġnotwithstanding": 2618,
  "Ġunpaid": 2619,
  "Ġpersonnel": 2620,
  "Ġpass": 2621,
  "Ġapplying": 2622,
  "Ġallowing": 2623,
  "Ġadd": 2624,
  "land": 2625,
  "Ġenable": 2626,
  "):": 2627,
  "Ġstrong": 2628,
  "ĠMother": 2629,
  "Ġpaper": 2630,
  "Ġcontaining": 2631,
  "Ġconcur": 2632,
  "ĠFrom": 2633,
  "Ġschools": 2634,
  "Ġdoor": 2635,
  "ĠSystem": 2636,
  "Ġarise": 2637,
  "Ġlosses": 2638,
  "Ġstudy": 2639,
  "Ġrespects": 2640,
  "Ġfood": 2641,
  "Ġtesting": 2642,
  "Ġshowed": 2643,
  "Ġowed": 2644,
  "Ġlegislature": 2645,
  "ĠClaims": 2646,
  "Ġcertainly": 2647,
  "ĠBase": 2648,
  "ĠSEC": 2649,
  "ĠRobert": 2650,
  "Ġwanted": 2651,
  "Ġbroad": 2652,
  "ĠAffiliates": 2653,
  "Ġcommunications": 2654,
  "Ġguidance": 2655,
  "Ġgun": 2656,
  "Ġmotor": 2657,
  "Ġengage": 2658,
  "Ġnotices": 2659,
  "Ġsupports": 2660,
  "ĠMar": 2661,
  "ized": 2662,
  "Ġremanded": 2663,
  "Ġprohibited": 2664,
  "Ġreliance": 2665,
  "ĠNorthern": 2666,
  "ĠNY": 2667,
  "ĠOur": 2668,
  "Ġstructure": 2669,
  "ĠApplicant": 2670,
  "404": 2671,
  "Ġspeech": 2672,
  "ĠMass": 2673,
  "ON": 2674,
  "ĠEd": 2675,
  "ĠLand": 2676,
  "Ġsettled": 2677,
  "Ġtruck": 2678,
  "ĠAustralia": 2679,
  "Ġdiscuss": 2680,
  "187": 2681,
  "Ġloans": 2682,
  "160": 2683,
  "Ġchoice": 2684,
  "ier": 2685,
  "ĠLondon": 2686,
  "Ġinference": 2687,
  "ĠMichael": 2688,
  "Ġwhatever": 2689,
  "Ġletters": 2690,
  "Ġemail": 2691,
  "ĠĠĠĠĠĠĠĠĠĠĠĠĠĠĠĠĠĠĠĠĠĠĠĠĠĠĠĠĠĠĠĠĠĠĠĠĠĠ": 2692,
  "Ġwish": 2693,
  "ĠAdditional": 2694,
  "er's": 2695,
  "Ġgoverning": 2696,
  "ĠOpinion": 2697,
  "Ġnames": 2698,
  "ĠCount": 2699,
  "Ġtell": 2700,
  "ĠAir": 2701,
  "Ġimplementation": 2702,
  "Ġstudents": 2703,
  "ĠSubject": 2704,
  "ĠDirective": 2705,
  ".B": 2706,
  "ĠAS": 2707,
  "Ġmandatory": 2708,
  "ĠGreen": 2709,
  "ĠFourth": 2710,
  "Ġgrants": 2711,
  "Ġpermits": 2712,
  "Ġetc": 2713,
  "Ġerroneous": 2714,
  "Ġthereunder": 2715,
  "Ġsupplemental": 2716,
  "ĠClaim": 2717,
  "ĠWales": 2718,
  "Ġtraffic": 2719,
  "internal": 2720,
  "Ġimmediate": 2721,
  "Ġassist": 2722,
  "ĠJJ": 2723,
  "ĠDebt": 2724,
  "\").": 2725,
  "ĠBritish": 2726,
  "ĠTreasury": 2727,
  "ĠâĢ¢": 2728,
  "per": 2729,
  "FR": 2730,
  "Ġexecutive": 2731,
  "Ġlength": 2732,
  "ĠPreferred": 2733,
  "Ġsaying": 2734,
  "Ġcomplaints": 2735,
  "Ġimportance": 2736,
  "Ġinstruments": 2737,
  "Ġbusinesses": 2738,
  "ĠBankruptcy": 2739,
  "Ġtakes": 2740,
  "Ġcritical": 2741,
  "PA": 2742,
  "Ġnovo": 2743,
  "Ġregular": 2744,
  "Ġclerk": 2745,
  "Ġkey": 2746,
  "ĠMaterial": 2747,
  "Ġlearned": 2748,
  "Ġ:": 2749,
  "Ġespecially": 2750,
  "-B": 2751,
  "EC": 2752,
  "Ġpermission": 2753,
  "ĠSuperior": 2754,
  "Ġtbe": 2755,
  "Ġconstituted": 2756,
  "her": 2757,
  "Ġstrike": 2758,
  "Ġseq": 2759,
  "Ġnoble": 2760,
  "ĠTrade": 2761,
  "Ġassociation": 2762,
  "Ġhttp": 2763,
  "205": 2764,
  "EN": 2765,
  "Ġrobbery": 2766,
  "Ġfield": 2767,
  "Ġinterested": 2768,
  "Ġcertificates": 2769,
  "Ġrepresents": 2770,
  "ĠEmployer": 2771,
  "io": 2772,
  "Ġidentification": 2773,
  "AR": 2774,
  "ĠWhether": 2775,
  "AN": 2776,
  "ĠGlobal": 2777,
  "Ġcontent": 2778,
  "Ġestimated": 2779,
  "Ġcontractor": 2780,
  "Ġcarrying": 2781,
  "Ġcommitment": 2782,
  "ĠNot": 2783,
  "Ġperiods": 2784,
  "Ġpp": 2785,
  "Ġvehicles": 2786,
  "Ġworks": 2787,
  "ĠEast": 2788,
  "*": 2789,
  "Ġregardless": 2790,
  "ak": 2791,
  "Ġcontend": 2792,
  "Ġ)": 2793,
  "152": 2794,
  "Ġinstructed": 2795,
  "ĠDC": 2796,
  "Ġredemption": 2797,
  "ton": 2798,
  "ĠWilliam": 2799,
  "Ġalmost": 2800,
  "Ġadopt": 2801,
  "-A": 2802,
  "ĠTransaction": 2803,
  "137": 2804,
  "Ġoccurs": 2805,
  "Ġdevelop": 2806,
  "Ġassumed": 2807,
  "ĠBr": 2808,
  "Ġgives": 2809,
  "ĠANY": 2810,
  "Ġconfirmed": 2811,
  "Ġaccordingly": 2812,
  "Ġsector": 2813,
  "Ġmonthly": 2814,
  "est": 2815,
  "Ġeconomy": 2816,
  "Ġyoung": 2817,
  "Ġacceptance": 2818,
  "ĉĠĉ": 2819,
  "ĠHer": 2820,
  "ens": 2821,
  "Ġtort": 2822,
  "-term": 2823,
  "ĠORDER": 2824,
  "];": 2825,
  "]Ċ": 2826,
  "-M": 2827,
  ".),": 2828,
  "Ġnegligent": 2829,
  "Ġuses": 2830,
  "Ġproposition": 2831,
  "Ġcrimes": 2832,
  "Ġaffirmative": 2833,
  "Ġfurnished": 2834,
  "Ġbasic": 2835,
  "Ġbelieves": 2836,
  "ĠIreland": 2837,
  "ĠYear": 2838,
  "Ġeight": 2839,
  "ĠClaimant": 2840,
  "ĠInvestment": 2841,
  "ĠTHIS": 2842,
  "Ġcontributions": 2843,
  "Ġmethods": 2844,
  "Ġprogress": 2845,
  "Ġrender": 2846,
  "ac": 2847,
  "ĠCommerce": 2848,
  "ĠEngland": 2849,
  "ion": 2850,
  "Ġinvalid": 2851,
  "Ġexisted": 2852,
  "Ġmarriage": 2853,
  "Ġvested": 2854,
  "ry": 2855,
  "Ġultimately": 2856,
  "Ġdriver": 2857,
  "ir": 2858,
  "Ġerrors": 2859,
  "ness": 2860,
  "Ġreferences": 2861,
  "Ġobtaining": 2862,
  "ĠAffairs": 2863,
  "Ġadequately": 2864,
  "ĠBar": 2865,
  "Ġhundred": 2866,
  "ĠRather": 2867,
  "Ġthreatened": 2868,
  "Ġrelates": 2869,
  "ĠTransfer": 2870,
  "ĊĊĊĊĊĊ": 2871,
  "ĠERISA": 2872,
  "-examination": 2873,
  "IS": 2874,
  "139": 2875,
  "Ġdanger": 2876,
  "Ġnumbers": 2877,
  "Ġpanel": 2878,
  "Ġcontractual": 2879,
  "ĠJackson": 2880,
  "Ġnear": 2881,
  "Ġjudgments": 2882,
  "Ġ;": 2883,
  ".âĢĿĊ": 2884,
  "Ġpriority": 2885,
  "Ġretained": 2886,
  "186": 2887,
  "Ġdetails": 2888,
  "Ġgoverned": 2889,
  "Ġunits": 2890,
  "Ġresponded": 2891,
  "Ġprojects": 2892,
  "Ġevidentiary": 2893,
  "Ġabsent": 2894,
  "Ġled": 2895,
  "ĠInstead": 2896,
  "ĠNO": 2897,
  "--Ċ": 2898,
  ".\"Ċ": 2899,
  "ĠPursuant": 2900,
  "Ġwarrants": 2901,
  "Ġcontroversy": 2902,
  "Ġunnecessary": 2903,
  "Ġpaying": 2904,
  "Ġjobs": 2905,
  "Ġchallenged": 2906,
  "co": 2907,
  "Ġhands": 2908,
  "ĠClerk": 2909,
  "Ġsources": 2910,
  "Ġjustify": 2911,
  "Ġsafe": 2912,
  "ĠBefore": 2913,
  "Ġcode": 2914,
  "ri": 2915,
  "ĠPark": 2916,
  "Ġhour": 2917,
  "To": 2918,
  "with": 2919,
  "Ġsentences": 2920,
  "ĠBased": 2921,
  "Ġnight": 2922,
  "Ġselected": 2923,
  "Ġnotified": 2924,
  "Ġtowards": 2925,
  "Ġconsolidated": 2926,
  "Ġhear": 2927,
  "ĠDeputy": 2928,
  "Ġcert": 2929,
  "ĠProduct": 2930,
  "Ġrecommended": 2931,
  "Ġtable": 2932,
  "Ġson": 2933,
  "Ġmodify": 2934,
  "ge": 2935,
  ".I": 2936,
  "ability": 2937,
  ".''": 2938,
  "138": 2939,
  "Ġcompetition": 2940,
  "Ġformal": 2941,
  "ĠDebtor": 2942,
  "Ġfraudulent": 2943,
  "ag": 2944,
  "Ġunion": 2945,
  "Ġoutcome": 2946,
  "Ġordinance": 2947,
  "ex": 2948,
  "Ġrelative": 2949,
  "Ġdischarged": 2950,
  "ĠAdditionally": 2951,
  "Ġacknowledges": 2952,
  "ĠSecured": 2953,
  "Ġch": 2954,
  "Ġremained": 2955,
  "ID": 2956,
  "ĠAffiliate": 2957,
  "ĠHoldings": 2958,
  "ĠRoad": 2959,
  "Ġphone": 2960,
  "AL": 2961,
  "Ġpartial": 2962,
  "600": 2963,
  "are": 2964,
  "Ġtrading": 2965,
  "Ġcommencement": 2966,
  "Ġcombination": 2967,
  "ĠUn": 2968,
  "Ġpointed": 2969,
  "Ġresolve": 2970,
  "Ġmerger": 2971,
  "Ġadoption": 2972,
  "Ġreasoning": 2973,
  "Ġlive": 2974,
  "Ġversion": 2975,
  "ĠSpecifically": 2976,
  "ĠSir": 2977,
  "ĠAction": 2978,
  "ĠTrial": 2979,
  "Ġhard": 2980,
  "Ġoffering": 2981,
  "Ġbarred": 2982,
  "Ġrecommendations": 2983,
  "ĠBoth": 2984,
  "Ġlegitimate": 2985,
  "Ġbooks": 2986,
  "ĠVII": 2987,
  "ĠManager": 2988,
  "AS": 2989,
  "Ġrepresenting": 2990,
  "ĠForeign": 2991,
  "Ġsubstitute": 2992,
  "Ġrepair": 2993,
  "Ġwholly": 2994,
  "Ġestimate": 2995,
  "Ġimprovements": 2996,
  "em": 2997,
  "no": 2998,
  "ive": 2999,
  "Ġviolate": 3000,
  "Ġ||": 3001,
  "Ġpatient": 3002,
  "Ġdeposition": 3003,
  "Ġpunishment": 3004,
  "ĠOf": 3005,
  "Ġdiscovered": 3006,
  "Ġretirement": 3007,
  "By": 3008,
  "Ġstore": 3009,
  "Ġtechnology": 3010,
  "Ġomission": 3011,
  "Ġprofits": 3012,
  "Ġreply": 3013,
  "Ġwithdraw": 3014,
  "At": 3015,
  "Ġabsolute": 3016,
  "ĠEvidence": 3017,
  "ĠLe": 3018,
  "Ġpension": 3019,
  "Ġresponsibilities": 3020,
  "ĠRecord": 3021,
  "Ġnumerous": 3022,
  "Ġresolved": 3023,
  "ĠNor": 3024,
  "OR": 3025,
  "Ġinfluence": 3026,
  "ĠDocket": 3027,
  "Ġassertion": 3028,
  "ĠName": 3029,
  "Ġh": 3030,
  "Ġreally": 3031,
  "Ġblood": 3032,
  "Ġbeneficiary": 3033,
  "ick": 3034,
  "Ġtaxpayer": 3035,
  "Ġguidelines": 3036,
  "Ġinvolve": 3037,
  "Ġadmissible": 3038,
  "Ġallows": 3039,
  "-to": 3040,
  "Defendant": 3041,
  "Ġcorrectly": 3042,
  "Ġpartner": 3043,
  "ĠHuman": 3044,
  "ĠCO": 3045,
  "ance": 3046,
  "ĠWithout": 3047,
  "ĠIndian": 3048,
  "Ġ:Ċ": 3049,
  "ĠINFORMATION": 3050,
  "ab": 3051,
  "Ġdocumentation": 3052,
  "Ġinvolves": 3053,
  "ĠWilson": 3054,
  "Ġpertinent": 3055,
  "Ġwarranty": 3056,
  "Ġtherefor": 3057,
  "Ġtypes": 3058,
  "ĠSan": 3059,
  "Ġdraft": 3060,
  "Ġthreat": 3061,
  "ĠLien": 3062,
  "Ġspent": 3063,
  "Ġsatisfaction": 3064,
  "Ġcreditor": 3065,
  "ĠPartnership": 3066,
  "Ġmanager": 3067,
  "Ġpopulation": 3068,
  "Ġindeed": 3069,
  "Ġconsumer": 3070,
  "Ġacceptable": 3071,
  "Ġfundamental": 3072,
  "Ġcustomer": 3073,
  "Ġeffectively": 3074,
  "Ġstriking": 3075,
  "Ġcompletion": 3076,
  "Ġautomobile": 3077,
  "ĠFinance": 3078,
  "Ġproved": 3079,
  "ĠStandard": 3080,
  "ĠBE": 3081,
  "----ĊĊ": 3082,
  "Ġinstitutions": 3083,
  "ut": 3084,
  "Ġsignature": 3085,
  "Ġreading": 3086,
  "ĠSE": 3087,
  "Ġbegin": 3088,
  "ĠOr": 3089,
  "-s": 3090,
  "ling": 3091,
  "Ġsize": 3092,
  "Ġenacted": 3093,
  "Ġpleaded": 3094,
  "Ġoperated": 3095,
  "ĠBorrowers": 3096,
  "Ġsets": 3097,
  "Ġcitizens": 3098,
  "/C": 3099,
  "Ġspecies": 3100,
  "Ġ*Ċ": 3101,
  "Ġcommit": 3102,
  "Ġcovenant": 3103,
  "ĠCompany's": 3104,
  "Ġwar": 3105,
  "Ġbelief": 3106,
  "ĠApplication": 3107,
  "op": 3108,
  "ĠWill": 3109,
  "Ġfourth": 3110,
  "ĠEquity": 3111,
  "Ġconsultation": 3112,
  "Ġbonds": 3113,
  "ans": 3114,
  "Ġapparently": 3115,
  "-Ċ": 3116,
  "ĠMich": 3117,
  "Ġexamined": 3118,
  "Ġdates": 3119,
  "IC": 3120,
  "Ġpenalties": 3121,
  "Ġretain": 3122,
  "ĠEnglish": 3123,
  "Ġexcessive": 3124,
  "Ġrecommendation": 3125,
  "Ġlawful": 3126,
  "ĠAgreements": 3127,
  "Ġforum": 3128,
  "ĠVolume": 3129,
  "Ġwaste": 3130,
  "Ġrespectively": 3131,
  "ĠORDERED": 3132,
  "ĠSummary": 3133,
  "Ġlet": 3134,
  "Ġimprove": 3135,
  "ĠCarolina": 3136,
  "Ġactive": 3137,
  "les": 3138,
  "Ġfiduciary": 3139,
  "ĠEstate": 3140,
  "Ġfriend": 3141,
  "Ġdebts": 3142,
  "Ġinitially": 3143,
  "Ġportions": 3144,
  "Ġcollected": 3145,
  "ĠIT": 3146,
  "170": 3147,
  "Ġought": 3148,
  "Ġplant": 3149,
  "Ġperhaps": 3150,
  "Ġtoward": 3151,
  "An": 3152,
  "ĠHill": 3153,
  "-d": 3154,
  "Ġrefers": 3155,
  "Ġbeneficial": 3156,
  "ĠTaylor": 3157,
  "Ġapplicants": 3158,
  "ĠFifth": 3159,
  "Ġassigns": 3160,
  "-R": 3161,
  "Ġpersonally": 3162,
  "Ġreject": 3163,
  "ce": 3164,
  "-f": 3165,
  "Ġexclusion": 3166,
  "Ġsuggests": 3167,
  "Ġjustified": 3168,
  "Ġviews": 3169,
  "Ġpositive": 3170,
  "RA": 3171,
  "Ġpremium": 3172,
  "Ġharmless": 3173,
  "Ġrisks": 3174,
  "Ġways": 3175,
  "Ġinsurer": 3176,
  "Ġkept": 3177,
  "Ġconsiderations": 3178,
  "Ġrest": 3179,
  "141": 3180,
  "ĠYes": 3181,
  "Ġdemonstrated": 3182,
  "Ġmark": 3183,
  "Ġsomeone": 3184,
  "Ġoverall": 3185,
  "Ġunfair": 3186,
  "Ġjuvenile": 3187,
  "Ġsound": 3188,
  "Ġcoming": 3189,
  "Ġvirtue": 3190,
  "ĠNeither": 3191,
  "ĠProducts": 3192,
  "Ġdangerous": 3193,
  "Ġpurchaser": 3194,
  "151": 3195,
  "Ġsimple": 3196,
  "Ġed": 3197,
  "ĠUnits": 3198,
  "Ġtransportation": 3199,
  "Ġanyone": 3200,
  "301": 3201,
  "401": 3202,
  "ĠKingdom": 3203,
  "Ġlawsuit": 3204,
  "203": 3205,
  "Ġsalary": 3206,
  "Appellant": 3207,
  "Ġidentity": 3208,
  "AC": 3209,
  "IT": 3210,
  "ĠDefense": 3211,
  ")ĊĊĊ": 3212,
  "ments": 3213,
  "ĠJersey": 3214,
  "Ġlaid": 3215,
  "ĠĠĠĠĠĠĠĠĠĠĠĠĠĠĠĠĠĠĠĠĠĠĠĠĠĠĠĠĠĠĠĠĠĠĠĠĠĠĠĠĠ": 3216,
  "Ġoverruled": 3217,
  "Ġaffecting": 3218,
  "Ġdon't": 3219,
  "ow": 3220,
  "ĠAnderson": 3221,
  "Ġbehind": 3222,
  "Ġdevice": 3223,
  "Ġcategory": 3224,
  "Ġsuccessful": 3225,
  "ĠĠĠĠĠĠĠĠĠĠĠĠĠĠĠĠĠĠĠĠĠĠĠĠĠĠĠĠĠĠĠĠĠĠĠĠĠĠĠĠ": 3226,
  "-related": 3227,
  "Ġstart": 3228,
  "Ġscheduled": 3229,
  "Ġarrested": 3230,
  "Ġdisagree": 3231,
  "Ġclosed": 3232,
  "Ġsued": 3233,
  "ĠHarris": 3234,
  "Ġopposition": 3235,
  "Ġsex": 3236,
  "ĠRiver": 3237,
  "Ġgroups": 3238,
  "ĠLiens": 3239,
  "ĠRegulatory": 3240,
  "ĠFather": 3241,
  "Ġlines": 3242,
  "Ġspace": 3243,
  "ou": 3244,
  "ĠImmigration": 3245,
  "Ġhappened": 3246,
  "185": 3247,
  "Ġattack": 3248,
  "Ġcomes": 3249,
  "ĠLegal": 3250,
  "Ġdocket": 3251,
  "Ġcouncil": 3252,
  "Ġelected": 3253,
  "Ġfocus": 3254,
  "-up": 3255,
  ".\\": 3256,
  "Ġfacie": 3257,
  "Ġfirearm": 3258,
  "Ġarises": 3259,
  "Ġw": 3260,
  "Ġsufficiency": 3261,
  "ĠHon": 3262,
  "ĠConvention": 3263,
  "Ġcomplied": 3264,
  "Ġcapable": 3265,
  "ĠAssistant": 3266,
  "ĠLessee": 3267,
  "Ġinterpreted": 3268,
  "Ġconsequence": 3269,
  "ĠBureau": 3270,
  "Ġproposals": 3271,
  "ĠChairman": 3272,
  "ally": 3273,
  "Ġexamine": 3274,
  "ill": 3275,
  "ĠOwner": 3276,
  "Ġcontended": 3277,
  "Ġguarantee": 3278,
  "Ġobvious": 3279,
  "Ġregister": 3280,
  "ĠLegislature": 3281,
  "ĠJr": 3282,
  "ĠLabor": 3283,
  "Ġconference": 3284,
  "Ġshareholders": 3285,
  "Ġbillion": 3286,
  "ĠGeorge": 3287,
  "ĠFinal": 3288,
  "der": 3289,
  "ĠBorrowing": 3290,
  "ĠCommitment": 3291,
  "ham": 3292,
  "Ġphysician": 3293,
  "Ġselling": 3294,
  "ĠAvenue": 3295,
  "Ġenforceable": 3296,
  "Ġinterview": 3297,
  "Ġtravel": 3298,
  "holding": 3299,
  "Ġrelies": 3300,
  "Ġprima": 3301,
  "Ġcut": 3302,
  "Ġclaiming": 3303,
  "Ġcalls": 3304,
  "Ġsanctions": 3305,
  "ĠMedical": 3306,
  "Ġdisputed": 3307,
  "Ġasset": 3308,
  "Ġsevere": 3309,
  "Ġwithholding": 3310,
  "Ġvia": 3311,
  "Ġguilt": 3312,
  "ĠâĢ¦": 3313,
  "Ġoccasion": 3314,
  "Ġfinancing": 3315,
  "Ġfamilies": 3316,
  "Ġdefend": 3317,
  "ĠMaster": 3318,
  "ĠPerformance": 3319,
  "Ġindebtedness": 3320,
  "Ġexempt": 3321,
  "Ġentering": 3322,
  "ĠCrim": 3323,
  "Ġequally": 3324,
  "Ġplaces": 3325,
  "Ġcontinues": 3326,
  "Ġdismissing": 3327,
  "ĠLee": 3328,
  "âĢ¢": 3329,
  "ĠDkt": 3330,
  "Ġprisoner": 3331,
  "Ġabused": 3332,
  "Ġmaterially": 3333,
  "Ġimpairment": 3334,
  "Ġassess": 3335,
  "ec": 3336,
  "Ġdifficulty": 3337,
  "Ġenactment": 3338,
  "Ġapartment": 3339,
  "Ã©": 3340,
  "Ġfairly": 3341,
  "Ġvessel": 3342,
  "Ġdisabled": 3343,
  "Ġcalculation": 3344,
  "ĠSTATE": 3345,
  "US": 3346,
  "Ġacquire": 3347,
  "was": 3348,
  "ĠMartin": 3349,
  "Sec": 3350,
  "ĠCare": 3351,
  "Ġdisease": 3352,
  "Ġdivision": 3353,
  "ĠWater": 3354,
  "800": 3355,
  "Ġcollect": 3356,
  ".âĢĻâĢĿ": 3357,
  "Ġprimarily": 3358,
  "Ġrevenue": 3359,
  "Ġago": 3360,
  "Ġadvanced": 3361,
  "210": 3362,
  "ke": 3363,
  "-time": 3364,
  "Ġdisputes": 3365,
  "Ġdraw": 3366,
  "Ġresident": 3367,
  "ĠThose": 3368,
  "ĠKing": 3369,
  "Ġmeetings": 3370,
  "ĠRegistrable": 3371,
  "ĠWork": 3372,
  "ĠIndiana": 3373,
  "ford": 3374,
  "ĠParagraph": 3375,
  "Ġsociety": 3376,
  "Ġidentical": 3377,
  "Ġwrote": 3378,
  "ville": 3379,
  "Ġtenant": 3380,
  "Ġseparately": 3381,
  "ĠLife": 3382,
  "ĠInternal": 3383,
  "Ġframework": 3384,
  "Ġleaving": 3385,
  "ĠServicer": 3386,
  "ĠTaxes": 3387,
  "Ġoriginally": 3388,
  "Ġcocaine": 3389,
  "ĠSafety": 3390,
  "Ġinserting": 3391,
  "ĠGrant": 3392,
  "Ġrecognize": 3393,
  "Ġpar": 3394,
  "ĠCentral": 3395,
  "ĠHigh": 3396,
  "con": 3397,
  "ĠPro": 3398,
  "ore": 3399,
  "Ġsupervision": 3400,
  "Ġtruth": 3401,
  "THE": 3402,
  "Ġannounced": 3403,
  "ĠUnit": 3404,
  "ous": 3405,
  "Ġvoluntarily": 3406,
  "ĠĠĠĠĠĠĠĠĠĠĠĠĠĠĠĠĠĠĠĠĠĠĠĠĠĠĠĠĠĠĠĠĠĠĠĠĠĠĠĠĠĠĠ": 3407,
  "145": 3408,
  "citation": 3409,
  "Ġopposed": 3410,
  "Ġnamely": 3411,
  "Ġinfringement": 3412,
  "Ġclauses": 3413,
  "154": 3414,
  "ĠAppellants": 3415,
  "Ġsuperior": 3416,
  "ap": 3417,
  "-CV": 3418,
  "âĢĿ,": 3419,
  ".;": 3420,
  "ĠMichigan": 3421,
  "(A": 3422,
  "Ġprepare": 3423,
  "ĠON": 3424,
  "Ġspeak": 3425,
  "ure": 3426,
  "142": 3427,
  "CO": 3428,
  "ĠMo": 3429,
  "end": 3430,
  "ĠBe": 3431,
  "ĠNet": 3432,
  "ise": 3433,
  "ĠFair": 3434,
  "Ġpractical": 3435,
  "Ġmemorandum": 3436,
  "Ġundisputed": 3437,
  "ĠInd": 3438,
  "Ġtests": 3439,
  ");Ċ": 3440,
  "Ġtaxable": 3441,
  "409": 3442,
  "Ġsuccess": 3443,
  "Ġprofit": 3444,
  "Ġseem": 3445,
  "ul": 3446,
  "ĠShare": 3447,
  "Ġauthorization": 3448,
  "Ġdivorce": 3449,
  "Ġhereafter": 3450,
  "Ġrelate": 3451,
  "its": 3452,
  "Ġfuel": 3453,
  "Ġarrived": 3454,
  "Ġmorning": 3455,
  "ĠCash": 3456,
  "Ġalcohol": 3457,
  "Ġpreparation": 3458,
  "ĠCODE": 3459,
  "-cv": 3460,
  "Ġinform": 3461,
  "Ġstation": 3462,
  "Ġdistinction": 3463,
  "Ġtrying": 3464,
  "Ġpursue": 3465,
  "Ġfine": 3466,
  "Ġcontrolling": 3467,
  "wood": 3468,
  "Ġending": 3469,
  "Ġsuspension": 3470,
  "153": 3471,
  "Ġfigures": 3472,
  "ĠInvestor": 3473,
  "od": 3474,
  "ĠTwo": 3475,
  "Ġreplacement": 3476,
  "Ġwaive": 3477,
  "ĠColumbia": 3478,
  "Ġobligated": 3479,
  "Ġdeciding": 3480,
  "Ġsuccessors": 3481,
  "but": 3482,
  "Ġelse": 3483,
  "ĠRight": 3484,
  "ĠCommission's": 3485,
  "Ġachieve": 3486,
  "204": 3487,
  "Ġarguing": 3488,
  "Ġtown": 3489,
  "Ġnegotiations": 3490,
  "Ġtranscript": 3491,
  "field": 3492,
  "-law": 3493,
  "Ġimprovement": 3494,
  ")]": 3495,
  "ĠPrincipal": 3496,
  "ĠIowa": 3497,
  "Ġbehavior": 3498,
  "Ġcolleagues": 3499,
  "SECTION": 3500,
  "Ġimproperly": 3501,
  "Ġmagistrate": 3502,
  "Ġperforming": 3503,
  "ĠMemorandum": 3504,
  "ip": 3505,
  "ĉĠĠĉĠ": 3506,
  "Ġparole": 3507,
  "143": 3508,
  "ĠSome": 3509,
  "Ġreceives": 3510,
  "ĠNOT": 3511,
  "ĠOptions": 3512,
  "ĠInitial": 3513,
  "Ġpatients": 3514,
  "Ġsubparagraph": 3515,
  "Ġruled": 3516,
  "Ġtwelve": 3517,
  "147": 3518,
  "Ġmonitoring": 3519,
  "ĠGeorgia": 3520,
  "ĠRep": 3521,
  "Ġwarranties": 3522,
  "Ġvictims": 3523,
  "ator": 3524,
  "Ġdealt": 3525,
  "ĠMaryland": 3526,
  "Ġtribunal": 3527,
  "Ġprovider": 3528,
  "ĠFamily": 3529,
  "ĠSale": 3530,
  "Ġcomputer": 3531,
  "Ġdied": 3532,
  ".âĢĿĊĊ": 3533,
  "Ġcitation": 3534,
  "Ġsignificantly": 3535,
  "ĠVa": 3536,
  "Article": 3537,
  "212": 3538,
  "Ġjurors": 3539,
  "Ġqualify": 3540,
  "Ġlimiting": 3541,
  "ĠPower": 3542,
  "res": 3543,
  "ĠPaul": 3544,
  "Ġassign": 3545,
  "Ġrequesting": 3546,
  "Ġreimbursement": 3547,
  "Ġexpenditure": 3548,
  "ĠValue": 3549,
  "ĠÂ¶Â¶": 3550,
  "Ġmodel": 3551,
  "Ġjudges": 3552,
  "ĠPrime": 3553,
  "240": 3554,
  "146": 3555,
  "out": 3556,
  "Ġwithheld": 3557,
  "Ġ($": 3558,
  "ĠBell": 3559,
  "162": 3560,
  "ĉĠĉĠ": 3561,
  "SA": 3562,
  "Ġquarter": 3563,
  "Ġprobably": 3564,
  "350": 3565,
  "Ġciting": 3566,
  "-D": 3567,
  "ite": 3568,
  "such": 3569,
  "Ġconversation": 3570,
  "Ġadding": 3571,
  "be": 3572,
  "Ġsustain": 3573,
  "ĠIncome": 3574,
  "Ġimplement": 3575,
  "Ġstudent": 3576,
  "ĠScott": 3577,
  "Ġundersigned": 3578,
  "Ġsupplied": 3579,
  "Ġinferences": 3580,
  "Ġexcluding": 3581,
  "Ġcompel": 3582,
  "155": 3583,
  "way": 3584,
  "ah": 3585,
  "ĠHall": 3586,
  "Ġdeterminations": 3587,
  ":ĊĊĊ": 3588,
  "Ġpracticable": 3589,
  "ĠNos": 3590,
  "ĠTime": 3591,
  "Ġrevised": 3592,
  "(ii": 3593,
  "Ġlawyer": 3594,
  "Ġrel": 3595,
  "Ġpromote": 3596,
  "La": 3597,
  "ĠEffect": 3598,
  "Ġoccasions": 3599,
  "Ġserving": 3600,
  "Ġdesignation": 3601,
  "ĠSp": 3602,
  "ĠRepublic": 3603,
  "Ġmistake": 3604,
  "Ġassessments": 3605,
  "Ġaddresses": 3606,
  "Ġtry": 3607,
  "ĠMoore": 3608,
  "ism": 3609,
  "Ġexposure": 3610,
  "ĠHospital": 3611,
  "ĠTotal": 3612,
  "Ġdefence": 3613,
  "Fla": 3614,
  "Ġadministrator": 3615,
  "Ġquoted": 3616,
  "149": 3617,
  "Ġregarded": 3618,
  "Ġcentral": 3619,
  "ĠFollowing": 3620,
  "Ġphrase": 3621,
  "Ġwages": 3622,
  "Ġprospective": 3623,
  "ĠBudget": 3624,
  "When": 3625,
  "220": 3626,
  "Ġasking": 3627,
  "Ġentirety": 3628,
  "Ġforeclosure": 3629,
  "Ġweapon": 3630,
  "ĠCourts": 3631,
  "Ġconsiders": 3632,
  "Ġaffidavits": 3633,
  "Ġtreat": 3634,
  "Ġpartners": 3635,
  "Ġerr": 3636,
  "Ġfurnish": 3637,
  "-p": 3638,
  "Ġdetention": 3639,
  "%)": 3640,
  "ions": 3641,
  "ish": 3642,
  "ĠJoint": 3643,
  "Ġadvantage": 3644,
  "Ġaffairs": 3645,
  "ix": 3646,
  "Ġcausing": 3647,
  "Ġindividually": 3648,
  "Ġparental": 3649,
  "Ġyield": 3650,
  "Ġstarted": 3651,
  "Ġacknowledge": 3652,
  ".G": 3653,
  "Ġholds": 3654,
  "Ġundertaking": 3655,
  "Ġsuspended": 3656,
  "Ġwhatsoever": 3657,
  "-m": 3658,
  "Ġindicating": 3659,
  "Ġopening": 3660,
  "Ġlesser": 3661,
  "Ġcarrier": 3662,
  "157": 3663,
  "Ġauthorize": 3664,
  "ization": 3665,
  "Ġattorney's": 3666,
  "ĠComm": 3667,
  "-party": 3668,
  "Ġnegative": 3669,
  "Ġwelfare": 3670,
  "ĠLouisiana": 3671,
  "ĠSe": 3672,
  "Ġrunning": 3673,
  "Ġcomplainant": 3674,
  "Ġdiscretionary": 3675,
  "ĠLewis": 3676,
  "161": 3677,
  "Ġ]": 3678,
  "âĢĳ": 3679,
  "Ġexclude": 3680,
  "Ġobjected": 3681,
  "Ġsend": 3682,
  "ĠTennessee": 3683,
  "Ġobjectives": 3684,
  "ĠCharles": 3685,
  "Ġanswered": 3686,
  "-b": 3687,
  "ĉBy": 3688,
  "156": 3689,
  "Ġtransport": 3690,
  "Ġexperts": 3691,
  "Ġproviders": 3692,
  "ĠÂ§Â§": 3693,
  "ĠĠĠĠĠĠĠĠĠĠĠĠĠĠĠĠĠĠĠĠĠĠĠĠĠĠĠĠĠĠĠĠĠĠĠĠĠĠĠĠĠĠ": 3694,
  "Ġpreserve": 3695,
  "Ġpositions": 3696,
  ".T": 3697,
  "Ġfell": 3698,
  "oc": 3699,
  "Ġfeel": 3700,
  ".âĢĶ": 3701,
  "Ġconcludes": 3702,
  "ĠApplicable": 3703,
  "ĠBlack": 3704,
  "|": 3705,
  "ĠScotland": 3706,
  "Ġaggravated": 3707,
  "Ġstrategy": 3708,
  "Ġvacate": 3709,
  "ĠPrior": 3710,
  "Ġallowance": 3711,
  "Ġaspects": 3712,
  "Ġasserting": 3713,
  "LE": 3714,
  "less": 3715,
  "Ġindemnity": 3716,
  "Ġpassage": 3717,
  "III": 3718,
  "148": 3719,
  "224": 3720,
  "Ġbackground": 3721,
  "our": 3722,
  "Ġleading": 3723,
  "ĠPost": 3724,
  "Ġorganizations": 3725,
  "ĠAPPEALS": 3726,
  "Ġcard": 3727,
  "Ġdefect": 3728,
  "ĠProposed": 3729,
  "183": 3730,
  "Ġres": 3731,
  "ĠAR": 3732,
  "Ġcombined": 3733,
  "Ġrailroad": 3734,
  "Ġpapers": 3735,
  "ĠAssets": 3736,
  "ĠLords": 3737,
  "well": 3738,
  "Ġdistributed": 3739,
  "\"The": 3740,
  "Ġturned": 3741,
  "Ġestoppel": 3742,
  ").ĊĊĊ": 3743,
  "Ġrefusing": 3744,
  "Ġnotification": 3745,
  "ised": 3746,
  "Ġarticles": 3747,
  "Ġthank": 3748,
  "184": 3749,
  "Ġestablishes": 3750,
  "(h": 3751,
  "Ġcease": 3752,
  "ĠARTICLE": 3753,
  "ile": 3754,
  "ĠWestern": 3755,
  "ĠThompson": 3756,
  "Ġconsiderable": 3757,
  "Ġst": 3758,
  "Ġpara": 3759,
  "Ġattributable": 3760,
  "ts": 3761,
  "ĠCA": 3762,
  "Ġnearly": 3763,
  "Ġresidential": 3764,
  "Ġcomplained": 3765,
  "ĠEl": 3766,
  "ĠCrown": 3767,
  "Ġgoes": 3768,
  "Ġtrain": 3769,
  "Ġrestriction": 3770,
  "Ġcontempt": 3771,
  "Ġchief": 3772,
  "Ġcompletely": 3773,
  "ĠYoung": 3774,
  "Ġsimilarly": 3775,
  "Ġcitizen": 3776,
  "ĠHow": 3777,
  "Ġtop": 3778,
  "ĠLessor": 3779,
  "Ġsums": 3780,
  "165": 3781,
  "Ġelect": 3782,
  "ĠClark": 3783,
  "ĠPatent": 3784,
  "EL": 3785,
  "Ġparticipants": 3786,
  "ĉĠĠĉ": 3787,
  "ĠFAA": 3788,
  "Ġwrongful": 3789,
  ".-": 3790,
  "Ġassumption": 3791,
  "âĢĿ.": 3792,
  "Ġeducational": 3793,
  "Ġautomatically": 3794,
  "ĠArea": 3795,
  "Ġhighly": 3796,
  "Ġdistinct": 3797,
  "Ġgentleman": 3798,
  "Ġgrowth": 3799,
  "Ġindirect": 3800,
  "ĠCon": 3801,
  "Ġbearing": 3802,
  "Ġprocessing": 3803,
  "Ġjail": 3804,
  "Ġprejudicial": 3805,
  "Ġjointly": 3806,
  "Ġnecessity": 3807,
  "Ġbills": 3808,
  "Ġmunicipal": 3809,
  "Ġongoing": 3810,
  "ĠAppellee": 3811,
  "Ġfiles": 3812,
  "Ġcorpus": 3813,
  "Ġdesire": 3814,
  "qu": 3815,
  "Ġfigure": 3816,
  "Ġstorage": 3817,
  "Ġresidents": 3818,
  "Ġhighway": 3819,
  "Ġspecify": 3820,
  "Ġstopped": 3821,
  "ĠMagistrate": 3822,
  "Ġstockholders": 3823,
  "Ġeligibility": 3824,
  "Ġlooking": 3825,
  "vi": 3826,
  "Ġlicensed": 3827,
  "181": 3828,
  "ĠAppellate": 3829,
  "Ġraises": 3830,
  "Ġmoment": 3831,
  "Ġalter": 3832,
  "Ġaudit": 3833,
  "001": 3834,
  "Ġcontrols": 3835,
  "ide": 3836,
  "ĠSettlement": 3837,
  "ĠAustralian": 3838,
  "Ġemployers": 3839,
  "Ġestablishment": 3840,
  "Ġrace": 3841,
  "211": 3842,
  "ize": 3843,
  "Ġrestricted": 3844,
  "Ġdaughter": 3845,
  "ĠState's": 3846,
  "Ġpetitioners": 3847,
  "Ġconsolidation": 3848,
  "208": 3849,
  "Ġvalues": 3850,
  "Ġdaily": 3851,
  "ĠGiven": 3852,
  "Ġarose": 3853,
  "Ġderived": 3854,
  "Ġworth": 3855,
  "Ġemotional": 3856,
  "IA": 3857,
  "Ġfalls": 3858,
  "except": 3859,
  "ĠIssuing": 3860,
  "182": 3861,
  "Ġearnings": 3862,
  "ĠNW": 3863,
  "ĠConstruction": 3864,
  "-month": 3865,
  "ass": 3866,
  "Ġjurisdictional": 3867,
  "Ġspouse": 3868,
  "Ġliquidation": 3869,
  "Ġutility": 3870,
  "Ġultimate": 3871,
  "ĠTransportation": 3872,
  "ĠVice": 3873,
  "Ġconveyance": 3874,
  "Ġvisit": 3875,
  "-l": 3876,
  "ĠĠĠĠĠĠĠĠĠĠĠĠĠĠĠĠĠĠĠĠĠĠĠĠĠĠĠĠĠĠĠĠĠĠĠĠĠĠĠĠĠĠĠĠ": 3877,
  "158": 3878,
  "ĠLAW": 3879,
  "PAGE": 3880,
  "ĠAN": 3881,
  "Ġpromise": 3882,
  "Ġnine": 3883,
  "Ġappoint": 3884,
  "ob": 3885,
  "Ġprivacy": 3886,
  "ĠMissouri": 3887,
  "ĠSub": 3888,
  "Ġlieu": 3889,
  ",''": 3890,
  "ĠAssembly": 3891,
  "ik": 3892,
  "ire": 3893,
  "Ġgain": 3894,
  "Ġfear": 3895,
  "Ġbringing": 3896,
  "Ġexercising": 3897,
  "ĠGuidelines": 3898,
  "Ġwebsite": 3899,
  "Ġindustrial": 3900,
  "Ġconferred": 3901,
  "175": 3902,
  "Ġoperator": 3903,
  "Ġconsumers": 3904,
  "Ġfinally": 3905,
  "Ġdeposited": 3906,
  "Ġopportunities": 3907,
  "ĠRent": 3908,
  "ĠResearch": 3909,
  "Ġreligious": 3910,
  "Ġexpect": 3911,
  "Ġconcluding": 3912,
  "Ġvideo": 3913,
  "Pa": 3914,
  "Ġpreclude": 3915,
  "230": 3916,
  "ĠChicago": 3917,
  "Ġapprove": 3918,
  "ĠSupplemental": 3919,
  "Ġentitlement": 3920,
  "Under": 3921,
  "Ġcommunities": 3922,
  "Ġcontrast": 3923,
  "ĠPersons": 3924,
  "Ġmembership": 3925,
  "All": 3926,
  "IV": 3927,
  "Ġparking": 3928,
  "ĠPl": 3929,
  "Ġintend": 3930,
  "Ġaccurate": 3931,
  "Ġformed": 3932,
  "Ġsurvive": 3933,
  "ĠConsolidated": 3934,
  "art": 3935,
  "171": 3936,
  "Ġthreshold": 3937,
  "Ġmutual": 3938,
  "Ġadjusted": 3939,
  "Ġcl": 3940,
  "Ġsurvey": 3941,
  "Ġcommerce": 3942,
  "ĠDep": 3943,
  "ĠCommercial": 3944,
  "168": 3945,
  "Ġbook": 3946,
  "Ġknowingly": 3947,
  "Ġproceeded": 3948,
  "ĠRichard": 3949,
  "Ġplead": 3950,
  ".com": 3951,
  "Ġindemnification": 3952,
  "Ġviewed": 3953,
  "ĠSouthern": 3954,
  "ĠReserve": 3955,
  "Ġawards": 3956,
  "167": 3957,
  "Ġbuildings": 3958,
  "Ġfarm": 3959,
  "Ġimposition": 3960,
  "Ġadversely": 3961,
  "ĠRev": 3962,
  "Ġconnected": 3963,
  "Ġselection": 3964,
  "Ġemissions": 3965,
  "ĠSuper": 3966,
  "Ġbears": 3967,
  "ast": 3968,
  "Ġindemnify": 3969,
  "ĠPayments": 3970,
  "700": 3971,
  "Ġlicence": 3972,
  "ve": 3973,
  "ĠOil": 3974,
  "Ġprogramme": 3975,
  "ĠPermitted": 3976,
  "Ġmaintaining": 3977,
  "RE": 3978,
  "au": 3979,
  "Ġacres": 3980,
  "169": 3981,
  "ĠAr": 3982,
  "Ġavailability": 3983,
  "Ġad": 3984,
  "Ġcircumstance": 3985,
  "red": 3986,
  "Ġmeant": 3987,
  "Ġsuffer": 3988,
  "ĠWITH": 3989,
  "ach": 3990,
  "ĠEC": 3991,
  "Ġimpossible": 3992,
  "ice": 3993,
  "163": 3994,
  "ud": 3995,
  "Ġanswers": 3996,
  "Ġgetting": 3997,
  "ĠAnnual": 3998,
  "Ġblack": 3999,
  "Ġfit": 4000,
  "Tr": 4001,
  "Ġdeduction": 4002,
  "St": 4003,
  "Ġsubsidiary": 4004,
  "Ġoffices": 4005,
  "Ġlived": 4006,
  "Ġremainder": 4007,
  "Ġprohibition": 4008,
  "Ġtaxation": 4009,
  "Ġdividends": 4010,
  "ib": 4011,
  "Ġmention": 4012,
  "Ġjuror": 4013,
  "Ġdis": 4014,
  "Ġreflected": 4015,
  "ĠComments": 4016,
  "Ġdifficulties": 4017,
  "Ġreceiver": 4018,
  "Ġreturns": 4019,
  "Before": 4020,
  "Ġbanks": 4021,
  "Ġcontents": 4022,
  "Ġappearance": 4023,
  "Ġattend": 4024,
  "Ġwide": 4025,
  "Ġpresents": 4026,
  "Ġexhibits": 4027,
  "Ġsenior": 4028,
  "Ġfault": 4029,
  "ĠMd": 4030,
  "Ġdecline": 4031,
  "sic": 4032,
  "Ġspeed": 4033,
  "ĠAmericans": 4034,
  "TI": 4035,
  "Ġpassenger": 4036,
  "Ġstruck": 4037,
  "Ġinstances": 4038,
  "206": 4039,
  "Ġdeadline": 4040,
  "Ġregional": 4041,
  "Ġcomparable": 4042,
  "Ġwilling": 4043,
  "-F": 4044,
  "Ġ=": 4045,
  "Ġdeclined": 4046,
  "ĠMark": 4047,
  "Ġinvolvement": 4048,
  "AP": 4049,
  "501": 4050,
  "led": 4051,
  "ĠGas": 4052,
  "Ġjoined": 4053,
  "Ġindication": 4054,
  "Ġmisleading": 4055,
  "Ġintentional": 4056,
  "Ġreflects": 4057,
  "Ġallocated": 4058,
  "Ġfelt": 4059,
  "Ġtransmission": 4060,
  "Ġsubmits": 4061,
  "Ġreplaced": 4062,
  "Ġmiles": 4063,
  "Ġdeclaratory": 4064,
  "Ġhighest": 4065,
  "Ġdemands": 4066,
  "Ġconducting": 4067,
  "Ġrequisite": 4068,
  "215": 4069,
  "citations": 4070,
  "Ġworker": 4071,
  "ĠWood": 4072,
  "207": 4073,
  "Ġessentially": 4074,
  "ĠAllen": 4075,
  "Ġlives": 4076,
  "ĠDays": 4077,
  "Ġunconstitutional": 4078,
  "Ġended": 4079,
  "Ġdiscussions": 4080,
  "Ġpressure": 4081,
  "Ġcell": 4082,
  "Ġproportion": 4083,
  "Ġoffers": 4084,
  "Ġmarijuana": 4085,
  "Ġgrand": 4086,
  "Ġconcept": 4087,
  "ĠGovernmental": 4088,
  "ĠRequest": 4089,
  "Ġcorresponding": 4090,
  "Ġnorth": 4091,
  "Ġbuy": 4092,
  "ĠStandards": 4093,
  "Ġlikelihood": 4094,
  "Ġrental": 4095,
  "Ġcon": 4096,
  "550": 4097,
  "Ġtrustees": 4098,
  "ĠSixth": 4099,
  "Ġcomplex": 4100,
  "collectively": 4101,
  "Ġtransfers": 4102,
  "ĠReal": 4103,
  "ĠCar": 4104,
  "Ġparticipating": 4105,
  "Ġadjudication": 4106,
  "Ġrevocation": 4107,
  "That": 4108,
  "Ġcomponent": 4109,
  "Ġpages": 4110,
  "Ġpotentially": 4111,
  "Ġusual": 4112,
  "ĠConn": 4113,
  "Ġdoctor": 4114,
  "Ġjoin": 4115,
  "ĠFarm": 4116,
  "ĠLong": 4117,
  "ĠHousing": 4118,
  "Ġnevertheless": 4119,
  "ĠDec": 4120,
  "Ġrefuse": 4121,
  "ver": 4122,
  "ial": 4123,
  "Ġfreedom": 4124,
  "Ġinside": 4125,
  "-five": 4126,
  "Ġmandate": 4127,
  "Ġreconsideration": 4128,
  "After": 4129,
  "Ġchecks": 4130,
  ".H": 4131,
  "Ġinadequate": 4132,
  "Ġinterference": 4133,
  "Ġretaliation": 4134,
  "ĠGen": 4135,
  "Ġaccommodation": 4136,
  "Ġsubsidiaries": 4137,
  "ert": 4138,
  "Ġsupplement": 4139,
  "Ġtheft": 4140,
  "Ġcontest": 4141,
  "Ġforfeiture": 4142,
  "ĠChild": 4143,
  ".âĢĿ).": 4144,
  "ĠOPINION": 4145,
  "159": 4146,
  "als": 4147,
  "Ġstrict": 4148,
  "Ġcorporations": 4149,
  "ĠOperating": 4150,
  "ĠNow": 4151,
  "Ġscene": 4152,
  "Ġpublicly": 4153,
  "ĠMexico": 4154,
  "Ġwage": 4155,
  "over": 4156,
  "Ġsitting": 4157,
  "Ġowing": 4158,
  "Ġdividend": 4159,
  "ey": 4160,
  "Ġtrack": 4161,
  "Ġpunitive": 4162,
  "Ġdirections": 4163,
  "Ġteam": 4164,
  "ĠAdverse": 4165,
  "Ġtask": 4166,
  "Ġconfirm": 4167,
  "ĠCause": 4168,
  "Ġanti": 4169,
  "ett": 4170,
  "Ġmarketing": 4171,
  "178": 4172,
  "Ġrecovered": 4173,
  "ĠDo": 4174,
  "303": 4175,
  "ĠConsequently": 4176,
  "ĠResponse": 4177,
  "ĠFee": 4178,
  "under": 4179,
  "ĠCosts": 4180,
  "ock": 4181,
  "Ġease": 4182,
  "Ġaccompanied": 4183,
  "aw": 4184,
  "Ġharassment": 4185,
  "Ġarbitrator": 4186,
  "Ġsometimes": 4187,
  "ATION": 4188,
  "ĠVI": 4189,
  "Ġevidenced": 4190,
  "Ġpermitting": 4191,
  "ĠFood": 4192,
  "ĠRelease": 4193,
  "Ġen": 4194,
  "Ġdiligence": 4195,
  "ĠConfidential": 4196,
  "Ġreserve": 4197,
  "IL": 4198,
  "Dkt": 4199,
  "Ġlacked": 4200,
  "Ġorganized": 4201,
  "ĠEurope": 4202,
  "Ġwithdrawal": 4203,
  "Ġmanifest": 4204,
  "ĠChina": 4205,
  "ĠAT": 4206,
  "Ġeffectiveness": 4207,
  "ĠStatutes": 4208,
  "ants": 4209,
  "Ġmaintains": 4210,
  "310": 4211,
  "Although": 4212,
  "Ġsymptoms": 4213,
  "ĠMedicare": 4214,
  "nd": 4215,
  "Ġcovering": 4216,
  "Ġpeace": 4217,
  "ĠCommitments": 4218,
  "Ġtherefrom": 4219,
  "ind": 4220,
  "Ġherself": 4221,
  "ĠArt": 4222,
  ".Civ": 4223,
  "ĠMot": 4224,
  "Ġcomprehensive": 4225,
  "Ġconclusive": 4226,
  "355": 4227,
  "ich": 4228,
  "Ġcarefully": 4229,
  "Ġdouble": 4230,
  "Ġwarranted": 4231,
  "ĠMatter": 4232,
  "Ġencourage": 4233,
  "Ġcreation": 4234,
  "Ġreorganization": 4235,
  "ĠForce": 4236,
  "me": 4237,
  "Ġreserved": 4238,
  "Ġcompared": 4239,
  "Ġimpacts": 4240,
  "Ġincreases": 4241,
  "Ġsituated": 4242,
  "750": 4243,
  "ence": 4244,
  "Ġcurrency": 4245,
  "ale": 4246,
  "Ġconceded": 4247,
  "ĠJudicial": 4248,
  "166": 4249,
  "Ġincreasing": 4250,
  "ĠLine": 4251,
  "Ġcategories": 4252,
  "Ġ--": 4253,
  "ĠPetition": 4254,
  "Ġinsert": 4255,
  "ĠDefendant's": 4256,
  "Ġtalk": 4257,
  "Ġsurrounding": 4258,
  "AT": 4259,
  "ĠHonour": 4260,
  "Ġsuppress": 4261,
  "Ġsuggestion": 4262,
  "164": 4263,
  "Ġearned": 4264,
  "177": 4265,
  "Ġemploy": 4266,
  "ĠGuarantee": 4267,
  "172": 4268,
  "Ġclients": 4269,
  "Ġsavings": 4270,
  "ĠConversion": 4271,
  "ĠTable": 4272,
  "Ġbeneficiaries": 4273,
  "Ġsp": 4274,
  "Ġoccurring": 4275,
  "Ġinjunctive": 4276,
  "AM": 4277,
  "ĠCOMPANY": 4278,
  "ĠĠĠĠĠĠĠĠĠĠĠĠĠĠĠĠĠĠĠĠĠĠĠĠĠĠĠĠĠĠĠĠĠĠĠĠĠĠĠĠĠĠĠĠĠĠ": 4279,
  "Ġcites": 4280,
  "Ġresponses": 4281,
  "ics": 4282,
  "ino": 4283,
  "ĠDistribution": 4284,
  "ĠAlso": 4285,
  "Ġexplicitly": 4286,
  "ĠSupport": 4287,
  "Ġcollective": 4288,
  "Ġidea": 4289,
  "(B": 4290,
  "Ġhearings": 4291,
  "ĠLiability": 4292,
  "Ġevaluate": 4293,
  "Ġforced": 4294,
  "ty": 4295,
  "Ġmaturity": 4296,
  "405": 4297,
  "ĠInterests": 4298,
  "ĠDoes": 4299,
  "Judgment": 4300,
  "ative": 4301,
  "shall": 4302,
  "Ġcoal": 4303,
  "Ġcharter": 4304,
  "ĠAssignment": 4305,
  "Ġplay": 4306,
  "ĠEligible": 4307,
  "MA": 4308,
  "251": 4309,
  "Ġpromulgated": 4310,
  "Ġcancellation": 4311,
  "Ġconveyed": 4312,
  "Ġallocation": 4313,
  "Ġshot": 4314,
  "Ġsituations": 4315,
  "Ġflow": 4316,
  "ĠNothing": 4317,
  "Ġaddressing": 4318,
  "Ġmaster": 4319,
  "ĠArmy": 4320,
  "New": 4321,
  "Ġduration": 4322,
  "Ġremember": 4323,
  "Ġdecedent": 4324,
  "Ġissuing": 4325,
  "ists": 4326,
  "Ġconsecutive": 4327,
  "Ġrecognition": 4328,
  "Ġprobability": 4329,
  "Ġaircraft": 4330,
  "Ġconfidence": 4331,
  "ĠCLR": 4332,
  "ĠJoseph": 4333,
  "173": 4334,
  "Ġidentifying": 4335,
  "Ġintervention": 4336,
  "TS": 4337,
  "Ġestimates": 4338,
  "Ġdisciplinary": 4339,
  "Ġproposes": 4340,
  "302": 4341,
  "Ġcounter": 4342,
  "og": 4343,
  "Ġinterim": 4344,
  "off": 4345,
  "Ġrelying": 4346,
  "Ġassignee": 4347,
  "Ġplacement": 4348,
  "ĠMore": 4349,
  "403": 4350,
  "Ġsouth": 4351,
  "up": 4352,
  ".O": 4353,
  "Ġrecording": 4354,
  "or's": 4355,
  "360": 4356,
  "Ġrelations": 4357,
  "ĠPacific": 4358,
  "ĠRepresentatives": 4359,
  "402": 4360,
  "Ġattempting": 4361,
  "ĠData": 4362,
  "ĠMac": 4363,
  "Ġcollectively": 4364,
  "Ġwhereas": 4365,
  "Ġpertaining": 4366,
  "Ġsurface": 4367,
  "ĠPac": 4368,
  "ĠAwards": 4369,
  "Tenn": 4370,
  "ĠRt": 4371,
  "Ġpurported": 4372,
  "Ġusually": 4373,
  "Ġoffences": 4374,
  "Ġmeets": 4375,
  "Ġsort": 4376,
  ")).ĊĊ": 4377,
  "ĠHaving": 4378,
  "Ġassuming": 4379,
  "Ġadjustments": 4380,
  "Ġbreached": 4381,
  "ĠPractice": 4382,
  "Ġexpired": 4383,
  "Ġreasonableness": 4384,
  "AD": 4385,
  "Ġsixty": 4386,
  "477": 4387,
  "Ġhereinafter": 4388,
  "416": 4389,
  "RO": 4390,
  "ĠWn": 4391,
  "ĠUnless": 4392,
  ".Rptr": 4393,
  "Ġirrelevant": 4394,
  "Ġabsolutely": 4395,
  "ĠAC": 4396,
  "ĠAnnex": 4397,
  "LA": 4398,
  "Ġpresumed": 4399,
  "ĠAmendments": 4400,
  "Ġvaluation": 4401,
  "213": 4402,
  "ĠJudges": 4403,
  "ĠPre": 4404,
  "Ġsuitable": 4405,
  "-L": 4406,
  "ĠCanadian": 4407,
  "Ġprocesses": 4408,
  "MS": 4409,
  "Ġattempts": 4410,
  "ĠCom": 4411,
  "Ġproving": 4412,
  "ĉS": 4413,
  "Ġbrother": 4414,
  "Ġcontinuance": 4415,
  "Ġunreasonably": 4416,
  "Ġreversal": 4417,
  "int": 4418,
  "Ġdependent": 4419,
  "TH": 4420,
  "Ġenforced": 4421,
  "Ġarmed": 4422,
  "ov": 4423,
  "Ġquantity": 4424,
  "Ġrational": 4425,
  "Ġreferring": 4426,
  "West": 4427,
  "Lord": 4428,
  "Ġwillful": 4429,
  "ĠEn": 4430,
  "ĠNevertheless": 4431,
  "Ġmanufacturing": 4432,
  "ĠMassachusetts": 4433,
  "ĠAsset": 4434,
  "Ġdisregard": 4435,
  "Ġimposing": 4436,
  "Ġbid": 4437,
  "Ġred": 4438,
  "Ġfifteen": 4439,
  "[s": 4440,
  "Ġtarget": 4441,
  "ĠResources": 4442,
  "179": 4443,
  "ĠUse": 4444,
  "ĠWalker": 4445,
  "ĠIndemnitee": 4446,
  "Ġdesignate": 4447,
  "Ġafforded": 4448,
  "lin": 4449,
  "Ġhearsay": 4450,
  "ĠCross": 4451,
  "ĠRes": 4452,
  "DA": 4453,
  "Ġconvenience": 4454,
  "ĠFURTHER": 4455,
  "Ġinmate": 4456,
  "Ġla": 4457,
  "ĠArizona": 4458,
  "Ġcure": 4459,
  "Ġannum": 4460,
  "ĠExercise": 4461,
  "Ġextensive": 4462,
  "Ġexceeds": 4463,
  "Ġdeveloping": 4464,
  ",'": 4465,
  "ane": 4466,
  "Ġdivided": 4467,
  "ĠFord": 4468,
  "Ġundertaken": 4469,
  "Ġbroker": 4470,
  "DE": 4471,
  "ĠĠĠĠĠĠĠĠĠĠĠĠĠĠĠĠĠĠĠĠĠĠĠĠĠĠĠĠĠĠĠĠĠĠĠĠĠĠĠĠĠĠĠĠĠ": 4472,
  "242": 4473,
  "Ġrating": 4474,
  "Ġscientific": 4475,
  "oy": 4476,
  "Ġappellees": 4477,
  "Ġcounterclaim": 4478,
  "Ġstudies": 4479,
  "Ġapplicant's": 4480,
  "Ġsuits": 4481,
  "ĠWright": 4482,
  "Ġbodies": 4483,
  "Ġclasses": 4484,
  "ĠPlaintiff's": 4485,
  "ĠCompanies": 4486,
  "Ġimplementing": 4487,
  "Ġstipulated": 4488,
  "ators": 4489,
  "Ġimmigration": 4490,
  "ical": 4491,
  "berg": 4492,
  "Ġprohibit": 4493,
  "270": 4494,
  "CC": 4495,
  "CH": 4496,
  "Ġdistance": 4497,
  "Ġfacilitate": 4498,
  "ĠWorld": 4499,
  "Ġrepeatedly": 4500,
  "ĠWis": 4501,
  "ĠDel": 4502,
  "ĠPartner": 4503,
  "Ġcreating": 4504,
  "Ġdifferences": 4505,
  "this": 4506,
  "Ġwoman": 4507,
  "Ġlooked": 4508,
  "ĠCompliance": 4509,
  "ys": 4510,
  "Ġfifty": 4511,
  "att": 4512,
  "Ġpetitioner's": 4513,
  "Ġaspect": 4514,
  "280": 4515,
  "we": 4516,
  "ĠAccounts": 4517,
  "Ġgrievance": 4518,
  "Ġopposite": 4519,
  "Ġcontested": 4520,
  "Ġpassing": 4521,
  "Ġremarks": 4522,
  "ĠRegistrar": 4523,
  "te": 4524,
  "Ġdescribe": 4525,
  "Ġcontingent": 4526,
  "Ġalia": 4527,
  "Ġheirs": 4528,
  "Ġmarkets": 4529,
  "Ġdistribute": 4530,
  "209": 4531,
  "Ġinvestors": 4532,
  "Ġdefective": 4533,
  "Ex": 4534,
  "izing": 4535,
  "Ġrenewal": 4536,
  "ong": 4537,
  "Plaintiffs": 4538,
  "Ġreform": 4539,
  "Ġraising": 4540,
  "Ġleases": 4541,
  "214": 4542,
  "Ġpet": 4543,
  "Ġdefenses": 4544,
  "Ġcenter": 4545,
  "Ġknows": 4546,
  "Ġcars": 4547,
  "ger": 4548,
  "Ġclassification": 4549,
  "Ġspending": 4550,
  "Ġparticipant": 4551,
  "Ġfairness": 4552,
  "Ġtherewith": 4553,
  "Ġrefund": 4554,
  "Ġcredible": 4555,
  "IP": 4556,
  "Ġanticipated": 4557,
  "Ġdrive": 4558,
  "Ġsuffering": 4559,
  "Ġguardian": 4560,
  ".).": 4561,
  "ĠBay": 4562,
  "ĠTown": 4563,
  "ber": 4564,
  "ina": 4565,
  "ĠOnce": 4566,
  "Ġspoke": 4567,
  "176": 4568,
  "Ġtenants": 4569,
  "a's": 4570,
  "Ġexpression": 4571,
  "ĠGood": 4572,
  "Ġbodily": 4573,
  "Ġsec": 4574,
  "ST": 4575,
  "ĠCertificates": 4576,
  "ĠSimilarly": 4577,
  "-Ohio": 4578,
  "ons": 4579,
  "Ġsubd": 4580,
  "ĠDue": 4581,
  "ĠPer": 4582,
  "Ġcontentions": 4583,
  "ĠSO": 4584,
  "ĠGuaranty": 4585,
  "Ġstipulation": 4586,
  "ĠRobinson": 4587,
  "ĠCl": 4588,
  "ĠAss": 4589,
  "Ġprevented": 4590,
  "Ġgone": 4591,
  "ĠColorado": 4592,
  "Ġterritory": 4593,
  "ĠTreaty": 4594,
  "av": 4595,
  "ĠIndemnified": 4596,
  "ĉC": 4597,
  "ĠVan": 4598,
  "-H": 4599,
  "Ġadmit": 4600,
  "Ġassignments": 4601,
  "Ġknowing": 4602,
  "Ġpresident": 4603,
  "Ġheart": 4604,
  "ĠLake": 4605,
  "Ġvenue": 4606,
  "Ġmachine": 4607,
  "Ġbriefs": 4608,
  "ĠSc": 4609,
  "Ġsecuring": 4610,
  "Ġsurrender": 4611,
  "Ġliberty": 4612,
  "Ġj": 4613,
  "Ġafford": 4614,
  "Ġefficiency": 4615,
  "ash": 4616,
  "Ġrulings": 4617,
  "Ġimplemented": 4618,
  "Ġcommencing": 4619,
  "Ġ.ĊĊ": 4620,
  "Ġtreating": 4621,
  "Ġexperienced": 4622,
  "Ġshareholder": 4623,
  "Ġx": 4624,
  "ĠOver": 4625,
  "ub": 4626,
  "de": 4627,
  "Ġpretrial": 4628,
  "ĠĠĠĠĠĠĠĠĠĠĠĠĠĠĠĠĠĠĠĠĠĠĠĠĠĠĠĠĠĠĠĠĠĠĠĠĠĠĠĠĠĠĠĠĠĠĠ": 4629,
  "Company": 4630,
  "Ġdissolution": 4631,
  "]n": 4632,
  "Ġvacated": 4633,
  "'n": 4634,
  "Ġinvestments": 4635,
  "Ġcompetitive": 4636,
  "Ġmarried": 4637,
  "260": 4638,
  "ĠTh": 4639,
  "Ġvaluable": 4640,
  "290": 4641,
  "Ġstolen": 4642,
  "ĠLabour": 4643,
  "231": 4644,
  "222": 4645,
  "Ġcareful": 4646,
  "Ġprejudiced": 4647,
  "ĠUN": 4648,
  "ll": 4649,
  "ĠRed": 4650,
  "Ġmonetary": 4651,
  "Ġconstructive": 4652,
  "ĠNone": 4653,
  "Ġbargaining": 4654,
  "Ġopposing": 4655,
  "Ġwarning": 4656,
  "Ġsignificance": 4657,
  "Ġvolume": 4658,
  "Ġlicenses": 4659,
  "ĠFire": 4660,
  "):Ċ": 4661,
  "ang": 4662,
  "Ġarbitrary": 4663,
  "174": 4664,
  "Ġintroduce": 4665,
  "Ġaffiliates": 4666,
  "ĠRE": 4667,
  "ĠJournal": 4668,
  "Ġexactly": 4669,
  "216": 4670,
  "ĠAd": 4671,
  "Ġseparation": 4672,
  "Ġachieved": 4673,
  "Ġjustification": 4674,
  "Fed": 4675,
  "ĠFla": 4676,
  "ĠACT": 4677,
  "Date": 4678,
  "so": 4679,
  "ĠFees": 4680,
  "Ġsuspect": 4681,
  "Ġmanufacturer": 4682,
  "ĠDismiss": 4683,
  "Ġdemurrer": 4684,
  "ĠKansas": 4685,
  "ĠSales": 4686,
  "ered": 4687,
  "ĠIndustrial": 4688,
  "Ġshooting": 4689,
  "Ġabandoned": 4690,
  "SE": 4691,
  "ĊĊĊĊĊĊĊ": 4692,
  "Ġlacks": 4693,
  ")),": 4694,
  "may": 4695,
  "Ġelsewhere": 4696,
  "ĠFrank": 4697,
  "ĠScottish": 4698,
  "Ġunenforceable": 4699,
  "Ġdemonstrates": 4700,
  "ĠRequired": 4701,
  "Ġchallenging": 4702,
  "iz": 4703,
  "241": 4704,
  "ĠCoast": 4705,
  "ĠEighth": 4706,
  "Ġphase": 4707,
  "ĠExpenses": 4708,
  "Ġrestitution": 4709,
  "ĠCan": 4710,
  "Ġinterfere": 4711,
  "Ġaccord": 4712,
  "Ġconvincing": 4713,
  "hereinafter": 4714,
  "Ġfriends": 4715,
  "ĠMiss": 4716,
  "Ġchoose": 4717,
  "-off": 4718,
  "ĠID": 4719,
  "Ġprevailing": 4720,
  "Ġmarked": 4721,
  "Ġlisting": 4722,
  "ĠGovernment's": 4723,
  "Ġliens": 4724,
  "ĠIRS": 4725,
  "ĠĠĠĠĠĠĠĠĠĠĠĠĠĠĠĠĠĠĠĠĠĠĠĠĠĠĠĠĠĠĠĠĠĠĠĠĠĠĠĠĠĠĠĠĠĠĠĠ": 4726,
  "Ġpress": 4727,
  "ĠGrantor": 4728,
  "Ġspecifications": 4729,
  "Ġdepends": 4730,
  "Ġsecondary": 4731,
  "ĠWar": 4732,
  "Ġcommence": 4733,
  "ĠDef": 4734,
  "Ġregion": 4735,
  "Ġcitations": 4736,
  "Ġrepeated": 4737,
  "221": 4738,
  "âĢĶthe": 4739,
  "ue": 4740,
  "Ġdevices": 4741,
  "Ġmanufacture": 4742,
  "-the": 4743,
  "Ġlay": 4744,
  "Ġmovement": 4745,
  "Ġwhite": 4746,
  "-half": 4747,
  "Ġclosely": 4748,
  "Ġfrequently": 4749,
  "ĠTechnology": 4750,
  "ney": 4751,
  "232": 4752,
  "Ġguaranteed": 4753,
  "ĠOffer": 4754,
  "Ġgoals": 4755,
  "Ġshortly": 4756,
  "Ġsue": 4757,
  "ĠVol": 4758,
  "Ġdeprived": 4759,
  "Ġpreponderance": 4760,
  "Ġconflicts": 4761,
  "Ġexceeding": 4762,
  "Ġlargely": 4763,
  "Ġunusual": 4764,
  "Ġconverted": 4765,
  "ĠChancellor": 4766,
  "305": 4767,
  "ĠFunds": 4768,
  "ters": 4769,
  "Ġextraordinary": 4770,
  "Ġconstitution": 4771,
  "âĢĿ);": 4772,
  "Ġfishing": 4773,
  "Ġcontribute": 4774,
  "292": 4775,
  "Ġchance": 4776,
  "Ġcontractors": 4777,
  "Ġupheld": 4778,
  "ful": 4779,
  "Ġadult": 4780,
  "Ġtalking": 4781,
  "Ġassessing": 4782,
  "Ġenhancement": 4783,
  "Ġneglect": 4784,
  "ĠAppendix": 4785,
  "Ġinability": 4786,
  "Ġretail": 4787,
  "Ġexclusively": 4788,
  "ĠWell": 4789,
  "Ġreaching": 4790,
  "Ġviolates": 4791,
  "351": 4792,
  "Ġnetwork": 4793,
  "227": 4794,
  "Ġrespondent's": 4795,
  "ĠAcquisition": 4796,
  "-G": 4797,
  "Ġtraditional": 4798,
  "Ġinappropriate": 4799,
  "ĉName": 4800,
  "Ġpreferred": 4801,
  "ĠCol": 4802,
  "Ġconsents": 4803,
  "Ġpresentation": 4804,
  "-T": 4805,
  "Ġpetitions": 4806,
  "Ġreducing": 4807,
  "Ġbox": 4808,
  "Ġ(``": 4809,
  "Ġinvestigate": 4810,
  "502": 4811,
  "ĠMary": 4812,
  "ĠEastern": 4813,
  "Ġfavour": 4814,
  "Ġdisposed": 4815,
  "Ġuseful": 4816,
  "Ġmisrepresentation": 4817,
  "ĠReform": 4818,
  "ĠTHAT": 4819,
  "Ġclinical": 4820,
  "ĠInternet": 4821,
  "Ġseized": 4822,
  "Ġseizure": 4823,
  "ĠSC": 4824,
  "email": 4825,
  "ĠCompl": 4826,
  "ath": 4827,
  "ĠDollars": 4828,
  "People": 4829,
  "TA": 4830,
  "Ġfoot": 4831,
  "ack": 4832,
  "Ġrecall": 4833,
  "450": 4834,
  "Ġadvise": 4835,
  "..": 4836,
  "Ġenterprise": 4837,
  "Ġreads": 4838,
  "Ġinsolvency": 4839,
  "Ġforces": 4840,
  "ess": 4841,
  "Ġkilled": 4842,
  "Ġdeposits": 4843,
  "MP": 4844,
  "Ġvessels": 4845,
  "Ġsheet": 4846,
  "Ġtender": 4847,
  "Ġdeparture": 4848,
  "ĉĉĠ": 4849,
  "Ġadvertising": 4850,
  "Ġcontributed": 4851,
  "Ġsupplemented": 4852,
  "AND": 4853,
  "Ġdispose": 4854,
  "mer": 4855,
  "Ġwithdrawn": 4856,
  "Ġshared": 4857,
  "there": 4858,
  "ĠInt": 4859,
  "Ġimport": 4860,
  "ĠPeter": 4861,
  "Ġdeliberate": 4862,
  "Ġdeclare": 4863,
  "Ġsave": 4864,
  "900": 4865,
  "ano": 4866,
  "Ġlots": 4867,
  "Ġdefines": 4868,
  "Second": 4869,
  "Ġdeferred": 4870,
  "223": 4871,
  "âĢ¦": 4872,
  "Ġrevealed": 4873,
  "his": 4874,
  "ĠRespondents": 4875,
  "Ġprivileges": 4876,
  "ĠWHEREAS": 4877,
  "Ġprohibits": 4878,
  "Ġmedia": 4879,
  "Ġcooperation": 4880,
  "218": 4881,
  "Ġlink": 4882,
  "Ġpoor": 4883,
  "ana": 4884,
  "Ġhappen": 4885,
  "));": 4886,
  "Ġextremely": 4887,
  "Ġbuilt": 4888,
  "ĠDENIED": 4889,
  "Ġwishes": 4890,
  "ĠOMB": 4891,
  "Ġdisorder": 4892,
  "ĠEscrow": 4893,
  "Ġskills": 4894,
  "Ġmoot": 4895,
  "Ġthousand": 4896,
  "252": 4897,
  "Ġcustomary": 4898,
  "Ġthreats": 4899,
  "Ġmailed": 4900,
  "Ġmeanings": 4901,
  "âĢĶand": 4902,
  "Ġpropose": 4903,
  "âĢĿĊ": 4904,
  "ph": 4905,
  "Ġsides": 4906,
  "Ġcredited": 4907,
  "Ġpermissible": 4908,
  "552": 4909,
  "ĉTitle": 4910,
  "ĠValley": 4911,
  "Ġmodifications": 4912,
  "Ġobviously": 4913,
  "Ġunemployment": 4914,
  "Ġpossibly": 4915,
  "Ġdelayed": 4916,
  "Ġclaimants": 4917,
  "Ġbuild": 4918,
  "ain": 4919,
  "Ġdeem": 4920,
  "ĠCollection": 4921,
  "ĠQu": 4922,
  "Ġaccuracy": 4923,
  "ĠAssessment": 4924,
  "Ġdeficiency": 4925,
  "Ġinterstate": 4926,
  "men": 4927,
  "Ġjurisdictions": 4928,
  "Ġtwice": 4929,
  "ĠCURIAM": 4930,
  "ĠEmployees": 4931,
  "Ġfifth": 4932,
  "Ġadministered": 4933,
  "ĠTrading": 4934,
  "556": 4935,
  "Ġexhibit": 4936,
  "Ġrepayment": 4937,
  "Ġagricultural": 4938,
  "Ġlie": 4939,
  "ĠDoe": 4940,
  "Ġquestioned": 4941,
  "Ġfilings": 4942,
  "Ġdisposal": 4943,
  "ĠCR": 4944,
  "ĠOfficers": 4945,
  "ĠRepresentative": 4946,
  "ĠDetective": 4947,
  "Ġrepairs": 4948,
  "af": 4949,
  "Ġinstituted": 4950,
  "Ġauthorizes": 4951,
  "Ġopened": 4952,
  "ĉM": 4953,
  "pt": 4954,
  "226": 4955,
  "Ġsanction": 4956,
  "Ġintentionally": 4957,
  "OL": 4958,
  "Ġsh": 4959,
  "ĠRequirements": 4960,
  "First": 4961,
  "each": 4962,
  "ĠMe": 4963,
  ".,Ċ": 4964,
  "Ġmessage": 4965,
  "Ġconsistently": 4966,
  "ĠArticles": 4967,
  "-mail": 4968,
  "Ġconsummation": 4969,
  "ĠComp": 4970,
  "Ġensuring": 4971,
  "ĠReg": 4972,
  "ĠEquipment": 4973,
  "Ġgoal": 4974,
  "245": 4975,
  "Ġregards": 4976,
  "307": 4977,
  "q": 4978,
  "Ġinitiated": 4979,
  "ĠAb": 4980,
  "Ġprotective": 4981,
  "Ġsomewhat": 4982,
  "ĠNEW": 4983,
  "Ġconfusion": 4984,
  "Ġwaters": 4985,
  "Ġconfidentiality": 4986,
  "ĠTransport": 4987,
  "Ġextra": 4988,
  "Ġcharging": 4989,
  "Ġpossessed": 4990,
  "Ġhomes": 4991,
  "Ġcumulative": 4992,
  "ĠCook": 4993,
  "Ġintroduction": 4994,
  "Ġmerchandise": 4995,
  "Defendants": 4996,
  "ĠAdvisory": 4997,
  "Ġincidents": 4998,
  "ĠAgain": 4999,
  "ĠAnalysis": 5000,
  "330": 5001,
  "304": 5002,
  "Ġprobative": 5003,
  "Ġreplace": 5004,
  "Ġsoftware": 5005,
  "Ġcomponents": 5006,
  "ĠRetirement": 5007,
  "Ġsites": 5008,
  "Ġsupplies": 5009,
  "Mo": 5010,
  "219": 5011,
  "ĠAdvance": 5012,
  "Ġreimburse": 5013,
  "ĠĠĠĠĠĠĠĠĠĠĠĠĠĠĠĠĠĠĠĠĠĠĠĠĠĠĠĠĠĠĠĠĠĠĠĠĠĠĠĠĠĠĠĠĠĠĠĠĠ": 5014,
  "Ġbranch": 5015,
  "Ġprecise": 5016,
  "ĠRelated": 5017,
  "Ġburglary": 5018,
  "254": 5019,
  "Ġlarger": 5020,
  "Ġinclusion": 5021,
  "ĠOfficial": 5022,
  "Ġdefine": 5023,
  "312": 5024,
  "ĠIdaho": 5025,
  "FOR": 5026,
  "Ġclassified": 5027,
  "ĠIsland": 5028,
  "ĠAL": 5029,
  "ages": 5030,
  "den": 5031,
  "510": 5032,
  "ĠMorgan": 5033,
  "Ġzone": 5034,
  "Ġordinarily": 5035,
  "Ġregularly": 5036,
  "ĠChildren": 5037,
  "Ġincentive": 5038,
  "ĠBaker": 5039,
  "Ġrecipient": 5040,
  "line": 5041,
  "Ġdefinitions": 5042,
  "Ġsubstances": 5043,
  "235": 5044,
  "Ġincorrect": 5045,
  "ĠPaper": 5046,
  "Ġfirms": 5047,
  "Ġ-Ċ": 5048,
  "noting": 5049,
  "ĠContracts": 5050,
  "Ġbecoming": 5051,
  "].Ċ": 5052,
  "320": 5053,
  "Ġpremiums": 5054,
  "ĠIncentive": 5055,
  "Ġinfrastructure": 5056,
  "ged": 5057,
  ")).Ċ": 5058,
  "Ġship": 5059,
  "Ġcommissioner": 5060,
  "ĠCertain": 5061,
  "Ġattachment": 5062,
  "sh": 5063,
  "Ġbanking": 5064,
  "ĠDE": 5065,
  "Ġforty": 5066,
  "424": 5067,
  "Ġdistributions": 5068,
  "ĠMotor": 5069,
  "Amendment": 5070,
  "ĠSECURITIES": 5071,
  "Ġdiscriminatory": 5072,
  "Ġventure": 5073,
  "[Federal": 5074,
  "Ġstrongly": 5075,
  "217": 5076,
  "ĠOklahoma": 5077,
  "ĠCampbell": 5078,
  "ĠMinnesota": 5079,
  "Ġgenerated": 5080,
  "Ġsummons": 5081,
  "ĠBanks": 5082,
  "Ġleased": 5083,
  "248": 5084,
  "ĠGuarantors": 5085,
  "ĠInvestments": 5086,
  "ĠBenefit": 5087,
  "Ġprotest": 5088,
  "ising": 5089,
  "ff": 5090,
  "Ġill": 5091,
  "Ġcounsel's": 5092,
  "Ġproven": 5093,
  "Ġcharacteristics": 5094,
  "ĠHenry": 5095,
  "Ġwhereby": 5096,
  "Ġconfirmation": 5097,
  "PER": 5098,
  "Ġsuspicion": 5099,
  "Ġconstituting": 5100,
  "UR": 5101,
  "ĠProcess": 5102,
  "ĠPlanning": 5103,
  "Ġaforesaid": 5104,
  "ĠTenn": 5105,
  "Ġascertain": 5106,
  "While": 5107,
  "ars": 5108,
  "Ġillness": 5109,
  "Ġsubmitting": 5110,
  "Ġobserve": 5111,
  "Ġexercisable": 5112,
  "Ġauthorised": 5113,
  "Ġqualification": 5114,
  "Ġmis": 5115,
  "ust": 5116,
  "Ġ%": 5117,
  "Ġobjects": 5118,
  "ĠComment": 5119,
  "ĠRelations": 5120,
  "ĠDrug": 5121,
  "Ġincur": 5122,
  "ĠDeed": 5123,
  "Ġspeaking": 5124,
  "311": 5125,
  "isation": 5126,
  "Ġseat": 5127,
  "Ġorigin": 5128,
  "Ġbed": 5129,
  "229": 5130,
  "rd": 5131,
  "on's": 5132,
  "ĠWorkers": 5133,
  "Ġ`": 5134,
  "ically": 5135,
  "ĠAdams": 5136,
  "Ġglobal": 5137,
  "Ġ(âĢľ[": 5138,
  "Ġeffected": 5139,
  "Ġinventory": 5140,
  "Emphasis": 5141,
  "Ġarm": 5142,
  "Ġcompelling": 5143,
  "365": 5144,
  "523": 5145,
  "ied": 5146,
  "ok": 5147,
  "ĠKan": 5148,
  "Ġsurviving": 5149,
  "SC": 5150,
  "ms": 5151,
  "itt": 5152,
  "Ġreadily": 5153,
  "ĠBANK": 5154,
  "236": 5155,
  "Ġsigning": 5156,
  "Ġrelatively": 5157,
  "Ġfinance": 5158,
  "Ġcreates": 5159,
  "Ġready": 5160,
  "ĠBILLING": 5161,
  "ĠMississippi": 5162,
  "ĠIts": 5163,
  "ĠWarrants": 5164,
  "255": 5165,
  "406": 5166,
  "340": 5167,
  "Ġattended": 5168,
  "Ġsister": 5169,
  "ĠMarine": 5170,
  "Ġprevail": 5171,
  "Ġsupervisor": 5172,
  "ĠCustomer": 5173,
  "Ġrape": 5174,
  ".ĊĊĊĊĊĊ": 5175,
  "601": 5176,
  "Ġdistress": 5177,
  "Ġdidn't": 5178,
  "Ġminority": 5179,
  "Ġfoundation": 5180,
  "Ġflight": 5181,
  "ats": 5182,
  "Ġkill": 5183,
  "ĠResolution": 5184,
  "Ġrulemaking": 5185,
  "ĠPar": 5186,
  "Ġconsisting": 5187,
  "410": 5188,
  "415": 5189,
  "Ġrural": 5190,
  "Ġmanaging": 5191,
  "Ġseller": 5192,
  "Ġunique": 5193,
  "Ġasylum": 5194,
  "\".Ċ": 5195,
  "ĠVA": 5196,
  "more": 5197,
  "ory": 5198,
  "228": 5199,
  "ĠDiv": 5200,
  "ĠOTHER": 5201,
  "Ġnoting": 5202,
  "ron": 5203,
  "ĠProperties": 5204,
  "Ġadvances": 5205,
  "ĠFDA": 5206,
  "Ġundertake": 5207,
  "Ġbirth": 5208,
  "IR": 5209,
  "Ġk": 5210,
  "Ġoccupied": 5211,
  "ĠDated": 5212,
  "ĠGuard": 5213,
  "Ġqualifications": 5214,
  "ĠGreat": 5215,
  "els": 5216,
  "801": 5217,
  "Ġtract": 5218,
  "Ġurged": 5219,
  "ities": 5220,
  "Ġhabitat": 5221,
  "317": 5222,
  "Ġaccepting": 5223,
  "Ġindependently": 5224,
  "466": 5225,
  "ĉP": 5226,
  "Ġmedication": 5227,
  "Ġeast": 5228,
  "TR": 5229,
  "ase": 5230,
  "AB": 5231,
  "Ġpackage": 5232,
  "Ġcopyright": 5233,
  "ĠMitchell": 5234,
  "411": 5235,
  "Ġfacsimile": 5236,
  "Ġsheriff": 5237,
  "Ġnarrow": 5238,
  "ĠST": 5239,
  "/s": 5240,
  "Ġbanc": 5241,
  "Ġdestroyed": 5242,
  "Ġwherein": 5243,
  "Ġefficient": 5244,
  "Ġmarital": 5245,
  "Ġconsists": 5246,
  "ĠUtah": 5247,
  "]ĊĊĊ": 5248,
  "pl": 5249,
  "ĠBIA": 5250,
  "Ġplainly": 5251,
  "Ġinvoluntary": 5252,
  "ĠActs": 5253,
  "Ġconvey": 5254,
  "ably": 5255,
  "Ġweapons": 5256,
  "Ġpossess": 5257,
  "Ġprinted": 5258,
  "Ġsupreme": 5259,
  "Ġeverything": 5260,
  "ann": 5261,
  "233": 5262,
  "Ġconfinement": 5263,
  "PR": 5264,
  "Ġdollar": 5265,
  "ĠContractor": 5266,
  "Ġbonus": 5267,
  "Ġdirecting": 5268,
  "ĠCr": 5269,
  "Ġlandlord": 5270,
  "Ġeliminate": 5271,
  "Ġcorrespondence": 5272,
  "Ġwest": 5273,
  "Ġeasement": 5274,
  "ĠTerms": 5275,
  "ĠEvans": 5276,
  "Ġzoning": 5277,
  "Ġreliable": 5278,
  "306": 5279,
  "ĠUniform": 5280,
  "414": 5281,
  "Ġcertify": 5282,
  "ĠInstitute": 5283,
  "Ġmechanism": 5284,
  "Ġpattern": 5285,
  "without": 5286,
  "Ġeasily": 5287,
  "319": 5288,
  "Ġlevy": 5289,
  "Ġbreak": 5290,
  "Ġcontinuous": 5291,
  "ĠWells": 5292,
  "ĠJan": 5293,
  "App": 5294,
  "pro": 5295,
  "Ġpledge": 5296,
  "Ġpatents": 5297,
  "Ġreserves": 5298,
  "Ġinherent": 5299,
  "Ġprepayment": 5300,
  "IE": 5301,
  "ĠReports": 5302,
  "DC": 5303,
  "IM": 5304,
  "265": 5305,
  "ĠEntity": 5306,
  "Ġsigns": 5307,
  "408": 5308,
  "Ġjury's": 5309,
  "Ġconsult": 5310,
  "ĠRedemption": 5311,
  "ĠPort": 5312,
  "ĠFourteenth": 5313,
  "Ġsurgery": 5314,
  "iss": 5315,
  "ĠDid": 5316,
  "Ġdefects": 5317,
  "Ġjudge's": 5318,
  "Ġreviews": 5319,
  "Ġreasoned": 5320,
  "Ġprobate": 5321,
  "Ġhandling": 5322,
  "Ġviolent": 5323,
  "504": 5324,
  "az": 5325,
  "-K": 5326,
  "Ġseriously": 5327,
  "pe": 5328,
  "ĠArk": 5329,
  "TER": 5330,
  "ĠCH": 5331,
  "Ġconservation": 5332,
  "MAN": 5333,
  "ĠRoyal": 5334,
  "-J": 5335,
  "Ġappearing": 5336,
  "ma": 5337,
  "Ġcounterparts": 5338,
  "Ġparticipated": 5339,
  "ĠCf": 5340,
  "234": 5341,
  "261": 5342,
  "Ġcredits": 5343,
  "Ġtrier": 5344,
  "Ġprescription": 5345,
  "ĠConditions": 5346,
  "Ġsettle": 5347,
  "Ġblock": 5348,
  "Ġprecluded": 5349,
  "where": 5350,
  "ĠEconomic": 5351,
  "Ġoutlined": 5352,
  "ĠBd": 5353,
  "Ġdistinguished": 5354,
  "ĠOptionee": 5355,
  "ĠHar": 5356,
  "Ġsuppression": 5357,
  "!": 5358,
  "Ġevening": 5359,
  "ĠGAAP": 5360,
  "Co": 5361,
  "Ġengine": 5362,
  "ĠCustoms": 5363,
  "ĠDouglas": 5364,
  "ĠRegional": 5365,
  "ĠPaying": 5366,
  "Ġnormally": 5367,
  "Ġdestruction": 5368,
  "Ġpreference": 5369,
  "Ġautomatic": 5370,
  "ĠLLP": 5371,
  "ĠNat": 5372,
  "ĠMan": 5373,
  "Ġuser": 5374,
  "Ġnuclear": 5375,
  "Ġinstallation": 5376,
  "let": 5377,
  "Ġchose": 5378,
  "ĠCollege": 5379,
  "Ġowns": 5380,
  "(C": 5381,
  "Ġdenies": 5382,
  "ĠMed": 5383,
  "Ġconstructed": 5384,
  "Ġmanage": 5385,
  "Ġintegrity": 5386,
  "ĠRailroad": 5387,
  "Docket": 5388,
  "ĠHearing": 5389,
  "ĠThree": 5390,
  "Ġinterlocutory": 5391,
  "278": 5392,
  "ĠDOE": 5393,
  "ĠJUDGMENT": 5394,
  "ery": 5395,
  "%Ċ": 5396,
  "ĠInter": 5397,
  "Ġdiversity": 5398,
  "Ġundue": 5399,
  "Ġusers": 5400,
  "ĠSmall": 5401,
  "Ġstrictly": 5402,
  "ĠWisconsin": 5403,
  "Ġth": 5404,
  "ĠOpposition": 5405,
  "Ġfaced": 5406,
  "ĠFiscal": 5407,
  "Ġexport": 5408,
  "ington": 5409,
  "ĠBenefits": 5410,
  "321": 5411,
  "must": 5412,
  "Ġplease": 5413,
  "ĠMinisters": 5414,
  "412": 5415,
  "Ġpromissory": 5416,
  "253": 5417,
  "Ġchosen": 5418,
  "Ġoperational": 5419,
  "Ġmeasured": 5420,
  "271": 5421,
  "Ġdrove": 5422,
  "ĠSA": 5423,
  "Ġplanned": 5424,
  "]).": 5425,
  "Ġintends": 5426,
  "ĠAM": 5427,
  "Ġintervene": 5428,
  "362": 5429,
  "Ġlawyers": 5430,
  "ĠRoss": 5431,
  "Ġapart": 5432,
  "Ġeventually": 5433,
  "Ġkeeping": 5434,
  "Ġcompromise": 5435,
  "Con": 5436,
  "'S": 5437,
  "Ġwelcome": 5438,
  "Ġcausation": 5439,
  "ĠDespite": 5440,
  "Ġsupervised": 5441,
  "OS": 5442,
  "ĠWithin": 5443,
  "Ġadvisory": 5444,
  "333": 5445,
  "ĠUSA": 5446,
  "ĠCas": 5447,
  "315": 5448,
  "ĠMont": 5449,
  "ĠSuite": 5450,
  "Ġlists": 5451,
  "Ġsovereign": 5452,
  "Ġheading": 5453,
  "Ġsubstituted": 5454,
  "Ġnewly": 5455,
  "ren": 5456,
  "ification": 5457,
  "Ġobservations": 5458,
  "Ġmanaged": 5459,
  "UN": 5460,
  "Ġsubjected": 5461,
  "ĠSystems": 5462,
  "ort": 5463,
  "Ġborn": 5464,
  "Ġincidental": 5465,
  "ĠChurch": 5466,
  "ĠFCA": 5467,
  "ĠWITNESS": 5468,
  "Ġconflicting": 5469,
  "ade": 5470,
  "Ġscale": 5471,
  "Agreement": 5472,
  "Ġwaives": 5473,
  "ĠKentucky": 5474,
  "ven": 5475,
  "und": 5476,
  "Ġsuccessfully": 5477,
  "Ġcollision": 5478,
  "Ġdescribes": 5479,
  "Ġcertainty": 5480,
  "Ġdeductions": 5481,
  "Ġavoidance": 5482,
  "Ġevaluating": 5483,
  "Ġsc": 5484,
  "OC": 5485,
  "ĠUNDER": 5486,
  "pp": 5487,
  "ĠBoard's": 5488,
  "237": 5489,
  "ĠEnvironment": 5490,
  "eb": 5491,
  "ison": 5492,
  "ĠThen": 5493,
  "Ġsubjective": 5494,
  "238": 5495,
  "Ġtransferee": 5496,
  "MR": 5497,
  "Ġfrivolous": 5498,
  "Ġreputation": 5499,
  "Ġalien": 5500,
  "Ġfeatures": 5501,
  "ĠOnly": 5502,
  "Ġteachers": 5503,
  "Ġvariety": 5504,
  "ĠServs": 5505,
  "274": 5506,
  "239": 5507,
  "249": 5508,
  "Ġurge": 5509,
  "Exhibit": 5510,
  "Ġanimal": 5511,
  "308": 5512,
  "Ġimproved": 5513,
  "ĠDetermination": 5514,
  "Ġselect": 5515,
  "ĠAssistance": 5516,
  "\"(": 5517,
  "ĠBACKGROUND": 5518,
  "ERS": 5519,
  "âĢĻx": 5520,
  "has": 5521,
  "005": 5522,
  "subject": 5523,
  "Ġoperators": 5524,
  "Ġaffects": 5525,
  "Ġexact": 5526,
  "358": 5527,
  "Ġregulated": 5528,
  "ĠRecords": 5529,
  "322": 5530,
  "ĠNE": 5531,
  "Ġwire": 5532,
  "Ġextending": 5533,
  "Mc": 5534,
  "ĠAccess": 5535,
  "ĠMorris": 5536,
  "ĠCorporate": 5537,
  "ĠNHS": 5538,
  "Ġhire": 5539,
  "ARTICLE": 5540,
  "ĠGovernor": 5541,
  "Ġinvestigations": 5542,
  "Ġquoting": 5543,
  "313": 5544,
  "....": 5545,
  "Ġdeference": 5546,
  "Ġconditional": 5547,
  "ĠOregon": 5548,
  "247": 5549,
  "ĠNinth": 5550,
  "PS": 5551,
  "MC": 5552,
  "Ġawarding": 5553,
  "ĠKelly": 5554,
  "Ġpresently": 5555,
  "Ġhit": 5556,
  "Ġsample": 5557,
  "Ġmandamus": 5558,
  "ĠEnforcement": 5559,
  "ĠCONCLUSION": 5560,
  "Ġunknown": 5561,
  "ium": 5562,
  "Ġaccompanying": 5563,
  "Ġdepend": 5564,
  "Ġgrade": 5565,
  "Ġinsofar": 5566,
  "Ġapproached": 5567,
  "ĠProceeds": 5568,
  "ĠGr": 5569,
  "ose": 5570,
  "Ġunanimous": 5571,
  "ĠEXHIBIT": 5572,
  "Ġcalling": 5573,
  "ĠOrders": 5574,
  "Ġasks": 5575,
  "263": 5576,
  "ight": 5577,
  "Ġratio": 5578,
  "Ġmid": 5579,
  "ĠThereafter": 5580,
  "Ġconfined": 5581,
  "ĠMerger": 5582,
  "Ġprecisely": 5583,
  "Ġmotive": 5584,
  "Ġsworn": 5585,
  "275": 5586,
  "ĠBur": 5587,
  "ĠSw": 5588,
  "ĠLetters": 5589,
  "Ġexpertise": 5590,
  "Ġonline": 5591,
  "ĠPartners": 5592,
  "ĠVeterans": 5593,
  "ĠMonday": 5594,
  "ĠYet": 5595,
  "Ġleadership": 5596,
  "SEC": 5597,
  "Ġbus": 5598,
  "Ġbias": 5599,
  "Ġseverance": 5600,
  "ord": 5601,
  "Ġphotographs": 5602,
  "Ġdiscount": 5603,
  "246": 5604,
  "Ġdisbursements": 5605,
  "Ġbattery": 5606,
  "Ġstarting": 5607,
  "Ġcompelled": 5608,
  "Ġran": 5609,
  "Ġpiece": 5610,
  "Ġrear": 5611,
  "Ġadmitting": 5612,
  "314": 5613,
  "272": 5614,
  "ĠBackground": 5615,
  "ĠOffering": 5616,
  "Ġwhenever": 5617,
  "Ġsolution": 5618,
  "Ms": 5619,
  "Ġunlikely": 5620,
  "Ġschemes": 5621,
  "ĠFunding": 5622,
  "380": 5623,
  "268": 5624,
  "ĠWeb": 5625,
  "325": 5626,
  "Ġformula": 5627,
  "Ġrestrictive": 5628,
  "Ġvisited": 5629,
  "Ġlearning": 5630,
  "002": 5631,
  "Ġvesting": 5632,
  "Ġcooperate": 5633,
  "267": 5634,
  "Ġcomparison": 5635,
  "-CR": 5636,
  "Ġincorporation": 5637,
  "ĠSun": 5638,
  "Ġelectricity": 5639,
  "256": 5640,
  "Ġinmates": 5641,
  "273": 5642,
  "Ġquestioning": 5643,
  "Ġtestator": 5644,
  "ĠPub": 5645,
  "cl": 5646,
  "440": 5647,
  "Ġtendered": 5648,
  "Ġengaging": 5649,
  "ĠFrench": 5650,
  "(k": 5651,
  "ĠLicensee": 5652,
  "Ġappropriately": 5653,
  "Ġrelationships": 5654,
  "ĠForest": 5655,
  "ĠIraq": 5656,
  "ĠSal": 5657,
  "257": 5658,
  "AG": 5659,
  "Ġputting": 5660,
  "ĠIssue": 5661,
  "ĠNevada": 5662,
  "503": 5663,
  "Ġcommissions": 5664,
  "ĠBrief": 5665,
  "ĠClub": 5666,
  "ĠTurner": 5667,
  "-conviction": 5668,
  "Ġvisa": 5669,
  "243": 5670,
  "\").ĊĊ": 5671,
  "Ġhired": 5672,
  "Ġmanufacturers": 5673,
  "Ġdemonstrating": 5674,
  "ĠPanel": 5675,
  "309": 5676,
  "Ġbail": 5677,
  "Ġexternal": 5678,
  "=": 5679,
  "420": 5680,
  "Finally": 5681,
  "ost": 5682,
  "Ġprotecting": 5683,
  "ef": 5684,
  "323": 5685,
  "Ġspend": 5686,
  "Ġpurchasing": 5687,
  "ĠMinn": 5688,
  "Ġinvention": 5689,
  "-N": 5690,
  "Ġregime": 5691,
  "ĠLicensed": 5692,
  "Ġfunded": 5693,
  "544": 5694,
  "ĉI": 5695,
  "Ġretention": 5696,
  "Ġinfer": 5697,
  "ĠDeposit": 5698,
  "520": 5699,
  "Ġviolating": 5700,
  "ank": 5701,
  "Ġplausible": 5702,
  "Ġgovern": 5703,
  "AA": 5704,
  "Ġambiguous": 5705,
  "ĠCharter": 5706,
  "âĢĲ": 5707,
  "Ġprohibiting": 5708,
  "ĠCarter": 5709,
  "OP": 5710,
  "ĠOriginal": 5711,
  "ĠFort": 5712,
  "316": 5713,
  "ĉIn": 5714,
  "295": 5715,
  "Ġclarify": 5716,
  "291": 5717,
  "555": 5718,
  "ĠArbitration": 5719,
  "CR": 5720,
  "Ġcite": 5721,
  "ents": 5722,
  "ĠMaterials": 5723,
  "Ġinterpret": 5724,
  "Because": 5725,
  "ĠFailure": 5726,
  "Ġseal": 5727,
  "ĠReference": 5728,
  "Ġremoving": 5729,
  "Ġmethodology": 5730,
  "Ġwall": 5731,
  "Sir": 5732,
  "ĠDCA": 5733,
  "244": 5734,
  "ĠHoward": 5735,
  "Ġdistricts": 5736,
  "ning": 5737,
  "Ġtrans": 5738,
  "ĠMa": 5739,
  "Ġcontacted": 5740,
  "ene": 5741,
  "Ġvotes": 5742,
  "Ġfamiliar": 5743,
  "Ġcontinuation": 5744,
  "ĠPR": 5745,
  "Ġgovernments": 5746,
  "Ġbrings": 5747,
  "ĠDecl": 5748,
  "ug": 5749,
  "Ġsubpoena": 5750,
  "ĠLouis": 5751,
  "ĠCollins": 5752,
  "422": 5753,
  "Ġelectric": 5754,
  "ĠPr": 5755,
  "ĠRoom": 5756,
  "ĠPhillips": 5757,
  "But": 5758,
  "Ġcap": 5759,
  "finding": 5760,
  "Ġplacing": 5761,
  "Ġclean": 5762,
  "ĠMurphy": 5763,
  "Ġamending": 5764,
  "Ġfoster": 5765,
  "Ġconsumption": 5766,
  "\");": 5767,
  "Ġexcuse": 5768,
  "Ġexamples": 5769,
  "Ġpublish": 5770,
  "Ġuntimely": 5771,
  "Ġchanging": 5772,
  "Ġgift": 5773,
  "Ġinadmissible": 5774,
  "old": 5775,
  "Ġexceeded": 5776,
  "ĠSubsection": 5777,
  ".Code": 5778,
  "425": 5779,
  "ĠNation": 5780,
  "Ġdiscussing": 5781,
  "262": 5782,
  "Ġprotections": 5783,
  "Ġrevoked": 5784,
  "Ġconcurrent": 5785,
  "ĠAriz": 5786,
  "ĠGrand": 5787,
  "ĠMany": 5788,
  "ĠRoberts": 5789,
  "-and": 5790,
  "Ġassurance": 5791,
  "Ġhouses": 5792,
  "Ġnation": 5793,
  "ĠReceivables": 5794,
  "Ġop": 5795,
  "ĉSection": 5796,
  "Ġstayed": 5797,
  "Ġdeficient": 5798,
  "375": 5799,
  "ĠJUDGE": 5800,
  "Notices": 5801,
  "MENT": 5802,
  "ĠOFFICER": 5803,
  "ĠConnecticut": 5804,
  "ker": 5805,
  "-E": 5806,
  "ĠLC": 5807,
  "Ġinstruct": 5808,
  "Ġheavy": 5809,
  "Ġwrite": 5810,
  "Ġirrevocably": 5811,
  "Ġdwelling": 5812,
  "Ġquickly": 5813,
  "Ġmeaningful": 5814,
  "Ġinvited": 5815,
  "Dr": 5816,
  "ĠGRANTED": 5817,
  "ai": 5818,
  "Ġvoted": 5819,
  "ĠParticipants": 5820,
  "ĠĠĠĠĠĠĠĠĠĠĠĠĠĠĠĠĠĠĠĠĠĠĠĠĠĠĠĠĠĠĠĠĠĠĠĠĠĠĠĠĠĠĠĠĠĠĠĠĠĠĠ": 5821,
  "475": 5822,
  "Ġ+": 5823,
  "Ġlikewise": 5824,
  "-n": 5825,
  "ĠBranch": 5826,
  "However": 5827,
  "Ġstress": 5828,
  "(iii": 5829,
  "Ġninety": 5830,
  "ĠFROM": 5831,
  "366": 5832,
  "ĠProvisions": 5833,
  "Ġparte": 5834,
  "Ġinserted": 5835,
  "ENT": 5836,
  "ĠYour": 5837,
  "490": 5838,
  "Ġconstrue": 5839,
  "ĠFriday": 5840,
  "Ġalternatives": 5841,
  "ĠDIVISION": 5842,
  "Ġreceipts": 5843,
  "Ġannually": 5844,
  "Ġomissions": 5845,
  "State": 5846,
  "Ġinstalled": 5847,
  "Ġsolicitor": 5848,
  "Ġconsented": 5849,
  "ĠDNA": 5850,
  "o's": 5851,
  "Ġoffset": 5852,
  "ĠConsumer": 5853,
  "Ġpersuasive": 5854,
  "ĠAfrican": 5855,
  "GE": 5856,
  "ĠEdwards": 5857,
  "Ġhazardous": 5858,
  "âĢĻS": 5859,
  "ĠExisting": 5860,
  "ĠDisclosure": 5861,
  "ĠCooper": 5862,
  "Ġfired": 5863,
  "Ġcontracting": 5864,
  "y's": 5865,
  "Ġpled": 5866,
  "Ġstrength": 5867,
  "ĠWHEREOF": 5868,
  "ĠDisability": 5869,
  "Ġcommissioners": 5870,
  "].ĊĊ": 5871,
  "ole": 5872,
  "ĠSellers": 5873,
  "Ġmanufactured": 5874,
  "ĠAlabama": 5875,
  "Ġdamaged": 5876,
  "ees": 5877,
  "285": 5878,
  "ĠLady": 5879,
  "277": 5880,
  "ĠCommissioners": 5881,
  "ĠĠĠĠĠĠĠĠĠĠĠĠĠĠĠĠĠĠĠĠĠĠĠĠĠĠĠĠĠĠĠĠĠĠĠĠĠĠĠĠĠĠĠĠĠĠĠĠĠĠĠĠĠĠĠĠĠĠĠĠĠĠĠĠ": 5882,
  "ĠTheir": 5883,
  "go": 5884,
  "Ġ...": 5885,
  "Ġupdated": 5886,
  "law": 5887,
  "Ġexpectation": 5888,
  "Ġparty's": 5889,
  "ink": 5890,
  "Ġchemical": 5891,
  "Ġrationale": 5892,
  "ĠJUSTICE": 5893,
  "Ġpreparing": 5894,
  "Ġauthorizing": 5895,
  "ĠCommunications": 5896,
  "FA": 5897,
  "Ġunjust": 5898,
  "Ġhousehold": 5899,
  "ĠBl": 5900,
  "Ind": 5901,
  "430": 5902,
  "ĠGermany": 5903,
  "Ġhttps": 5904,
  "mann": 5905,
  "Ġmiddle": 5906,
  "mon": 5907,
  "Ġrevenues": 5908,
  "Ġmyself": 5909,
  "ĠTerritory": 5910,
  "Ġsteel": 5911,
  "Ġenforceability": 5912,
  "ited": 5913,
  "ĠMaturity": 5914,
  "ging": 5915,
  "ious": 5916,
  "Â·": 5917,
  "ck": 5918,
  "ĠSW": 5919,
  "ĠSUCH": 5920,
  "iting": 5921,
  "Ġsurety": 5922,
  "Ġmitigating": 5923,
  "ĉA": 5924,
  "ĠSteel": 5925,
  "ail": 5926,
  "Ġboundary": 5927,
  "Ġoccupation": 5928,
  "Ġdemanded": 5929,
  "511": 5930,
  "341": 5931,
  "Ġfish": 5932,
  "ond": 5933,
  "LC": 5934,
  "Ġcolor": 5935,
  "ĠMutual": 5936,
  "Ġelections": 5937,
  "Ġparticulars": 5938,
  "Ġgang": 5939,
  "Ġrecognizes": 5940,
  "-ĊĊ": 5941,
  "ĠStewart": 5942,
  "281": 5943,
  "Ġchain": 5944,
  "Ġ...........": 5945,
  "266": 5946,
  "SON": 5947,
  "Ġcalculating": 5948,
  "Ġtested": 5949,
  "ĠPension": 5950,
  "Ġmale": 5951,
  "Ch": 5952,
  "-degree": 5953,
  "Ġconfer": 5954,
  "Ġconformity": 5955,
  "505": 5956,
  "Ġlawfully": 5957,
  "Ġassure": 5958,
  "ĠĠĠĠĠĠĠĠĠĠĠĠĠĠĠĠĠĠĠĠĠĠĠĠĠĠĠĠĠĠĠĠĠĠĠĠĠĠĠĠĠĠĠĠĠĠĠĠĠĠĠĠ": 5959,
  "ere": 5960,
  "Ġconfession": 5961,
  "Ġoperates": 5962,
  "Ġcommercially": 5963,
  "ĠAlaska": 5964,
  "Ġrehabilitation": 5965,
  "ute": 5966,
  "Ġstory": 5967,
  "Ġprosecute": 5968,
  "Ġcore": 5969,
  "264": 5970,
  "Ġreplied": 5971,
  "ĠBlue": 5972,
  "Ġreveals": 5973,
  "ĠWard": 5974,
  "an's": 5975,
  "ĠDaniel": 5976,
  "app": 5977,
  ".----ĊĊ": 5978,
  "Ġpleas": 5979,
  "530": 5980,
  "Ġextreme": 5981,
  "Ġstands": 5982,
  "ĠSociety": 5983,
  "ational": 5984,
  "Ġfunctional": 5985,
  "li": 5986,
  "Ġdeems": 5987,
  "288": 5988,
  "Ġproposing": 5989,
  "Ġorganisations": 5990,
  "Ġvisitation": 5991,
  "back": 5992,
  "284": 5993,
  "CE": 5994,
  "BA": 5995,
  "âĢĶthat": 5996,
  "Ġroute": 5997,
  "Ġwindow": 5998,
  "orn": 5999,
  "Ġconform": 6000,
  "Ġessence": 6001,
  "\";": 6002,
  "296": 6003,
  "ĠFILED": 6004,
  "Ġpromises": 6005,
  "Ġimpairments": 6006,
  "423": 6007,
  "294": 6008,
  "ru": 6009,
  "ĠGrantee": 6010,
  "stating": 6011,
  "Ġforma": 6012,
  "lan": 6013,
  "ĠInvestors": 6014,
  "Ġserves": 6015,
  "Ġrelevance": 6016,
  "Ġexpenditures": 6017,
  "PP": 6018,
  "Ġovercome": 6019,
  "570": 6020,
  "ĠCor": 6021,
  "ĠLicense": 6022,
  "ĠPlans": 6023,
  "ĠConst": 6024,
  "Ġresignation": 6025,
  "ering": 6026,
  "Ġmitigation": 6027,
  "ĠMiranda": 6028,
  "ĠCIRCUIT": 6029,
  "Ġlies": 6030,
  "Ġcampaign": 6031,
  "Ġprospectus": 6032,
  "ĠTrans": 6033,
  "Ġdissenting": 6034,
  "ĠRevised": 6035,
  "Ġfocused": 6036,
  "ĠLo": 6037,
  "Ġdissent": 6038,
  "Ġmachinery": 6039,
  "259": 6040,
  "Ġproducing": 6041,
  "ree": 6042,
  "ĠNotices": 6043,
  "Ġdescribing": 6044,
  "Ġbroken": 6045,
  "Ġbridge": 6046,
  "ĠCONTACT": 6047,
  "With": 6048,
  "Ġcommenters": 6049,
  "Ġunrelated": 6050,
  "279": 6051,
  "337": 6052,
  "Ġchairman": 6053,
  "Ġsecret": 6054,
  "min": 6055,
  "ĠRose": 6056,
  "house": 6057,
  "370": 6058,
  "Ġreferenced": 6059,
  "ĠIL": 6060,
  "...": 6061,
  "Ġevidencing": 6062,
  "ĠĠĠĠĠĠĠĠĠĠĠĠĠĠĠĠĠĠĠĠĠĠĠĠĠĠĠĠĠĠĠĠĠĠĠĠĠĠĠĠĠĠĠĠĠĠĠĠĠĠ": 6063,
  "Ġlocations": 6064,
  "Ġuniform": 6065,
  "473": 6066,
  "386": 6067,
  "Ġproprietary": 6068,
  "ster": 6069,
  "Ġreconsider": 6070,
  "Ġmoral": 6071,
  "Ġgrowing": 6072,
  "sp": 6073,
  "Ġconstitutionally": 6074,
  ".:": 6075,
  "Ġshift": 6076,
  "ĠWaiver": 6077,
  "Ġexceptional": 6078,
  "kin": 6079,
  "Ġvest": 6080,
  "Ġsupposed": 6081,
  "Re": 6082,
  "Ġdecrease": 6083,
  "Ġpounds": 6084,
  "Ġguarantees": 6085,
  "Ġonto": 6086,
  "ĠConsent": 6087,
  "Ġintellectual": 6088,
  "269": 6089,
  "ges": 6090,
  "541": 6091,
  "293": 6092,
  "470": 6093,
  "385": 6094,
  "Ġnoticed": 6095,
  "Ġdiscipline": 6096,
  "Ġexposed": 6097,
  "Ġjudicata": 6098,
  "ĠOperations": 6099,
  "Ġcuriam": 6100,
  "ĠLos": 6101,
  "hen": 6102,
  "ka": 6103,
  "ĠTrustees": 6104,
  ".Cir": 6105,
  "Ġvital": 6106,
  "Ġfemale": 6107,
  "Ġvalidly": 6108,
  "Ġanimals": 6109,
  "Ġdiagnosis": 6110,
  "Ġpreventing": 6111,
  "ĠAppellant's": 6112,
  "Ġanniversary": 6113,
  "Ġphysically": 6114,
  "Ġbuyer": 6115,
  "ĠNations": 6116,
  "Ġwaiting": 6117,
  "Ġindemnified": 6118,
  "ĠDu": 6119,
  "436": 6120,
  "Ġdirective": 6121,
  "Ġsession": 6122,
  "407": 6123,
  "Ġlicensing": 6124,
  "Ġtools": 6125,
  "371": 6126,
  "ĠExecutive's": 6127,
  "@": 6128,
  "ĉB": 6129,
  "Ġcandidate": 6130,
  "ĠGray": 6131,
  "TE": 6132,
  "Ġlose": 6133,
  "Ġdeclarations": 6134,
  "âĢĿ.Ċ": 6135,
  "Ġcouple": 6136,
  "ĠâĢĿ": 6137,
  "Ġmovant": 6138,
  "ĠExtension": 6139,
  "gu": 6140,
  "Ġadmissions": 6141,
  "TING": 6142,
  "Ġescape": 6143,
  "ĊĊĊĊĊĊĊĊ": 6144,
  "287": 6145,
  "286": 6146,
  "ĠMarshall": 6147,
  "324": 6148,
  "Ġmisdemeanor": 6149,
  "ĠHonorable": 6150,
  "Ġperson's": 6151,
  "Ġdesirable": 6152,
  "ĠNelson": 6153,
  "ax": 6154,
  "-g": 6155,
  "Ġwalk": 6156,
  "Ġvisits": 6157,
  "Ġweigh": 6158,
  "ĠReply": 6159,
  "ĠIntellectual": 6160,
  "Ġtaxpayers": 6161,
  "Ġscrutiny": 6162,
  "ures": 6163,
  "ĠAtlantic": 6164,
  "[]": 6165,
  "Ġordering": 6166,
  "Ġassistant": 6167,
  "ĠPRESIDING": 6168,
  "ĠReduction": 6169,
  "Ġsubstitution": 6170,
  "UM": 6171,
  "431": 6172,
  "ets": 6173,
  "Ġdesired": 6174,
  "Ġadmissibility": 6175,
  "Ġexplaining": 6176,
  "ĠEvery": 6177,
  "Ġevaluated": 6178,
  "Ġsplit": 6179,
  "Ġdoctors": 6180,
  "Ġprisoners": 6181,
  "ĠRodriguez": 6182,
  "Ġrests": 6183,
  "Ġmanagers": 6184,
  "ĠLet": 6185,
  "ĠAgriculture": 6186,
  "512": 6187,
  "395": 6188,
  "PC": 6189,
  "ĠTenant's": 6190,
  "331": 6191,
  "Ġdelivering": 6192,
  "âĢĻn": 6193,
  "282": 6194,
  "ĠIndependent": 6195,
  "Ġtelevision": 6196,
  "ATE": 6197,
  "Ġrenewed": 6198,
  "ĠMedicaid": 6199,
  ".--Ċ": 6200,
  "Title": 6201,
  "ign": 6202,
  "Ġprong": 6203,
  "ĠDebtors": 6204,
  "276": 6205,
  "TC": 6206,
  "Ġdefeat": 6207,
  "-General": 6208,
  "Ġpurchases": 6209,
  "Ġpromotion": 6210,
  "506": 6211,
  "Ġtasks": 6212,
  "Ġhelpful": 6213,
  "ĠGraham": 6214,
  "Ġrejection": 6215,
  "bury": 6216,
  "Ġprepaid": 6217,
  "ĠRy": 6218,
  "Ġcareer": 6219,
  "258": 6220,
  "Ġexpended": 6221,
  "Ġsurveillance": 6222,
  "Ġposted": 6223,
  "Ġconstituency": 6224,
  "327": 6225,
  "when": 6226,
  "air": 6227,
  "ĠFloor": 6228,
  "Ġbona": 6229,
  "Ġmarine": 6230,
  "443": 6231,
  "Ġport": 6232,
  "352": 6233,
  "ĠPet": 6234,
  "Ġnegotiated": 6235,
  "ĠAG": 6236,
  "Ġsuggesting": 6237,
  "Accordingly": 6238,
  "Ġcrisis": 6239,
  "ĠRogers": 6240,
  "sc": 6241,
  "Where": 6242,
  "372": 6243,
  "Ġpersuaded": 6244,
  "act": 6245,
  "Ġtrusts": 6246,
  "Ġfight": 6247,
  "ĠLiberty": 6248,
  "Ġfide": 6249,
  "ĠHamilton": 6250,
  "ĠWhereas": 6251,
  "460": 6252,
  "ĠMon": 6253,
  "ĠAdvances": 6254,
  "ders": 6255,
  "Ġteacher": 6256,
  "ĠOJ": 6257,
  "560": 6258,
  "Ġspecification": 6259,
  "318": 6260,
  "ĠFile": 6261,
  "Ġmonitor": 6262,
  "pre": 6263,
  "471": 6264,
  "328": 6265,
  "ĠAlexander": 6266,
  "390": 6267,
  "507": 6268,
  "gh": 6269,
  "Ġcarriers": 6270,
  "Ġsquare": 6271,
  "702": 6272,
  "ĠPercentage": 6273,
  "Ġenhance": 6274,
  "Ġimposes": 6275,
  "Ġexamining": 6276,
  "hip": 6277,
  "ĠProceedings": 6278,
  "-W": 6279,
  "ox": 6280,
  "373": 6281,
  "burg": 6282,
  "Ġpurchasers": 6283,
  "ĠAgents": 6284,
  "Ġexplicit": 6285,
  "Ġminute": 6286,
  "283": 6287,
  "ĉD": 6288,
  "ĠHart": 6289,
  "ves": 6290,
  "Ġphysicians": 6291,
  "ible": 6292,
  "Ġhonor": 6293,
  "ĠMem": 6294,
  "ĠAngeles": 6295,
  "Ġstockholder": 6296,
  "Ġappropriated": 6297,
  "ĠRussell": 6298,
  "Ġexhaust": 6299,
  "Ġskill": 6300,
  "Ġmissing": 6301,
  "Ġmargin": 6302,
  "Ġunauthorized": 6303,
  "Ġcast": 6304,
  "Ġfranchise": 6305,
  "335": 6306,
  "Ġsucceed": 6307,
  "ha": 6308,
  "Ġcommitments": 6309,
  "Ġdrawing": 6310,
  "rom": 6311,
  "Ġimpaired": 6312,
  "Ġuntrue": 6313,
  "oll": 6314,
  "Ġrata": 6315,
  "Ġinnocent": 6316,
  "Ġfounded": 6317,
  "Ġfix": 6318,
  "Ġconcrete": 6319,
  "ĠAg": 6320,
  "ara": 6321,
  "Ġaccrue": 6322,
  "ress": 6323,
  "ĠADA": 6324,
  "ĠMartinez": 6325,
  "ĠRestatement": 6326,
  "Ġorganisation": 6327,
  "342": 6328,
  "EX": 6329,
  "Ġlessee": 6330,
  "Ġpursued": 6331,
  "413": 6332,
  "OM": 6333,
  "Ġzero": 6334,
  "Ġapplicability": 6335,
  "Miss": 6336,
  "441": 6337,
  "701": 6338,
  "ĠObligor": 6339,
  "ĠRay": 6340,
  "ĠTR": 6341,
  "Ġdifferently": 6342,
  "299": 6343,
  "Ġbig": 6344,
  "298": 6345,
  "ĠBook": 6346,
  "451": 6347,
  "Ġcalculations": 6348,
  "Ġbelonging": 6349,
  "Ġfalling": 6350,
  "Ġclarity": 6351,
  "ĠParker": 6352,
  "reasonable": 6353,
  "ĠHighway": 6354,
  "447": 6355,
  "Ġpreserved": 6356,
  "Ġtelling": 6357,
  "Ġhardship": 6358,
  "Ġcommitting": 6359,
  "ĠPurchasers": 6360,
  "-trial": 6361,
  "Ġforfeited": 6362,
  "391": 6363,
  "ĠArkansas": 6364,
  "ĠCost": 6365,
  "289": 6366,
  "Ġpersecution": 6367,
  "Ġpark": 6368,
  "Ġle": 6369,
  "Ġimplications": 6370,
  "Ġvary": 6371,
  "Ġgender": 6372,
  "port": 6373,
  "Ġentries": 6374,
  "ĠStatute": 6375,
  "ĠCORPORATION": 6376,
  "636": 6377,
  "Ġbag": 6378,
  "Ġdisabilities": 6379,
  "Ġindex": 6380,
  "Ġstate's": 6381,
  "418": 6382,
  "ĠWhy": 6383,
  "ĠBen": 6384,
  "ĠQuestion": 6385,
  "NA": 6386,
  "Ġpool": 6387,
  "Ġmunicipality": 6388,
  "within": 6389,
  "Ġrepay": 6390,
  "297": 6391,
  "yl": 6392,
  "He": 6393,
  ").)": 6394,
  "Ġsurplus": 6395,
  "bert": 6396,
  "482": 6397,
  "ĠLIBOR": 6398,
  "Ġconcurring": 6399,
  "Ġmoneys": 6400,
  "336": 6401,
  "ĠMost": 6402,
  "ĠChair": 6403,
  "Ġperfect": 6404,
  "361": 6405,
  "Ġreality": 6406,
  "435": 6407,
  "Ġadjacent": 6408,
  "Ġtend": 6409,
  "Ġmining": 6410,
  "own": 6411,
  "na": 6412,
  "IG": 6413,
  "Ġdeficiencies": 6414,
  "363": 6415,
  "Ġmalpractice": 6416,
  "Ġtribal": 6417,
  "ĠAviation": 6418,
  "Ġroads": 6419,
  "ĠAnother": 6420,
  "ĠPrivate": 6421,
  "Ġissuable": 6422,
  "Ġconcedes": 6423,
  "Ġrevision": 6424,
  "eth": 6425,
  "aj": 6426,
  "432": 6427,
  "ĠMal": 6428,
  "ari": 6429,
  "Ġpermanently": 6430,
  "Ġcommenter": 6431,
  "Ġadopting": 6432,
  "Ġolder": 6433,
  "use": 6434,
  "Ġrail": 6435,
  "ĠAPPEAL": 6436,
  "Ġgovernment's": 6437,
  "Ġmutually": 6438,
  "Ġrestrict": 6439,
  "Ġaccepts": 6440,
  "ĠEEOC": 6441,
  "421": 6442,
  "ĠChamber": 6443,
  "ĠCreek": 6444,
  "Ġreliability": 6445,
  "364": 6446,
  "ACTION": 6447,
  "Ġuncertainty": 6448,
  "Ġdeputy": 6449,
  "'l": 6450,
  "Ġlump": 6451,
  "Ġpsychological": 6452,
  "ified": 6453,
  "EU": 6454,
  "610": 6455,
  "Ġrecognised": 6456,
  "326": 6457,
  "ĠElectric": 6458,
  "Ġkilling": 6459,
  "ĠDepositary": 6460,
  "ĠPM": 6461,
  "480": 6462,
  "Ġsolicitors": 6463,
  "Ġproducers": 6464,
  "Ġtypically": 6465,
  "650": 6466,
  "Ġbriefing": 6467,
  "ĠJurisdiction": 6468,
  "(j": 6469,
  "Ġsecretary": 6470,
  "Ġconjunction": 6471,
  "Ġproximate": 6472,
  "Ġwants": 6473,
  "ively": 6474,
  "ĠStrickland": 6475,
  "Ġrevoke": 6476,
  "ĠPoint": 6477,
  "Ġcollege": 6478,
  "ĠGu": 6479,
  "ĠBond": 6480,
  "after": 6481,
  "Ġhistorical": 6482,
  "ĠReed": 6483,
  "Ġappreciate": 6484,
  "ĠOpp": 6485,
  "Ġ|Ċ": 6486,
  "-old": 6487,
  "Ġcustom": 6488,
  "-level": 6489,
  "Ġleaves": 6490,
  "Ġappraisal": 6491,
  "ĠProfessor": 6492,
  "Ġeye": 6493,
  "Ġfill": 6494,
  "Ġtreaty": 6495,
  "-tion": 6496,
  "work": 6497,
  "Ġstructures": 6498,
  "Here": 6499,
  "John": 6500,
  "EA": 6501,
  "Al": 6502,
  "388": 6503,
  "Ġhence": 6504,
  "za": 6505,
  "Ġimpair": 6506,
  "Ġstreets": 6507,
  "Ġprompt": 6508,
  "Ġattendance": 6509,
  "ĠKy": 6510,
  "384": 6511,
  "ĠTEX": 6512,
  "ĠMEMORANDUM": 6513,
  "-w": 6514,
  "Ġrelieve": 6515,
  "678": 6516,
  "Ġceased": 6517,
  "Ġ(Â§": 6518,
  "461": 6519,
  "Ġobservation": 6520,
  "would": 6521,
  "ĉthe": 6522,
  "HA": 6523,
  "Ġaltered": 6524,
  "NSW": 6525,
  "ĠIP": 6526,
  "Ġpilot": 6527,
  ".]ĊĊ": 6528,
  "Ġchild's": 6529,
  "Ġmalicious": 6530,
  "Ġcontracted": 6531,
  "ĠField": 6532,
  "Ġbehaviour": 6533,
  "Ġinitiative": 6534,
  "ĠPay": 6535,
  "491": 6536,
  "ĠAndrew": 6537,
  "ĠElection": 6538,
  "ĠEdward": 6539,
  "551": 6540,
  "343": 6541,
  "Ġrehearing": 6542,
  "ĠHouston": 6543,
  "Ġdog": 6544,
  "Ġoath": 6545,
  "Ġroll": 6546,
  "353": 6547,
  "ĠNavy": 6548,
  "ĠDelivery": 6549,
  "Ġindifference": 6550,
  "Ġahead": 6551,
  "Ġdriven": 6552,
  "Ġcancer": 6553,
  "332": 6554,
  "444": 6555,
  "Ġimpression": 6556,
  "509": 6557,
  "ĠDi": 6558,
  "ĠProcedures": 6559,
  "ĠFin": 6560,
  "ew": 6561,
  "/A": 6562,
  "Ġsatisfies": 6563,
  "Ġcommittees": 6564,
  "Ġdeeds": 6565,
  "DEPARTMENT": 6566,
  "455": 6567,
  "ĠStatements": 6568,
  "These": 6569,
  "Ġsea": 6570,
  "Ġcrossing": 6571,
  "ĠScheme": 6572,
  "ARD": 6573,
  "Ġdeprivation": 6574,
  "Ġbench": 6575,
  "347": 6576,
  "ĠFinancing": 6577,
  "Ġbought": 6578,
  "Ġwithhold": 6579,
  "515": 6580,
  "Ġunclear": 6581,
  "ĠLevel": 6582,
  "Ġab": 6583,
  "Ġevident": 6584,
  "Ġfirearms": 6585,
  "Ġqualifying": 6586,
  "Ġparcel": 6587,
  "Ġregulate": 6588,
  "Ġenforcing": 6589,
  "Ġacceleration": 6590,
  "ved": 6591,
  "ĠIndustry": 6592,
  "484": 6593,
  "Ġdomain": 6594,
  "357": 6595,
  "529": 6596,
  "ĠBeneficiary": 6597,
  "Ġsuspend": 6598,
  "-re": 6599,
  "Ġrestated": 6600,
  ".âĢĿ);": 6601,
  "Citation": 6602,
  "Ġrepurchase": 6603,
  "do": 6604,
  "Ġmodern": 6605,
  "Ġchurch": 6606,
  "And": 6607,
  "Ġstrategic": 6608,
  "-making": 6609,
  "522": 6610,
  "Ġintelligence": 6611,
  "Ġsubsections": 6612,
  "ĠPenal": 6613,
  "Ġmine": 6614,
  "Ġquarterly": 6615,
  "Ġlatest": 6616,
  "Upon": 6617,
  "Ġobliged": 6618,
  "head": 6619,
  "Ġtransition": 6620,
  "ĠAB": 6621,
  "ung": 6622,
  "003": 6623,
  "ott": 6624,
  "Bankr": 6625,
  "Ġleader": 6626,
  "ĠPCRA": 6627,
  "].)": 6628,
  "eg": 6629,
  "Ġracial": 6630,
  "Ġbriefly": 6631,
  "âĢĿ;": 6632,
  "Ġdefinite": 6633,
  "ines": 6634,
  "ĠJury": 6635,
  "Ġterminating": 6636,
  "ĠREVIEW": 6637,
  "392": 6638,
  "ake": 6639,
  "Ġacademic": 6640,
  "che": 6641,
  "ĠBritain": 6642,
  "553": 6643,
  "Ġhospitals": 6644,
  "Ġit's": 6645,
  "ĠNMFS": 6646,
  "ĠMinistry": 6647,
  "Ġstood": 6648,
  "Ġmobile": 6649,
  "ĠIJ": 6650,
  "ĠSullivan": 6651,
  "Ġmailing": 6652,
  "Ġcovers": 6653,
  "Ġtotally": 6654,
  "Ġrestraining": 6655,
  "508": 6656,
  "ĠIslands": 6657,
  "NE": 6658,
  "Ġtotality": 6659,
  "ĠGarcia": 6660,
  "SU": 6661,
  "Ġbottom": 6662,
  "911": 6663,
  "ĠMor": 6664,
  "Ġboundaries": 6665,
  "ĠReporting": 6666,
  "Ġ.\"": 6667,
  "ĠWall": 6668,
  "Ġhotel": 6669,
  "Ġends": 6670,
  "Ġexecutor": 6671,
  "water": 6672,
  "Ġlicensee": 6673,
  "Ġsit": 6674,
  "Ġemphasis": 6675,
  "from": 6676,
  "Ġinnocence": 6677,
  "Ġexemptions": 6678,
  "ĠKennedy": 6679,
  "Ġcitizenship": 6680,
  "ĠDeclaration": 6681,
  "Ġdeprive": 6682,
  "481": 6683,
  "Ġinvoice": 6684,
  "ĠObligation": 6685,
  "Ġ.Ċ": 6686,
  "ĠSentencing": 6687,
  "itz": 6688,
  "ep": 6689,
  "445": 6690,
  "ĠPress": 6691,
  "Ġreturning": 6692,
  "MM": 6693,
  "Donald": 6694,
  "Ġones": 6695,
  "Â§": 6696,
  "ĠDefinitions": 6697,
  "Pro": 6698,
  "Ġunderstands": 6699,
  "Ġcontacts": 6700,
  "329": 6701,
  "ĠProvider": 6702,
  "417": 6703,
  "ĠConduct": 6704,
  "Ġdon": 6705,
  "Ġelectronically": 6706,
  "Ġdealer": 6707,
  "ome": 6708,
  "Ġflexibility": 6709,
  "Ġaccurately": 6710,
  "inger": 6711,
  "334": 6712,
  "Ġcertiorari": 6713,
  ",-": 6714,
  "Ġassertions": 6715,
  "ify": 6716,
  "ĠTarget": 6717,
  "Ġadmits": 6718,
  "ĠDis": 6719,
  "Ġresource": 6720,
  "bs": 6721,
  "Ġbroader": 6722,
  "Ġsmaller": 6723,
  "VA": 6724,
  "720": 6725,
  "atory": 6726,
  "Ġha": 6727,
  "338": 6728,
  "ark": 6729,
  "ĠCP": 6730,
  "ĠConsultant": 6731,
  "ĠQuality": 6732,
  "had": 6733,
  "ĠTransactions": 6734,
  "ĠGerman": 6735,
  "ĠPleas": 6736,
  "ĠMontana": 6737,
  "Ġveterans": 6738,
  "367": 6739,
  "Ġdeals": 6740,
  ".âĢĶ(": 6741,
  "ĠMAY": 6742,
  "'')": 6743,
  "383": 6744,
  "ĠHughes": 6745,
  "Ġrendering": 6746,
  "ĠNatural": 6747,
  "man's": 6748,
  "Ġreversible": 6749,
  "ĠStaff": 6750,
  "Ġsucceeding": 6751,
  "429": 6752,
  "SO": 6753,
  "Ġsummer": 6754,
  "Ġdelegated": 6755,
  "ĠPe": 6756,
  "BR": 6757,
  "hes": 6758,
  "ĠModel": 6759,
  "Ġplayed": 6760,
  "397": 6761,
  "Ġminimal": 6762,
  "ĠWal": 6763,
  "Ġcommonly": 6764,
  "Ġescrow": 6765,
  "Ġprevention": 6766,
  "Ġrecognise": 6767,
  "FC": 6768,
  "ĠSH": 6769,
  "ĠCorps": 6770,
  "Ġcandidates": 6771,
  "Ġdispositive": 6772,
  "âĢĿ).ĊĊ": 6773,
  "ĠRO": 6774,
  "ĠDepartment's": 6775,
  "ĠNeb": 6776,
  "Ġtherapy": 6777,
  "ĠDefence": 6778,
  "Ġsubjects": 6779,
  "Ġcompeting": 6780,
  "-Appellant": 6781,
  "Ġbegins": 6782,
  "Ġdepositions": 6783,
  "EM": 6784,
  "/a": 6785,
  "374": 6786,
  "Ġmass": 6787,
  "ĠTra": 6788,
  "ĠCap": 6789,
  "ĠAssociates": 6790,
  "Ġexecuting": 6791,
  "ĠNov": 6792,
  "GA": 6793,
  "Ġoperative": 6794,
  "AGENCY": 6795,
  "ĠCC": 6796,
  "Ġnonetheless": 6797,
  "+": 6798,
  "Ġpassengers": 6799,
  "Ġsharing": 6800,
  "-h": 6801,
  "ĠFrance": 6802,
  "Ġtrafficking": 6803,
  "Ġtalked": 6804,
  "ret": 6805,
  "Ġroyalty": 6806,
  "lay": 6807,
  "Ġincarceration": 6808,
  "Ġcustoms": 6809,
  "ET": 6810,
  "Ġy": 6811,
  "ĠRestated": 6812,
  "Ġpayroll": 6813,
  "vii": 6814,
  "Ġtiming": 6815,
  "Federal": 6816,
  "ĠRFC": 6817,
  "SP": 6818,
  "\"A": 6819,
  "-one": 6820,
  "770": 6821,
  "ĠSk": 6822,
  "457": 6823,
  "Un": 6824,
  "med": 6825,
  "Ġbankrupt": 6826,
  "474": 6827,
  "ĠFC": 6828,
  "Ġschedules": 6829,
  "Ġshoulder": 6830,
  "662": 6831,
  "ĠPlease": 6832,
  "ĠFull": 6833,
  "ĠAnthony": 6834,
  "ĠMD": 6835,
  "ides": 6836,
  "ency": 6837,
  "ĠRelief": 6838,
  "Ġunlike": 6839,
  "Ġrep": 6840,
  "Having": 6841,
  "FS": 6842,
  "ĠEmergency": 6843,
  "ĠINS": 6844,
  "ĉL": 6845,
  "Ġacquiring": 6846,
  "par": 6847,
  "ances": 6848,
  "ĠCoal": 6849,
  "ette": 6850,
  "CL": 6851,
  "ĠSeventh": 6852,
  "ĠEdition": 6853,
  "aff": 6854,
  "ĠLane": 6855,
  "433": 6856,
  "Ġrec": 6857,
  "514": 6858,
  "IB": 6859,
  "Ġattacks": 6860,
  "ĠApplicants": 6861,
  "Ġdisclosures": 6862,
  "ĠRCW": 6863,
  "Ġrestraint": 6864,
  "Ġcircumstantial": 6865,
  "ĠGulf": 6866,
  "346": 6867,
  "Ġcorrected": 6868,
  "Ġdesires": 6869,
  "Ġpartially": 6870,
  "Ġleg": 6871,
  "ular": 6872,
  "ble": 6873,
  "Ġradio": 6874,
  "yn": 6875,
  "ĠMadam": 6876,
  "Ġvague": 6877,
  "465": 6878,
  "Ġbases": 6879,
  "Ġpicture": 6880,
  "Ġtheories": 6881,
  "Ġextends": 6882,
  "ĠFree": 6883,
  "ĠAFFIRMED": 6884,
  "ear": 6885,
  "Ġcounties": 6886,
  "Ġclaimant's": 6887,
  "ĠBoston": 6888,
  "345": 6889,
  "349": 6890,
  "602": 6891,
  "ĠEurodollar": 6892,
  "Ġwalking": 6893,
  "/EC": 6894,
  "Ġyouth": 6895,
  "-by": 6896,
  "Ġnews": 6897,
  ".\").": 6898,
  "anc": 6899,
  "ky": 6900,
  "ĠHo": 6901,
  "Ġagency's": 6902,
  "unless": 6903,
  "Ġdepending": 6904,
  "ini": 6905,
  "Ġextensions": 6906,
  "Ġfurtherance": 6907,
  "Ġalteration": 6908,
  "Ġplants": 6909,
  "Ġriver": 6910,
  "532": 6911,
  "Ġimports": 6912,
  "547": 6913,
  "ĠCounts": 6914,
  "ĠPER": 6915,
  "Ġoffenders": 6916,
  "ĠI'm": 6917,
  "606": 6918,
  "ston": 6919,
  "Ġpurely": 6920,
  "Ġafternoon": 6921,
  "Our": 6922,
  "Ġpredecessor": 6923,
  "389": 6924,
  "Any": 6925,
  "Ġredeemed": 6926,
  "497": 6927,
  "ĠProvided": 6928,
  "Ġappropriations": 6929,
  "605": 6930,
  "ĠBR": 6931,
  "ĠIndia": 6932,
  "Ġupper": 6933,
  "924": 6934,
  "419": 6935,
  "841": 6936,
  "ĠNe": 6937,
  "Ġerroneously": 6938,
  "ĠNebraska": 6939,
  "Ġref": 6940,
  "oe": 6941,
  "Ġunlawfully": 6942,
  "Ġattending": 6943,
  "Ġknife": 6944,
  "438": 6945,
  "]t": 6946,
  "Ġ{": 6947,
  "Ġassumptions": 6948,
  "Ġdisc": 6949,
  "462": 6950,
  ".Super": 6951,
  "ANT": 6952,
  "517": 6953,
  "513": 6954,
  "ĠSupply": 6955,
  "Ġborder": 6956,
  "ĠFranklin": 6957,
  "Ġopined": 6958,
  "ĠSubordinated": 6959,
  "ĠDISCUSSION": 6960,
  "Ġshop": 6961,
  "ĠPA": 6962,
  "Ġbreaches": 6963,
  "ently": 6964,
  "com": 6965,
  "Ġclimate": 6966,
  "Ġindenture": 6967,
  "Ġwait": 6968,
  "IO": 6969,
  "ona": 6970,
  "Ġalimony": 6971,
  "369": 6972,
  "Ġpursuing": 6973,
  "Ġimmaterial": 6974,
  "Ġformat": 6975,
  "Ġfewer": 6976,
  "ĠScience": 6977,
  "ks": 6978,
  "Ġexpand": 6979,
  "452": 6980,
  "Ġreckless": 6981,
  "Ġborne": 6982,
  "Ġconclusively": 6983,
  "Ġelectrical": 6984,
  "ifying": 6985,
  "Ġcompany's": 6986,
  "ĠJA": 6987,
  "ĠSheriff": 6988,
  ":ĊĊĊĊ": 6989,
  "ĠDO": 6990,
  "-called": 6991,
  "Ġinput": 6992,
  "Ġunsecured": 6993,
  "Not": 6994,
  "ĠMajor": 6995,
  "703": 6996,
  "ĠTest": 6997,
  "ĠGod": 6998,
  "Ġsupplier": 6999,
  "Ġsexually": 7000,
  "ps": 7001,
  "Ġeveryone": 7002,
  "Ġhappening": 7003,
  "Ġambiguity": 7004,
  "uring": 7005,
  "Ġlabour": 7006,
  "339": 7007,
  "463": 7008,
  "ros": 7009,
  "ĠLawrence": 7010,
  "Ġconversations": 7011,
  "ĠFoundation": 7012,
  "ĠCurrency": 7013,
  "ĠContributions": 7014,
  "531": 7015,
  "Ġassumes": 7016,
  "ĠFacts": 7017,
  "One": 7018,
  "ct": 7019,
  "ĠPhiladelphia": 7020,
  "Ġtrials": 7021,
  "ĠER": 7022,
  "nt": 7023,
  "499": 7024,
  "Ġsl": 7025,
  "Ġadminister": 7026,
  "[ed": 7027,
  "Ġdetained": 7028,
  "540": 7029,
  "493": 7030,
  "gan": 7031,
  "Ġdistinguish": 7032,
  "ĠAre": 7033,
  "ĠOut": 7034,
  "356": 7035,
  "Ġfreight": 7036,
  "Ġbit": 7037,
  "&": 7038,
  "ĠProspectus": 7039,
  "Ġlender": 7040,
  "ont": 7041,
  "[Congressional": 7042,
  "ĉR": 7043,
  "ting": 7044,
  "ĉĠĉĠĉĠ": 7045,
  "Ġrejecting": 7046,
  "Ġreligion": 7047,
  "Ġidentifies": 7048,
  "459": 7049,
  "ĠHad": 7050,
  "Ġmethamphetamine": 7051,
  "Ġdrivers": 7052,
  "Ġdebtors": 7053,
  "Ġfashion": 7054,
  "ĠList": 7055,
  "483": 7056,
  "437": 7057,
  "Ġvictim's": 7058,
  "time": 7059,
  "BS": 7060,
  "-hour": 7061,
  "What": 7062,
  "Ġinferred": 7063,
  "Ġcommunicate": 7064,
  "non": 7065,
  "ze": 7066,
  "ĠCOVID": 7067,
  "ith": 7068,
  "ĠAppellees": 7069,
  "Ġcausal": 7070,
  "Rule": 7071,
  "Ġmortgages": 7072,
  "Ġround": 7073,
  "010": 7074,
  "467": 7075,
  "Ġinterpreting": 7076,
  "Ġweekly": 7077,
  "Ġ(\"[": 7078,
  "ĠHomeland": 7079,
  "Ġinsolvent": 7080,
  "Ġenumerated": 7081,
  "From": 7082,
  "Ġsubpart": 7083,
  "Ġimproving": 7084,
  "469": 7085,
  "ĠGo": 7086,
  "Ġpromised": 7087,
  "434": 7088,
  "ĠChe": 7089,
  "ĠDATE": 7090,
  "359": 7091,
  "Ġconsultant": 7092,
  "ĠDrive": 7093,
  "Ġsending": 7094,
  "SI": 7095,
  "ĠSERVICES": 7096,
  "377": 7097,
  "ĠWatson": 7098,
  "Ġlitigant": 7099,
  "ata": 7100,
  "348": 7101,
  "ME": 7102,
  "Ġpricing": 7103,
  "Ġdisregarded": 7104,
  "Ġoccupancy": 7105,
  "Ġmonies": 7106,
  "ĠTom": 7107,
  "Ġengineering": 7108,
  "\"Q": 7109,
  "Ġpath": 7110,
  "Ġballot": 7111,
  "476": 7112,
  "SUPPLEMENTARY": 7113,
  "You": 7114,
  "489": 7115,
  "393": 7116,
  "ĠWorks": 7117,
  "Affirmed": 7118,
  "Ġproffered": 7119,
  "Ġamounted": 7120,
  "Ġposed": 7121,
  "Ġrents": 7122,
  "Ġcentre": 7123,
  "Ġmalice": 7124,
  "542": 7125,
  "Ġindustries": 7126,
  "Ġliquor": 7127,
  "344": 7128,
  "704": 7129,
  "604": 7130,
  "Ġupdate": 7131,
  "Ġemployee's": 7132,
  "ĠPh": 7133,
  "ĠSwing": 7134,
  "[d": 7135,
  "ĠWil": 7136,
  "Ġconcurrently": 7137,
  "Ġconvinced": 7138,
  "Ġseeing": 7139,
  "Ġreductions": 7140,
  "Ġinvest": 7141,
  "Ġlapse": 7142,
  "Ġtruly": 7143,
  "row": 7144,
  "Ġbind": 7145,
  "ĠCongressional": 7146,
  "Ġsuccessive": 7147,
  "Ġample": 7148,
  "'t": 7149,
  "Ġendorsed": 7150,
  "ĠActing": 7151,
  "920": 7152,
  "ĠSu": 7153,
  "Count": 7154,
  "Ġconvert": 7155,
  "ĠItem": 7156,
  "668": 7157,
  "382": 7158,
  "ĠMS": 7159,
  "396": 7160,
  "Ġcancelled": 7161,
  "378": 7162,
  "ĠRegarding": 7163,
  "Ġvoice": 7164,
  "ĠIX": 7165,
  "inc": 7166,
  "ĠMA": 7167,
  "ĠConference": 7168,
  "Ġaggravating": 7169,
  "-out": 7170,
  "519": 7171,
  "ĠRock": 7172,
  "ĠRyan": 7173,
  "ĠAdjustment": 7174,
  "609": 7175,
  "(l": 7176,
  "ĠSite": 7177,
  "Ġpulled": 7178,
  "Ġconsist": 7179,
  "OPINION": 7180,
  "Ġenhanced": 7181,
  "368": 7182,
  "Cth": 7183,
  "ĠSept": 7184,
  "Ġpresenting": 7185,
  "ĠAug": 7186,
  "Ġeasy": 7187,
  "Ġhelped": 7188,
  "Ġdirects": 7189,
  "ding": 7190,
  "Ġactively": 7191,
  "Ġdelays": 7192,
  "Ġthereupon": 7193,
  "449": 7194,
  "533": 7195,
  "Ġcharacterized": 7196,
  "Ġmanslaughter": 7197,
  "ĠSP": 7198,
  "442": 7199,
  "-a": 7200,
  "Ġemployer's": 7201,
  "i's": 7202,
  "ĠAircraft": 7203,
  "ĠWash": 7204,
  "ĠAfrica": 7205,
  "387": 7206,
  "ĠâĢľâĢĺ": 7207,
  "Ġtrouble": 7208,
  "Ġflood": 7209,
  "Ġengineer": 7210,
  "Ġinapplicable": 7211,
  "Ġrailway": 7212,
  "Ġprocurement": 7213,
  "ĠOutstanding": 7214,
  "Ġturns": 7215,
  "Part": 7216,
  "âĢĻl": 7217,
  "740": 7218,
  "Ġconcentration": 7219,
  "Ġlargest": 7220,
  "Ġreferee": 7221,
  "Ġdigital": 7222,
  "Ġgeneration": 7223,
  "Ġroutine": 7224,
  "Ġthousands": 7225,
  "Ġmistrial": 7226,
  "Ġdeducted": 7227,
  "427": 7228,
  "ĠStephen": 7229,
  "Ġinvested": 7230,
  "Ġcured": 7231,
  "LL": 7232,
  "381": 7233,
  "468": 7234,
  "ĠGold": 7235,
  "ĠDomestic": 7236,
  "487": 7237,
  "ĠShould": 7238,
  "ĠRIGHTS": 7239,
  "ĠĠĠĠĠĠĠĠĠĠĠĠĠĠĠĠĠĠĠĠĠĠĠĠĠĠĠĠĠĠĠĠĠĠĠĠĠĠĠĠĠĠĠĠĠĠĠĠĠĠĠĠĠ": 7240,
  "state": 7241,
  "524": 7242,
  "Ġlevied": 7243,
  "Ġwidow": 7244,
  "Ġcomplains": 7245,
  "Ġdistinguishable": 7246,
  "sey": 7247,
  "ĠMontgomery": 7248,
  "ĠSergeant": 7249,
  "Ġcomplying": 7250,
  "Ġassisted": 7251,
  "ĠPetitioners": 7252,
  "Ġnegotiation": 7253,
  "426": 7254,
  "PL": 7255,
  "Ġsurrendered": 7256,
  "istic": 7257,
  "Ġvan": 7258,
  "Ġvulnerable": 7259,
  "354": 7260,
  "521": 7261,
  "Ġscience": 7262,
  "Ġaccountants": 7263,
  "ĠAuto": 7264,
  "ĠMR": 7265,
  "Ġprosecuted": 7266,
  "Ġintersection": 7267,
  "Ġdec": 7268,
  "Ġjeopardy": 7269,
  "Ġmemory": 7270,
  "ending": 7271,
  "Ġsuppliers": 7272,
  "ĠGordon": 7273,
  "val": 7274,
  "ĠLP": 7275,
  "ĠRepublican": 7276,
  "',": 7277,
  "United": 7278,
  "ening": 7279,
  "ĠNSW": 7280,
  "Ġavoided": 7281,
  "Ġbroadly": 7282,
  "Ġcongressional": 7283,
  "Ġcuts": 7284,
  "Ġhypothetical": 7285,
  "Ġdeliberately": 7286,
  "comp": 7287,
  "Ġmoves": 7288,
  "379": 7289,
  "376": 7290,
  "ĠParticipant's": 7291,
  "Ġneck": 7292,
  "ĠChase": 7293,
  "ĠDes": 7294,
  "ĠMC": 7295,
  "ĠDakota": 7296,
  "ĠRichardson": 7297,
  "Ġrelator": 7298,
  "ten": 7299,
  "oh": 7300,
  "Ġundertakings": 7301,
  "564": 7302,
  "ĠWas": 7303,
  "Ġrepealed": 7304,
  "Ġtransmitting": 7305,
  "WA": 7306,
  "Ġvoters": 7307,
  "Ġstructural": 7308,
  "ĠStone": 7309,
  "488": 7310,
  "Ġentitle": 7311,
  "ĠLitigation": 7312,
  "Ġreveal": 7313,
  "ĠType": 7314,
  "Ġbiological": 7315,
  "SH": 7316,
  "ĠStockholder": 7317,
  "ĠBo": 7318,
  "same": 7319,
  "ĠCD": 7320,
  "Ġincarcerated": 7321,
  "VI": 7322,
  "ect": 7323,
  "518": 7324,
  "su": 7325,
  "Note": 7326,
  "Ġwalked": 7327,
  "]:": 7328,
  "FF": 7329,
  "ĠORS": 7330,
  "provided": 7331,
  "Ġquantities": 7332,
  "Ġbedroom": 7333,
  "LY": 7334,
  "Ġleads": 7335,
  "Ġdiscloses": 7336,
  "ĠGround": 7337,
  "Ġseason": 7338,
  "Ġfence": 7339,
  "Ġsilent": 7340,
  "667": 7341,
  "inter": 7342,
  "Ġcolumn": 7343,
  "Ġfacing": 7344,
  "Ġexpansion": 7345,
  "Ġconcurred": 7346,
  "ĠPerry": 7347,
  "ote": 7348,
  "394": 7349,
  "Ġcompensate": 7350,
  "Ġpollution": 7351,
  "ĠSECURITY": 7352,
  "ĠEqual": 7353,
  "Ġhostile": 7354,
  "Ġannouncement": 7355,
  "ĠBalance": 7356,
  "defendant": 7357,
  "ern": 7358,
  "454": 7359,
  "eck": 7360,
  "Ġinspect": 7361,
  "ĠRailway": 7362,
  "Ġexchanged": 7363,
  "Ġadduced": 7364,
  "Ġoversight": 7365,
  "516": 7366,
  "Ġgrateful": 7367,
  "Ġaffiliate": 7368,
  "Ġrevise": 7369,
  "Ġdead": 7370,
  "uck": 7371,
  "Ġcondemnation": 7372,
  "ĠBonds": 7373,
  "ĠCJ": 7374,
  "603": 7375,
  "Ġgains": 7376,
  "Ġvs": 7377,
  "arm": 7378,
  "Ġinvestigating": 7379,
  "ĠAgainst": 7380,
  "Ġfeature": 7381,
  "Ġcancel": 7382,
  "ĠOct": 7383,
  "Ġprosecuting": 7384,
  "Ġinstitutional": 7385,
  "Ġassured": 7386,
  "Ġwished": 7387,
  "ĠJust": 7388,
  "545": 7389,
  "uc": 7390,
  "Ġformation": 7391,
  "Ġtechniques": 7392,
  "ister": 7393,
  "Ġconclusory": 7394,
  "ĠBrady": 7395,
  "Ġdiffer": 7396,
  "ki": 7397,
  "Ġexplains": 7398,
  "âĢĺ": 7399,
  "535": 7400,
  "ĠLopez": 7401,
  "Ġmortgagee": 7402,
  "Ġroof": 7403,
  "ĠPART": 7404,
  "Ġconstruct": 7405,
  "ĠBeach": 7406,
  "398": 7407,
  "ĠDefaulting": 7408,
  "Ġtrademark": 7409,
  "Ġreopen": 7410,
  "ĠDallas": 7411,
  "525": 7412,
  "zer": 7413,
  "485": 7414,
  "Ġspecifying": 7415,
  "Ġpreamble": 7416,
  "Ġirreparable": 7417,
  "--(": 7418,
  "Ġdisplay": 7419,
  "Ġretired": 7420,
  "Ġguide": 7421,
  "Counsel": 7422,
  "537": 7423,
  "Ġremedial": 7424,
  "oth": 7425,
  "ished": 7426,
  "ĠEN": 7427,
  "ĠSUMMARY": 7428,
  "ĠSunday": 7429,
  "ĠShareholder": 7430,
  "Ġarms": 7431,
  "Ġnurse": 7432,
  "IF": 7433,
  "Ġignored": 7434,
  "ays": 7435,
  "Ġvice": 7436,
  "ĠSavings": 7437,
  "Ġaccessible": 7438,
  "aid": 7439,
  "Ġanalogous": 7440,
  "Ġapproving": 7441,
  "Ġovernight": 7442,
  "Ġaffirmatively": 7443,
  "Ġencouraged": 7444,
  "ĠFeb": 7445,
  "Ġseverally": 7446,
  "side": 7447,
  "ĠLu": 7448,
  "Ġtechnologies": 7449,
  "495": 7450,
  "554": 7451,
  "Ġattach": 7452,
  "ĠKey": 7453,
  "ĠIC": 7454,
  "ame": 7455,
  "562": 7456,
  "ĠVIII": 7457,
  "ĠTHEREFORE": 7458,
  "ĠServicing": 7459,
  "526": 7460,
  "446": 7461,
  "Ġpractitioner": 7462,
  "Ġseverity": 7463,
  "478": 7464,
  "Ġinternet": 7465,
  "439": 7466,
  "ĠTranche": 7467,
  "Ġceases": 7468,
  "ĠEm": 7469,
  "Ġboards": 7470,
  "ĠRatio": 7471,
  "Ġnegotiate": 7472,
  "Ġinvoices": 7473,
  "625": 7474,
  "ĠServ": 7475,
  "428": 7476,
  "ĠMurray": 7477,
  "Ġfarmers": 7478,
  "486": 7479,
  "ĠHa": 7480,
  "Ġconstituents": 7481,
  "Ġvendor": 7482,
  "706": 7483,
  "Ġcards": 7484,
  "worth": 7485,
  "ĠFY": 7486,
  "Ġvacation": 7487,
  "new": 7488,
  "ĠConservation": 7489,
  "Ġendorsement": 7490,
  "472": 7491,
  "Ġgame": 7492,
  "ĠĠĠĠĠĠĠĠĠĠĠĠĠĠĠĠĠĠĠĠĠĠĠĠĠĠĠĠĠĠĠĠĠĠĠĠĠĠĠĠĠĠĠĠĠĠĠĠĠĠĠĠĠĠ": 7493,
  "Ġvirtually": 7494,
  "ĠYORK": 7495,
  "ĠBush": 7496,
  "901": 7497,
  "Ġrestore": 7498,
  "Ġimported": 7499,
  "Ġss": 7500,
  "Ġadequacy": 7501,
  "cont": 7502,
  "Ġobjectively": 7503,
  "Ġvariance": 7504,
  "que": 7505,
  "ĠHolding": 7506,
  "Ġlying": 7507,
  "Name": 7508,
  "Ġnoise": 7509,
  "Ġoppose": 7510,
  "Ġprofession": 7511,
  "Ġspread": 7512,
  "Ġfilled": 7513,
  "ĠEleventh": 7514,
  "Ġcorner": 7515,
  "Ġrenew": 7516,
  "ĠElectronic": 7517,
  "Ar": 7518,
  "Ġimplication": 7519,
  "ĠNetwork": 7520,
  "Ġovertime": 7521,
  "Ġretroactive": 7522,
  "Ġclothing": 7523,
  "Ġcrucial": 7524,
  "Ġfrequency": 7525,
  "Ġtempore": 7526,
  "Ġgreatest": 7527,
  "ĠGoverning": 7528,
  "),Ċ": 7529,
  "Ġcom": 7530,
  "Â°": 7531,
  "399": 7532,
  "ĠLot": 7533,
  "Ġnursing": 7534,
  "ĠSR": 7535,
  "ĠUCC": 7536,
  "Ġinquiries": 7537,
  "ĠCall": 7538,
  "548": 7539,
  "Ġdelegate": 7540,
  "Ġelects": 7541,
  "uk": 7542,
  "Ġcomplain": 7543,
  "Ġmessages": 7544,
  "Ġinvoked": 7545,
  "Ġremote": 7546,
  "Order": 7547,
  "ual": 7548,
  "527": 7549,
  "ĠFoster": 7550,
  "ĠBel": 7551,
  "ave": 7552,
  "538": 7553,
  "view": 7554,
  "ĠOp": 7555,
  "UL": 7556,
  "Ġcattle": 7557,
  "BC": 7558,
  "Ġimp": 7559,
  "Ġsick": 7560,
  "ĠCountry": 7561,
  "Ġdrafted": 7562,
  "Ġrealized": 7563,
  "Ġforthwith": 7564,
  "-for": 7565,
  "Ġpriorities": 7566,
  "Ġforeseeable": 7567,
  "RC": 7568,
  "Ġdefer": 7569,
  "Ġprescribe": 7570,
  "ĠWarren": 7571,
  "Ġresponding": 7572,
  "ology": 7573,
  "cher": 7574,
  "802": 7575,
  "ĠFour": 7576,
  "Ġutilized": 7577,
  "ĠMid": 7578,
  "ĠArmed": 7579,
  "456": 7580,
  "Ġapprovals": 7581,
  "Ġfunctioning": 7582,
  "ĠPowell": 7583,
  "Ġresidual": 7584,
  "ĠNext": 7585,
  "Ġtrespass": 7586,
  "498": 7587,
  ".V": 7588,
  "705": 7589,
  "ĠConclusion": 7590,
  "Ġinjustice": 7591,
  "ĠReason": 7592,
  "Ġinstallments": 7593,
  "ĠGenerally": 7594,
  "Ġmilk": 7595,
  "ĠFacilities": 7596,
  "Ġinvoke": 7597,
  "Ġconsequently": 7598,
  "#": 7599,
  "Other": 7600,
  "ĉĉ": 7601,
  "ĉT": 7602,
  "âĢĶĊĊ": 7603,
  "Ġexaminer": 7604,
  "Ġexpire": 7605,
  "HS": 7606,
  "453": 7607,
  "ĉN": 7608,
  "ĠDesignated": 7609,
  "Ġslightly": 7610,
  "Ġdocumentary": 7611,
  "ĠDECISION": 7612,
  "ĠIndividual": 7613,
  "Ġsuspected": 7614,
  "OF": 7615,
  "Ġcustodian": 7616,
  "546": 7617,
  "ĠIndustries": 7618,
  "Ġcargo": 7619,
  "Ġcities": 7620,
  "ĠVehicle": 7621,
  "Ġherewith": 7622,
  "Ġadministrators": 7623,
  "ĠFox": 7624,
  "Ġrecommend": 7625,
  "MI": 7626,
  "496": 7627,
  "Ġhourly": 7628,
  "Ġemission": 7629,
  "Ġliquidated": 7630,
  "Ġstability": 7631,
  "Ġban": 7632,
  "Ġadjust": 7633,
  "ĠRec": 7634,
  "ĠTownship": 7635,
  "ĠSpace": 7636,
  "494": 7637,
  "Ġrenders": 7638,
  "enc": 7639,
  "574": 7640,
  "Ġbargain": 7641,
  "580": 7642,
  "ĠHenderson": 7643,
  "Ġprogrammes": 7644,
  "Ġintegral": 7645,
  "528": 7646,
  "-ing": 7647,
  "Ġinvestor": 7648,
  "yer": 7649,
  "Ġinc": 7650,
  "Ġunambiguous": 7651,
  "ĠBro": 7652,
  "ĠProfessional": 7653,
  "ĠHusband": 7654,
  "ĠDept": 7655,
  "Ġbars": 7656,
  "oss": 7657,
  "inn": 7658,
  "ĠALL": 7659,
  "right": 7660,
  "543": 7661,
  "Ġload": 7662,
  "amp": 7663,
  "ales": 7664,
  "ĠMason": 7665,
  "Ġar": 7666,
  "Ġmixed": 7667,
  "Ġdef": 7668,
  "General": 7669,
  "Ġconsisted": 7670,
  "Ġheat": 7671,
  "Ġbl": 7672,
  "571": 7673,
  "TON": 7674,
  "Ġcontributory": 7675,
  "549": 7676,
  "ola": 7677,
  "ĠRecommendation": 7678,
  "ĠTerry": 7679,
  "Ġminds": 7680,
  "ĠSam": 7681,
  "Ġhiring": 7682,
  "Ġwind": 7683,
  "Ġlifetime": 7684,
  "ians": 7685,
  "ĠMill": 7686,
  "ĠAttention": 7687,
  "Ad": 7688,
  "563": 7689,
  ".ĊĊĊĊĊĊĊ": 7690,
  "Ġmission": 7691,
  "Ġdevelopments": 7692,
  "ĠFive": 7693,
  "ĠPostal": 7694,
  "Ġconsulting": 7695,
  "850": 7696,
  "Ġprocure": 7697,
  "Ġheavily": 7698,
  "Ġtrip": 7699,
  "ĠIssuers": 7700,
  "Ġscreening": 7701,
  "666": 7702,
  "Ġsignal": 7703,
  "âĢŁs": 7704,
  ".K": 7705,
  "Ġcultural": 7706,
  "ace": 7707,
  "Ġissuer": 7708,
  "Ġattributed": 7709,
  "ull": 7710,
  "DATES": 7711,
  "ĠSm": 7712,
  "ĠCOMMISSION": 7713,
  "Ġ[***]": 7714,
  "Ġwider": 7715,
  "ĠIndex": 7716,
  "630": 7717,
  "Ġcomputed": 7718,
  "Ġaccomplished": 7719,
  "Ġspirit": 7720,
  "Ġenjoy": 7721,
  "Ġrestoration": 7722,
  "ĠHam": 7723,
  "ALL": 7724,
  "ĠAustin": 7725,
  "Ġinspector": 7726,
  "Ġunanimously": 7727,
  "Ġpipe": 7728,
  "ĠSeveral": 7729,
  "Ġret": 7730,
  "Ġauthor": 7731,
  "TO": 7732,
  "Ġtestifying": 7733,
  "Ġspeculative": 7734,
  "Ġurges": 7735,
  "Ġexhausted": 7736,
  "Ġdiagnosed": 7737,
  "ining": 7738,
  "Ġperceived": 7739,
  "Ġstored": 7740,
  "Ġdeleted": 7741,
  "536": 7742,
  "ĠHCA": 7743,
  "Ġtangible": 7744,
  "section": 7745,
  "ĠCox": 7746,
  "-st": 7747,
  "ĠButler": 7748,
  "611": 7749,
  "ĠQualified": 7750,
  "Ġquotations": 7751,
  "Ġsupervisory": 7752,
  "ĠAtt": 7753,
  "ĠBox": 7754,
  "ĠWelsh": 7755,
  "LEY": 7756,
  "ĠSand": 7757,
  "Ġfourteen": 7758,
  "âĢĿ).Ċ": 7759,
  "Ġcorrection": 7760,
  "Ġengagement": 7761,
  "640": 7762,
  "Ġadjudicated": 7763,
  "Ġwording": 7764,
  "Ġpick": 7765,
  "ld": 7766,
  "ĠSupplement": 7767,
  "Ġrepeat": 7768,
  "004": 7769,
  "vers": 7770,
  "ĠHazardous": 7771,
  "Ġusage": 7772,
  "Ġheretofore": 7773,
  "Ġinvalidity": 7774,
  "Ġcommunicated": 7775,
  "Ġinsisted": 7776,
  "464": 7777,
  "Ġincorporate": 7778,
  "ĠMaintenance": 7779,
  "ĠCOUNTY": 7780,
  "Ġanalyzed": 7781,
  "Ġresolving": 7782,
  "Ġthorough": 7783,
  "Ġaffiliated": 7784,
  "David": 7785,
  "fully": 7786,
  "Ġfatal": 7787,
  "ĠMO": 7788,
  "Ġmedium": 7789,
  "Ġguaranty": 7790,
  "ĠSHALL": 7791,
  "Ġairport": 7792,
  "ĠWh": 7793,
  "ĠJustices": 7794,
  ".(": 7795,
  "Ġcf": 7796,
  "492": 7797,
  "ĠChristopher": 7798,
  "Ġinstallment": 7799,
  "ĠJordan": 7800,
  "458": 7801,
  "\".ĊĊ": 7802,
  "660": 7803,
  "Ġnuisance": 7804,
  "ĠStar": 7805,
  "Ġconstruing": 7806,
  "ĠInterior": 7807,
  "Ġreleases": 7808,
  "803": 7809,
  "~": 7810,
  "Ġpromoting": 7811,
  "Respondent": 7812,
  "586": 7813,
  "ls": 7814,
  "ANCE": 7815,
  "Ġcalculate": 7816,
  "ĠVillage": 7817,
  "Ġcarbon": 7818,
  "ĠAccounting": 7819,
  "ĠGe": 7820,
  "HC": 7821,
  "Ġwhichever": 7822,
  "Ġlodged": 7823,
  "Ġrepaid": 7824,
  "Ġnewspaper": 7825,
  "Ġbi": 7826,
  "ower": 7827,
  "[Â¶": 7828,
  "Ġpleased": 7829,
  "Ġinterrogatories": 7830,
  "Ġinformant": 7831,
  "Ġindicted": 7832,
  "substantial": 7833,
  "ĠDon": 7834,
  "ĠCommencement": 7835,
  "ient": 7836,
  "ĠSIP": 7837,
  "ancy": 7838,
  "ries": 7839,
  "922": 7840,
  "ĠBennett": 7841,
  "Ġconstitutionality": 7842,
  "ĠMil": 7843,
  "Ġcompensatory": 7844,
  "DS": 7845,
  "534": 7846,
  "Ġtool": 7847,
  "Ġarticulated": 7848,
  "ĠEUR": 7849,
  "ĠSwingline": 7850,
  "Ġcodes": 7851,
  "ĠGl": 7852,
  "-specific": 7853,
  "ving": 7854,
  "Ġdrinking": 7855,
  "lam": 7856,
  "Ġvalued": 7857,
  "Ã¡": 7858,
  "Ġborrowed": 7859,
  "448": 7860,
  "Ġdeadly": 7861,
  "ĠDirect": 7862,
  "Ġawareness": 7863,
  "561": 7864,
  "Ġspeedy": 7865,
  "Ġseparated": 7866,
  "Ġreinstatement": 7867,
  "Ġtending": 7868,
  "Ġreservation": 7869,
  "Ġcomplies": 7870,
  "'';": 7871,
  "ĠMunicipal": 7872,
  "Ġfresh": 7873,
  "PD": 7874,
  "Ġmulti": 7875,
  "ĠSoc": 7876,
  "Ġneutral": 7877,
  "ĠCont": 7878,
  "ĠMat": 7879,
  "ĠStatutory": 7880,
  "Ġaim": 7881,
  "ĠHence": 7882,
  "ĠVAT": 7883,
  "Ġsearches": 7884,
  "620": 7885,
  "Ġaffirming": 7886,
  "Ġleaders": 7887,
  ")-(": 7888,
  "ĠâĢľ(": 7889,
  "because": 7890,
  "Ġintegrated": 7891,
  "Ġhappy": 7892,
  "ĠLandlord's": 7893,
  "Ġresponsive": 7894,
  "hed": 7895,
  "Ġprojected": 7896,
  "Ġappropriation": 7897,
  "Ġfl": 7898,
  "ĠContribution": 7899,
  "Ġgoverns": 7900,
  "ĠPatrick": 7901,
  "Ġaccomplish": 7902,
  "en's": 7903,
  "Ġanxiety": 7904,
  "[FR": 7905,
  "Ġinches": 7906,
  "725": 7907,
  "Ġoutset": 7908,
  "Ġstations": 7909,
  "Ġteaching": 7910,
  "ĠMail": 7911,
  "TY": 7912,
  "Is": 7913,
  "Ġpsychiatric": 7914,
  "Ġdeficit": 7915,
  "Ġconvertible": 7916,
  "ĠOrganization": 7917,
  "ĠTechnical": 7918,
  "Ġverified": 7919,
  "ĠSTOCK": 7920,
  "ĠColeman": 7921,
  "Ġframe": 7922,
  "621": 7923,
  "will": 7924,
  ".regulations": 7925,
  "Ġlearn": 7926,
  "Ġordinances": 7927,
  "ĠGonzalez": 7928,
  "ram": 7929,
  "ĠGENERAL": 7930,
  "ĠOrdinance": 7931,
  "ards": 7932,
  "Ġoutcomes": 7933,
  "Am": 7934,
  "Ġtimber": 7935,
  "ĠLJ": 7936,
  "(m": 7937,
  "-court": 7938,
  "ĠCommunities": 7939,
  "ĠBre": 7940,
  "-way": 7941,
  "Ġtargets": 7942,
  "ĠLater": 7943,
  "Ġattitude": 7944,
  "Ġunsuccessful": 7945,
  "ĠPrograms": 7946,
  "Ġresort": 7947,
  "Ġexecutors": 7948,
  "ado": 7949,
  "ĠPersonal": 7950,
  "479": 7951,
  "Ġpoverty": 7952,
  "Ġmode": 7953,
  "Ġverify": 7954,
  "Ġworkplace": 7955,
  "ĠLE": 7956,
  "Ġcontravention": 7957,
  "ĠFargo": 7958,
  "ĠIsrael": 7959,
  "Sh": 7960,
  "ĠNOTE": 7961,
  "Ġallowances": 7962,
  "atic": 7963,
  "-con": 7964,
  "557": 7965,
  "ĠĠĠĠĠĠĠĠĠĠĠĠĠĠĠĠĠĠĠĠĠĠĠĠĠĠĠĠĠĠĠĠĠĠĠĠĠĠĠĠĠĠĠĠĠĠĠĠĠĠĠĠĠĠĠĠĠĠĠĠĠĠĠĠĠĠĠĠĠĠĠĠĠĠĠĠĠĠĠĠĠĠĠĠĠĠĠĠĠĠĠĠĠĠĠĠĠĠĠĠĠĠĠĠĠĠĠĠĠĠĠĠĠĠĠĠĠĠĠĠĠĠĠĠĠĠĠĠ": 7966,
  "Ġspoken": 7967,
  "ĠDHS": 7968,
  "ĠCON": 7969,
  "âĢĻ,": 7970,
  "Ġseemed": 7971,
  "559": 7972,
  "person": 7973,
  "ĠJefferson": 7974,
  "ĠPARTY": 7975,
  "ĠNRC": 7976,
  "ĠGar": 7977,
  "ĠReplacement": 7978,
  "ĠVal": 7979,
  "ric": 7980,
  "ĉF": 7981,
  "ĠOwners": 7982,
  "Ġaff": 7983,
  "Public": 7984,
  "Thus": 7985,
  "ĠApproval": 7986,
  "Ġprospect": 7987,
  "Decision": 7988,
  "Opinion": 7989,
  "ĠRisk": 7990,
  "stein": 7991,
  "EE": 7992,
  "ĠTim": 7993,
  "Ġprudent": 7994,
  "rell": 7995,
  "566": 7996,
  "ĠLimitation": 7997,
  "ĠBrooks": 7998,
  "Ġseriousness": 7999,
  "ĠArthur": 8000,
  "Mrs": 8001,
  "uss": 8002,
  "Ġstrategies": 8003,
  "Ġsignatures": 8004,
  "Ġdebtor's": 8005,
  "SS": 8006,
  "Ġacquittal": 8007,
  "ĠLittle": 8008,
  "Ġchair": 8009,
  "Ġinsurers": 8010,
  "Ġhorse": 8011,
  "vis": 8012,
  "ĠBu": 8013,
  "Ġcomprising": 8014,
  "-V": 8015,
  "Ġhandle": 8016,
  "RS": 8017,
  "ĠMaine": 8018,
  ".Crim": 8019,
  "710": 8020,
  "eal": 8021,
  "Ġcorrectness": 8022,
  "-defense": 8023,
  "KE": 8024,
  "ien": 8025,
  "Ġcomposition": 8026,
  "ĠAmong": 8027,
  "Ġcapacities": 8028,
  "Ġrebut": 8029,
  "ĠLTD": 8030,
  "Ġminimize": 8031,
  "Ġfax": 8032,
  "Ġstatistics": 8033,
  "ĠBailey": 8034,
  "ĠManual": 8035,
  "Ġfines": 8036,
  "Case": 8037,
  "quotation": 8038,
  "575": 8039,
  "ĠFCC": 8040,
  "ĠRepresentations": 8041,
  "ological": 8042,
  "Ġnative": 8043,
  "Ġquote": 8044,
  "ATIONS": 8045,
  "ĠReading": 8046,
  "pr": 8047,
  "]e": 8048,
  "ĠHudson": 8049,
  "ĠExpress": 8050,
  "ĠPal": 8051,
  "Ġpays": 8052,
  "ĠHunt": 8053,
  "Ġsearched": 8054,
  "ĠCorporations": 8055,
  "ĠĠĠĠĠĠĠĠĠĠĠĠĠĠĠĠĠĠĠĠĠĠĠĠĠĠĠĠĠĠĠĠĠĠĠĠĠĠĠĠĠĠĠĠĠĠĠĠĠĠĠĠĠĠĠĠ": 8056,
  "ĠCharge": 8057,
  "Ġnominee": 8058,
  "-pro": 8059,
  "Ġhomestead": 8060,
  "ĠAff": 8061,
  "Ġsamples": 8062,
  "ition": 8063,
  "607": 8064,
  "Ġabstract": 8065,
  "Ġarranged": 8066,
  "622": 8067,
  "Ġdelinquent": 8068,
  "ĠSalary": 8069,
  "631": 8070,
  "Ġagreeing": 8071,
  "ading": 8072,
  "ĠCV": 8073,
  "Ġunions": 8074,
  "Ġmetal": 8075,
  "arn": 8076,
  "615": 8077,
  "Ġinduced": 8078,
  "mis": 8079,
  "who": 8080,
  "ĠLead": 8081,
  "Ġwinding": 8082,
  "ĠConservative": 8083,
  "ko": 8084,
  "Ġmap": 8085,
  "Ġlegality": 8086,
  "ĠHotel": 8087,
  "Ġsir": 8088,
  "ĠFar": 8089,
  "Ġ.âĢĿ": 8090,
  "only": 8091,
  "Ġrepeal": 8092,
  "Ġdepartments": 8093,
  "Ġconsulted": 8094,
  "Ġrestaurant": 8095,
  "707": 8096,
  "Ġthinking": 8097,
  "^": 8098,
  "Ġparenting": 8099,
  "Ġinure": 8100,
  "Ġwww": 8101,
  "Ġdeep": 8102,
  "Petitioner": 8103,
  "ĠCEO": 8104,
  "Ġinquire": 8105,
  "ĠLikewise": 8106,
  "uth": 8107,
  "ĠLike": 8108,
  "Ġdepression": 8109,
  "ĠPenn": 8110,
  "020": 8111,
  "539": 8112,
  "565": 8113,
  "Ġcapricious": 8114,
  "Ġaccommodate": 8115,
  "612": 8116,
  "Ġindemnifying": 8117,
  "Ġenabling": 8118,
  "Ġworse": 8119,
  "573": 8120,
  "izes": 8121,
  "Ġsixth": 8122,
  "ĠMet": 8123,
  "Ġprofessionals": 8124,
  "ĠMills": 8125,
  "Ġmill": 8126,
  "rop": 8127,
  "Ġsecrets": 8128,
  "ĠCentre": 8129,
  "Ġflat": 8130,
  "Ġwarnings": 8131,
  "ĠRo": 8132,
  "-O": 8133,
  "ises": 8134,
  "656": 8135,
  "Ġprecludes": 8136,
  "Ġtrees": 8137,
  "ĠBa": 8138,
  "608": 8139,
  "Ġkinds": 8140,
  "Ġfreely": 8141,
  "eng": 8142,
  "Ġburdens": 8143,
  "Ġoverseas": 8144,
  "Ġcents": 8145,
  "Sub": 8146,
  "Ġconsultants": 8147,
  "ĠCREDIT": 8148,
  "Ġwhilst": 8149,
  "ĠCard": 8150,
  "ĠProceeding": 8151,
  "Ġviewing": 8152,
  "Ġundermine": 8153,
  "ĠRos": 8154,
  "Ġsustaining": 8155,
  "ĠFr": 8156,
  "Ġinspections": 8157,
  "Ġverification": 8158,
  "ĠVer": 8159,
  "ĠCaptain": 8160,
  "ĠGal": 8161,
  "Ġdefending": 8162,
  "ĠHUD": 8163,
  "ĠLiabilities": 8164,
  "Ġdie": 8165,
  "690": 8166,
  "Ġabandonment": 8167,
  "572": 8168,
  "Ġfellow": 8169,
  "used": 8170,
  "ĠAMENDMENT": 8171,
  "Whereas": 8172,
  "iff": 8173,
  "ĠHarrison": 8174,
  "ming": 8175,
  "Ġofficer's": 8176,
  "Ġresentencing": 8177,
  "ĠAuthorization": 8178,
  "ened": 8179,
  "Ġprivileged": 8180,
  "Ġincompetent": 8181,
  "dis": 8182,
  "ĠMeeting": 8183,
  "Ġoverruling": 8184,
  "Ġunduly": 8185,
  "ĠCondition": 8186,
  ",âĢĻ": 8187,
  "694": 8188,
  "Ġsensitive": 8189,
  "Since": 8190,
  "ward": 8191,
  "ĠBonus": 8192,
  "lo": 8193,
  "Ġinduce": 8194,
  "ĠHEREBY": 8195,
  "ĠFrancisco": 8196,
  "iles": 8197,
  "Ġshipment": 8198,
  "does": 8199,
  "Ġlengthy": 8200,
  "Notice": 8201,
  "679": 8202,
  "Ġinterviewed": 8203,
  "ĠMCL": 8204,
  "ĠPLAN": 8205,
  "ĠDep't": 8206,
  "633": 8207,
  "Ġconvenient": 8208,
  "Ġdocumented": 8209,
  "Ġremuneration": 8210,
  "ĠLIMITED": 8211,
  "Ġindependence": 8212,
  "590": 8213,
  "Ġcol": 8214,
  "Ġmandated": 8215,
  "ĠSelect": 8216,
  "MO": 8217,
  "Ġrecourse": 8218,
  "Ġcoordination": 8219,
  "Ġterrorism": 8220,
  "Ġnonmoving": 8221,
  "-owned": 8222,
  "delivered": 8223,
  "[ing": 8224,
  "ĠRealty": 8225,
  "Ġtr": 8226,
  "ĠSession": 8227,
  "Ġintervening": 8228,
  "ĠJack": 8229,
  "632": 8230,
  "Ġterminates": 8231,
  "ĠVoting": 8232,
  "Ġemphasized": 8233,
  "ĠWife": 8234,
  "ĠPat": 8235,
  "Ġchronic": 8236,
  "Ġeighteen": 8237,
  "ĠĠĠĠĠĠĠĠĠĠĠĠĠĠĠĠĠĠĠĠĠĠĠĠĠĠĠĠĠĠĠĠĠĠĠĠĠĠĠĠĠĠĠĠĠĠĠĠĠĠĠĠĠĠĠ": 8238,
  "rs": 8239,
  "now": 8240,
  "isc": 8241,
  "Ġthat's": 8242,
  "Ġirrespective": 8243,
  "Ġdatabase": 8244,
  "Ġdedicated": 8245,
  "ĠEstimated": 8246,
  "een": 8247,
  "ĊĊĊĊĊĊĊĊĊ": 8248,
  "Ġboat": 8249,
  "SUMMARY": 8250,
  "Ġgreen": 8251,
  "stone": 8252,
  "Ġpl": 8253,
  "Ġphotograph": 8254,
  "ev": 8255,
  "-free": 8256,
  "ĠCorrections": 8257,
  "Ġderivative": 8258,
  "Ġfootnote": 8259,
  "Ġpresume": 8260,
  "ĠHernandez": 8261,
  "holder": 8262,
  "Ġearning": 8263,
  "son's": 8264,
  "Ġviable": 8265,
  "730": 8266,
  "ĠIR": 8267,
  "Ġwearing": 8268,
  "Ġtraded": 8269,
  "Ġguideline": 8270,
  "Ġlinked": 8271,
  "Ġra": 8272,
  "Ġunavailable": 8273,
  "Ġcan't": 8274,
  "rec": 8275,
  "Ġpropriety": 8276,
  "Del": 8277,
  "Ġhappens": 8278,
  "some": 8279,
  "Ġcrew": 8280,
  "Ġascertained": 8281,
  "ender": 8282,
  "ĠEntry": 8283,
  "Ġmachines": 8284,
  "727": 8285,
  "Ġirrevocable": 8286,
  "ada": 8287,
  "Ġsimultaneously": 8288,
  "Ġhardly": 8289,
  "ĠAlternative": 8290,
  "Ġexhaustion": 8291,
  ";ĊĊĊ": 8292,
  "ĠMain": 8293,
  "Ġassociations": 8294,
  "Ġbalancing": 8295,
  "Ġgreatly": 8296,
  "Bound": 8297,
  "Ġrevisions": 8298,
  "Ġguard": 8299,
  "?\"": 8300,
  "804": 8301,
  "Ġimminent": 8302,
  "Ġfast": 8303,
  "Ġcriticism": 8304,
  "ĠRelevant": 8305,
  "Ġsolicitation": 8306,
  "Ġasbestos": 8307,
  "Ġnomination": 8308,
  "did": 8309,
  "Ġperfectly": 8310,
  "558": 8311,
  "Each": 8312,
  "Ġheight": 8313,
  "Ġsupervisors": 8314,
  "Ġtrigger": 8315,
  "Ġcomprised": 8316,
  "Ġcharitable": 8317,
  "ĠFisher": 8318,
  "ĠRico": 8319,
  "619": 8320,
  "Ġtobacco": 8321,
  "ĠâĢĺâĢĺ": 8322,
  "ĠILCS": 8323,
  "738": 8324,
  "ĠAMERICA": 8325,
  "Ġmodels": 8326,
  "ĠElizabeth": 8327,
  "ĠBridge": 8328,
  "Schedule": 8329,
  "Ġinformal": 8330,
  "ĠCurrent": 8331,
  "ĠDictionary": 8332,
  "Ġlessor": 8333,
  "]-[": 8334,
  "ined": 8335,
  "ĠLynch": 8336,
  ".ĊĊĊĊĊĊĊĊ": 8337,
  "ĠTelephone": 8338,
  "ĠTab": 8339,
  "excluding": 8340,
  "Ġstraight": 8341,
  "Ġreimbursed": 8342,
  "ĠCases": 8343,
  "Ġpartly": 8344,
  "ĉE": 8345,
  "Ġdefining": 8346,
  "lett": 8347,
  "ĠOld": 8348,
  "ĠShareholders": 8349,
  "ĠInspector": 8350,
  "ĠConvertible": 8351,
  "Ġtank": 8352,
  "explaining": 8353,
  "ĠRural": 8354,
  "Ġlaboratory": 8355,
  "ĠBer": 8356,
  "ĠAddress": 8357,
  "Ġthreatening": 8358,
  "-U": 8359,
  "-on": 8360,
  "-Appellee": 8361,
  "DI": 8362,
  "Ġcollecting": 8363,
  "May": 8364,
  "ĠTraining": 8365,
  "âĢĻd": 8366,
  "ĠClient": 8367,
  "Ġreceivable": 8368,
  "687": 8369,
  "ĠEPA's": 8370,
  "good": 8371,
  "Ġvariation": 8372,
  "Ġurban": 8373,
  "ĠFiling": 8374,
  "Ġperfected": 8375,
  "ĠPhase": 8376,
  "âĢĶI": 8377,
  "Ġproportionate": 8378,
  "have": 8379,
  "Ġtemporarily": 8380,
  "ĠReynolds": 8381,
  "ĠTen": 8382,
  "ĠâĢ¦Ċ": 8383,
  "587": 8384,
  "erson": 8385,
  "Ġuniversity": 8386,
  ".''Ċ": 8387,
  "OT": 8388,
  "Ġdire": 8389,
  "Ġformally": 8390,
  "Ġperiodic": 8391,
  "ĠLoss": 8392,
  "Ġborrowing": 8393,
  "Ġsustainable": 8394,
  "Ġexercises": 8395,
  "Ġunsupported": 8396,
  "Ġhazard": 8397,
  "Ġclarification": 8398,
  "ove": 8399,
  "Ġdisagreement": 8400,
  "ĠSoftware": 8401,
  "Ġignore": 8402,
  "Ġadjudged": 8403,
  "Ġtolling": 8404,
  "Act": 8405,
  "ĠMut": 8406,
  "ĠWorth": 8407,
  "Cl": 8408,
  "ĠTribe": 8409,
  "Ġcompulsory": 8410,
  "ĠBlock": 8411,
  "De": 8412,
  "ĠAPP": 8413,
  "unt": 8414,
  "Ġmanual": 8415,
  "ĠStanding": 8416,
  "Ġconcession": 8417,
  "Ġapproaches": 8418,
  "Ġyes": 8419,
  "ĠChinese": 8420,
  "Ġdestroy": 8421,
  "Ġhomicide": 8422,
  "ĠAmounts": 8423,
  "ĠSD": 8424,
  "board": 8425,
  "Ġprevents": 8426,
  "Ġalternate": 8427,
  "ĠStevens": 8428,
  "Ġtransmitted": 8429,
  "Ġeliminated": 8430,
  "Ġtrailer": 8431,
  "ĠForces": 8432,
  "Ġtargeted": 8433,
  "ĠTaxation": 8434,
  "]o": 8435,
  "ĠIbid": 8436,
  "ĠCOUNSEL": 8437,
  "Ġperspective": 8438,
  "Ġtaxed": 8439,
  "ĠAuthorized": 8440,
  "Appeal": 8441,
  "Ġhelping": 8442,
  "OD": 8443,
  "ĠWorking": 8444,
  "PH": 8445,
  "-----------------------------------------Ċ": 8446,
  "ĠBorrower's": 8447,
  "Ġauction": 8448,
  "751": 8449,
  "ĠIndus": 8450,
  "ĠLeased": 8451,
  "Ġdes": 8452,
  "ĠMOTION": 8453,
  "577": 8454,
  ".\");": 8455,
  "ĠPresiding": 8456,
  "Ġcrack": 8457,
  "Ġheroin": 8458,
  "Ġgap": 8459,
  "dale": 8460,
  "Ġexchanges": 8461,
  "arr": 8462,
  "Ġyard": 8463,
  "Ġpredicate": 8464,
  "ĠMin": 8465,
  "Ġplatform": 8466,
  "Ġinf": 8467,
  "Ġstream": 8468,
  "Ġdegrees": 8469,
  "EEC": 8470,
  "Ġtape": 8471,
  "Ġpredicated": 8472,
  "ĠLA": 8473,
  "Ġfacto": 8474,
  "ĠNonetheless": 8475,
  "ĠQueen": 8476,
  "ĠMAR": 8477,
  "Ġbilling": 8478,
  "ĠPuerto": 8479,
  "cc": 8480,
  "ĠHead": 8481,
  "588": 8482,
  "Ġscore": 8483,
  "During": 8484,
  "Ġcentury": 8485,
  "ĠWelfare": 8486,
  "568": 8487,
  "Ġcompetency": 8488,
  "810": 8489,
  "Ġaccorded": 8490,
  "key": 8491,
  "ĠHunter": 8492,
  "ral": 8493,
  "569": 8494,
  "Ġredeem": 8495,
  "ca": 8496,
  "ĠDonald": 8497,
  "ĠSea": 8498,
  "ĠHistory": 8499,
  "Ġsummarized": 8500,
  "Ġrecipients": 8501,
  "ĠKe": 8502,
  "Ġlabel": 8503,
  "ĠShelf": 8504,
  "ATED": 8505,
  "Ġ\"(": 8506,
  "ĠWritten": 8507,
  "ured": 8508,
  "VE": 8509,
  "Ġlitigants": 8510,
  "ĠBi": 8511,
  "Ġblank": 8512,
  "Ġfraction": 8513,
  "err": 8514,
  "Ġshifts": 8515,
  "ita": 8516,
  "ĠStanley": 8517,
  "ĠStation": 8518,
  "Ġpauperis": 8519,
  "567": 8520,
  "PO": 8521,
  "Ġqu": 8522,
  "ĠPARTIES": 8523,
  "Ġcommand": 8524,
  "721": 8525,
  "614": 8526,
  "Ġspecialist": 8527,
  "ĠBrian": 8528,
  "Ġinclusive": 8529,
  "[.]âĢĿ": 8530,
  "Ġinitiate": 8531,
  "ulation": 8532,
  "MENTS": 8533,
  "Ġspecifies": 8534,
  "ĠHas": 8535,
  "ĠThough": 8536,
  "Ġknee": 8537,
  "Ġstages": 8538,
  "ĠStatus": 8539,
  "ĠTEXAS": 8540,
  "Ġinterrogation": 8541,
  "Ġmedicine": 8542,
  "Ġstrip": 8543,
  "Ġspeculation": 8544,
  "651": 8545,
  "Ġassembly": 8546,
  "Ġexpectations": 8547,
  "ĠTe": 8548,
  "Ġpresumably": 8549,
  "Ġmotivated": 8550,
  "Ġlacking": 8551,
  "Ġ***": 8552,
  "Ġmillions": 8553,
  "ĠShaw": 8554,
  "WHEREAS": 8555,
  "Ġweighing": 8556,
  "Ġstable": 8557,
  "ĠEX": 8558,
  "[,]": 8559,
  "Ġconditioned": 8560,
  "Ġintroducing": 8561,
  "Ġsoil": 8562,
  "ĠPurchased": 8563,
  "Ġcarries": 8564,
  "ily": 8565,
  "Ġtariff": 8566,
  "Ġspring": 8567,
  ",,": 8568,
  "ĠCommons": 8569,
  "very": 8570,
  "ĠTel": 8571,
  "CP": 8572,
  "584": 8573,
  "ĠAv": 8574,
  "ĠJudiciary": 8575,
  "ĠFBI": 8576,
  "Ġdoors": 8577,
  "Ġmediation": 8578,
  "Ġtenancy": 8579,
  "ĠEllis": 8580,
  "Ġimpartial": 8581,
  "ĠImprovements": 8582,
  "ITY": 8583,
  "ato": 8584,
  "plaintiff": 8585,
  "671": 8586,
  "Ġpreservation": 8587,
  "665": 8588,
  "ĠCrawford": 8589,
  "ĠAssociate": 8590,
  "Ġlowest": 8591,
  "ĠET": 8592,
  "Ġparallel": 8593,
  "Ġcognizable": 8594,
  "EST": 8595,
  "ood": 8596,
  "Ġharmful": 8597,
  "PART": 8598,
  "ĠTreatment": 8599,
  "Ġalterations": 8600,
  "Ġparked": 8601,
  "Ġprospects": 8602,
  "rie": 8603,
  "ĠMart": 8604,
  "NY": 8605,
  "ĠLEXIS": 8606,
  "ena": 8607,
  "ĠReceivable": 8608,
  "ĠFEDERAL": 8609,
  "ĠPlace": 8610,
  "ĠGross": 8611,
  "ĠDR": 8612,
  "613": 8613,
  "Ġadditions": 8614,
  "ĠPowers": 8615,
  "ĠCa": 8616,
  "ĠClean": 8617,
  "674": 8618,
  "Ġu": 8619,
  "Ġinteresting": 8620,
  "set": 8621,
  "Ġwidely": 8622,
  "\"Ċ": 8623,
  "Ġlights": 8624,
  "578": 8625,
  "713": 8626,
  "617": 8627,
  "ĠPH": 8628,
  "Ġexcepted": 8629,
  "ĠQC": 8630,
  "ĠGra": 8631,
  "ĠInventory": 8632,
  "ĠGibson": 8633,
  "&R": 8634,
  "Ġredress": 8635,
  "ĠÂ·": 8636,
  "Ġappealable": 8637,
  "Ġuncertain": 8638,
  "ĠEsq": 8639,
  "680": 8640,
  "Ġmechanical": 8641,
  "Ã": 8642,
  "ĠNOW": 8643,
  "Ġcolleague": 8644,
  "Ġmedically": 8645,
  "ĠBasic": 8646,
  "ĠPreliminary": 8647,
  "Dated": 8648,
  "Ġlogical": 8649,
  "Ġideas": 8650,
  ".âĢĿ)": 8651,
  "Ġvision": 8652,
  "court": 8653,
  "Ġslip": 8654,
  "holders": 8655,
  "National": 8656,
  "Ġlending": 8657,
  "Ġclosure": 8658,
  "Ġdetriment": 8659,
  "vel": 8660,
  "ĠSanders": 8661,
  "ĠCasualty": 8662,
  "ĠFisheries": 8663,
  "ĠBarnes": 8664,
  "ĠAppropriations": 8665,
  "âĢĿ:": 8666,
  "ils": 8667,
  "Ġintoxicated": 8668,
  "Ġpopulations": 8669,
  "Ġdefraud": 8670,
  "ĠCong": 8671,
  "ode": 8672,
  "Ġcomplaining": 8673,
  "581": 8674,
  "ĠPrivacy": 8675,
  "ush": 8676,
  "Ġruns": 8677,
  "654": 8678,
  "Ġresolutions": 8679,
  "Ġcamera": 8680,
  "br": 8681,
  "670": 8682,
  "752": 8683,
  "Ġdeclaring": 8684,
  "Ġcounseling": 8685,
  "ĠSurvey": 8686,
  "629": 8687,
  "Ġproxy": 8688,
  "Ġeyes": 8689,
  "Ġcompleting": 8690,
  "ows": 8691,
  "Motion": 8692,
  "Ġappellee's": 8693,
  "Ġ-,": 8694,
  "ĠEntities": 8695,
  "ĠWallace": 8696,
  "623": 8697,
  "641": 8698,
  "Ġsolid": 8699,
  "Ġearliest": 8700,
  "Ġclearing": 8701,
  "ĠCohen": 8702,
  "mark": 8703,
  "ĠĠĠĠĠĠĠĠĠĠĠĠĠĠĠĠĠĠĠĠĠĠĠĠĠĠĠĠĠĠĠĠĠĠĠĠĠĠĠĠĠĠĠĠĠĠĠĠĠĠĠĠĠĠĠĠĠĠĠ": 8704,
  "ĠBurns": 8705,
  "Ġundoubtedly": 8706,
  "Ġclub": 8707,
  "Ġnotion": 8708,
  "ĠDefinitive": 8709,
  "Ġterrorist": 8710,
  "ĠIran": 8711,
  "Ġexpanded": 8712,
  "Ġservant": 8713,
  "ĠMedia": 8714,
  "Ġcustodial": 8715,
  "acc": 8716,
  "ĠPerhaps": 8717,
  "Ġbegun": 8718,
  "ĠPlant": 8719,
  "Ġinflation": 8720,
  "Ġhanded": 8721,
  "(iv": 8722,
  "Ġscreen": 8723,
  "Ġsponsor": 8724,
  "Ġinstitute": 8725,
  "Ġdisturbed": 8726,
  "Ġconfirming": 8727,
  "ĠSU": 8728,
  "ĠJenkins": 8729,
  "ĠPriority": 8730,
  "Per": 8731,
  "635": 8732,
  "Ġwarehouse": 8733,
  "Ġwatch": 8734,
  "Ġsponte": 8735,
  "Ġnumbered": 8736,
  "760": 8737,
  "ĠPRO": 8738,
  "Ġtransferring": 8739,
  "ĠCS": 8740,
  "Ġdiscover": 8741,
  "ĠDean": 8742,
  "ĠNSWSC": 8743,
  "-e": 8744,
  "ĠMer": 8745,
  "Ġgarage": 8746,
  "ĠRating": 8747,
  "My": 8748,
  "576": 8749,
  "780": 8750,
  "ĠÂ§Ċ": 8751,
  "ĠCole": 8752,
  "648": 8753,
  "Ġins": 8754,
  "ĠCMS": 8755,
  "Ġcable": 8756,
  "ĠFl": 8757,
  "Ġfulfill": 8758,
  "ĠGuaranteed": 8759,
  "Ġorally": 8760,
  "Ġmitigate": 8761,
  "ĠNC": 8762,
  "ĠPatents": 8763,
  "Ġcaution": 8764,
  "626": 8765,
  "Ġpledged": 8766,
  "ĠMiddle": 8767,
  "rick": 8768,
  "Ġinfra": 8769,
  "658": 8770,
  "ĠBenchmark": 8771,
  "ica": 8772,
  "Ġachievement": 8773,
  "une": 8774,
  "ĠâĢĻ": 8775,
  "585": 8776,
  "ĠMatters": 8777,
  "rey": 8778,
  "ĠBra": 8779,
  "viii": 8780,
  "Ġtrained": 8781,
  "708": 8782,
  "tt": 8783,
  "825": 8784,
  "Ġrespecting": 8785,
  "ĠSPEAKER": 8786,
  "ĠNative": 8787,
  "Ġdry": 8788,
  "Ġdealings": 8789,
  "ĠAssignee": 8790,
  "595": 8791,
  "ĠBanking": 8792,
  "597": 8793,
  "Ġcontending": 8794,
  "ĠDun": 8795,
  "722": 8796,
  "(D": 8797,
  "Ġunsafe": 8798,
  "Ġmineral": 8799,
  "{Â¶": 8800,
  "public": 8801,
  "735": 8802,
  "aged": 8803,
  "ĠThrough": 8804,
  "Ġblue": 8805,
  "Ġtransported": 8806,
  "ĠDesign": 8807,
  "Ġinvestigated": 8808,
  "iner": 8809,
  "_Ċ": 8810,
  "Ġsalaries": 8811,
  "Pl": 8812,
  "Ġagenda": 8813,
  "Ġdisproportionate": 8814,
  "ĠBishop": 8815,
  "627": 8816,
  "ĠShort": 8817,
  "Ġconvict": 8818,
  "ĠPledgor": 8819,
  "Ġtaxing": 8820,
  "Ġmanifestly": 8821,
  "-matter": 8822,
  "Ġproducer": 8823,
  "ĠApr": 8824,
  "ula": 8825,
  "Ġverbal": 8826,
  "579": 8827,
  "BE": 8828,
  "Ġinconsistency": 8829,
  "616": 8830,
  "Ġglass": 8831,
  "Ġboy": 8832,
  "ĠCL": 8833,
  "Ġconsequential": 8834,
  "ĠKim": 8835,
  "ran": 8836,
  "Ġresale": 8837,
  "Ġinterpretations": 8838,
  "ĠCarr": 8839,
  "ĠWildlife": 8840,
  "Ġadvisable": 8841,
  "775": 8842,
  "Ġmultiplied": 8843,
  "Ġgrantee": 8844,
  "ĠSaturday": 8845,
  "Iowa": 8846,
  "ĠBorough": 8847,
  "Ġtracks": 8848,
  "ĠCraig": 8849,
  "ared": 8850,
  "ILL": 8851,
  "Ġarrival": 8852,
  "Ġdemonstration": 8853,
  "Ġtypical": 8854,
  "902": 8855,
  "Supp": 8856,
  "Ġsua": 8857,
  "Ġapproaching": 8858,
  "ĠExcess": 8859,
  "ĠPC": 8860,
  "Ġstocks": 8861,
  "Ġreflecting": 8862,
  "ĠTwombly": 8863,
  "ĠTITLE": 8864,
  "583": 8865,
  "ĠAc": 8866,
  "Ġmechanisms": 8867,
  "Ġdeportation": 8868,
  "582": 8869,
  "Ġhonest": 8870,
  "aries": 8871,
  "oo": 8872,
  "Ġallowable": 8873,
  "Ġgeographic": 8874,
  "Ġtraveling": 8875,
  "Ġattacked": 8876,
  "ĠRecovery": 8877,
  "591": 8878,
  "ĠAcceptance": 8879,
  "Ġservants": 8880,
  "Ġcatch": 8881,
  "Ġfeed": 8882,
  "ishing": 8883,
  "ADDRESSES": 8884,
  "833": 8885,
  "596": 8886,
  "ĠGill": 8887,
  "Ġconfirms": 8888,
  "594": 8889,
  "ĠLeave": 8890,
  "DR": 8891,
  "Ġapp": 8892,
  "ĠAnt": 8893,
  "Third": 8894,
  "ĠContinental": 8895,
  "598": 8896,
  "589": 8897,
  "Ġimmune": 8898,
  "mo": 8899,
  "Ġflows": 8900,
  "ĠDan": 8901,
  "Ġborrower": 8902,
  "ĠFe": 8903,
  "Ġarguable": 8904,
  "kes": 8905,
  "just": 8906,
  "Ġconfronted": 8907,
  "Ġregions": 8908,
  "ĠDISMISSED": 8909,
  "Ġden": 8910,
  "Ġanalyze": 8911,
  "ĠFirm": 8912,
  "Ġtree": 8913,
  "ĠDamages": 8914,
  "Ġoverrule": 8915,
  "711": 8916,
  "Ġforensic": 8917,
  "]f": 8918,
  "ĠPaperwork": 8919,
  "ĠRegistry": 8920,
  "Ġsafeguards": 8921,
  "ĠResp": 8922,
  "ĠLincoln": 8923,
  "593": 8924,
  "903": 8925,
  "Ġdefamation": 8926,
  "Ġparas": 8927,
  "ately": 8928,
  "Ġincomplete": 8929,
  "eed": 8930,
  "Ġcounterpart": 8931,
  "Ġoccupational": 8932,
  "960": 8933,
  "Ġgrams": 8934,
  "Ġafterwards": 8935,
  "ĠMajesty's": 8936,
  ".org": 8937,
  "592": 8938,
  "ĠDOT": 8939,
  "ĠParliamentary": 8940,
  "ym": 8941,
  "Ġformerly": 8942,
  "ĠTRIAL": 8943,
  "/S": 8944,
  "Ġnull": 8945,
  "624": 8946,
  "-wide": 8947,
  "Ġdemocracy": 8948,
  "Ġcontingency": 8949,
  "ĠDiscussion": 8950,
  "ires": 8951,
  "Ġdelegation": 8952,
  "ĠMaximum": 8953,
  "ĠAttorneys": 8954,
  "645": 8955,
  "Ġconsistency": 8956,
  "ĠGary": 8957,
  "652": 8958,
  "ridge": 8959,
  "Ġcourses": 8960,
  "Ġhost": 8961,
  "Ġfinished": 8962,
  "Ġrefrain": 8963,
  "ias": 8964,
  "-four": 8965,
  "ĠHON": 8966,
  "INE": 8967,
  "Ġachieving": 8968,
  "Ġfixing": 8969,
  "ĠEric": 8970,
  "Ġiron": 8971,
  "Ġcriterion": 8972,
  "Ġpocket": 8973,
  "Def": 8974,
  "Ġsur": 8975,
  "ĠME": 8976,
  "ĠRoy": 8977,
  "675": 8978,
  "Ġauditor": 8979,
  "Code": 8980,
  "Ġinvestigator": 8981,
  "Ġliberal": 8982,
  "ple": 8983,
  "FL": 8984,
  "Ġexaminations": 8985,
  "ater": 8986,
  "Ġantitrust": 8987,
  "ĠSa": 8988,
  "Ġincentives": 8989,
  "ĠOP": 8990,
  "oke": 8991,
  "ĠHosp": 8992,
  "ĠFindings": 8993,
  "illing": 8994,
  "itation": 8995,
  "ulated": 8996,
  "ches": 8997,
  "ult": 8998,
  "Ġne": 8999,
  "acy": 9000,
  "Ġtortious": 9001,
  "Ġprocured": 9002,
  "ĠEnd": 9003,
  "Ġbrand": 9004,
  "Ġpossessing": 9005,
  "731": 9006,
  "ĠEvents": 9007,
  "Ġcoupled": 9008,
  "lic": 9009,
  "ĠProtocol": 9010,
  "-paragraph": 9011,
  "ĠClaimants": 9012,
  "ĠAdmin": 9013,
  "ĠChristian": 9014,
  "ĠANN": 9015,
  "Ġdealers": 9016,
  "Ġvisual": 9017,
  "ÃŃ": 9018,
  "]here": 9019,
  "ĠUnlike": 9020,
  "Notwithstanding": 9021,
  "Ġclarified": 9022,
  "ĠConsideration": 9023,
  "ony": 9024,
  "Ġsectors": 9025,
  "Ġbrain": 9026,
  ".]Ċ": 9027,
  "Ġadults": 9028,
  "ĠMetropolitan": 9029,
  "ĠIndemnity": 9030,
  "gg": 9031,
  "ĠWoods": 9032,
  "ĠManufacturing": 9033,
  "Ġcertifying": 9034,
  "Ġweighed": 9035,
  "Ġnarcotics": 9036,
  "\":": 9037,
  "ĠRa": 9038,
  "Ġimportantly": 9039,
  "Ġearn": 9040,
  "Ġqualifies": 9041,
  "So": 9042,
  "Board": 9043,
  "ĠBal": 9044,
  "Ġweb": 9045,
  "ĠSanta": 9046,
  "Ġcutting": 9047,
  "ĠTuesday": 9048,
  "950": 9049,
  "ĠPractices": 9050,
  "AW": 9051,
  "ĠEr": 9052,
  "SD": 9053,
  "ually": 9054,
  "oring": 9055,
  "ĠPol": 9056,
  "ĠRad": 9057,
  "ares": 9058,
  "Ġlog": 9059,
  "Ġrecalled": 9060,
  "ĠSecondly": 9061,
  "Ġprotects": 9062,
  "ĠFERC": 9063,
  "ĠMinimum": 9064,
  "Ġgirls": 9065,
  "Ġstakeholders": 9066,
  "Ġreferral": 9067,
  "Ġinvasion": 9068,
  "Ġoffending": 9069,
  "Ġinstall": 9070,
  "Ġcooperative": 9071,
  "742": 9072,
  "Ġfixtures": 9073,
  "ĠParticipation": 9074,
  "Ġwaivers": 9075,
  "ĠSanchez": 9076,
  "mit": 9077,
  "ĠCF": 9078,
  "Ġice": 9079,
  "ĠWarranties": 9080,
  "Ġelapsed": 9081,
  "Ġrightly": 9082,
  "Ġchannel": 9083,
  "Ġtreasurer": 9084,
  "Ġeleven": 9085,
  "ĠLAWS": 9086,
  "Ġcr": 9087,
  "Ġincapable": 9088,
  "Ġvocational": 9089,
  "ĠFish": 9090,
  "Ġadministering": 9091,
  "Ġenters": 9092,
  "ĠChanges": 9093,
  "ĠAntonio": 9094,
  "Ġmandates": 9095,
  "ĠActions": 9096,
  "Ġunaware": 9097,
  "Ġag": 9098,
  "Ġwood": 9099,
  "ĠPensions": 9100,
  "ĠBetween": 9101,
  "ala": 9102,
  "ĠImpact": 9103,
  "])": 9104,
  "712": 9105,
  "ĠBradley": 9106,
  "Ġsolicit": 9107,
  "ft": 9108,
  "Ġaff'd": 9109,
  "ĠRegion": 9110,
  "/c": 9111,
  "arc": 9112,
  "618": 9113,
  "655": 9114,
  "ĠPledged": 9115,
  "ĠSydney": 9116,
  "sub": 9117,
  "Even": 9118,
  "ĠBEEN": 9119,
  "Ġrecreational": 9120,
  "Ġjurisprudence": 9121,
  "Ġfrequent": 9122,
  "aker": 9123,
  "Ġdi": 9124,
  "Ġsuper": 9125,
  "illa": 9126,
  "/EEC": 9127,
  "Ġdecreased": 9128,
  "ĠBurden": 9129,
  "Ġvast": 9130,
  "ĠCitizens": 9131,
  "Ġarbitrators": 9132,
  "ĠĠĠĠĠĠĠĠĠĠĠĠĠĠĠĠĠĠĠĠĠĠĠĠĠĠĠĠĠĠĠĠĠĠĠĠĠĠĠĠĠĠĠĠĠĠĠĠĠĠĠĠĠĠĠĠĠ": 9133,
  "Ġroyalties": 9134,
  "Ġreinstated": 9135,
  "ĠIssues": 9136,
  "ĠMayor": 9137,
  "ĠManaging": 9138,
  "Ġnearest": 9139,
  "Ġcontemporaneous": 9140,
  "Ġproximity": 9141,
  "ĠRef": 9142,
  "e's": 9143,
  "Ġmisrepresentations": 9144,
  "du": 9145,
  "Ġunderwriter": 9146,
  "Ġaimed": 9147,
  ".pdf": 9148,
  "uff": 9149,
  "Ġassociate": 9150,
  "ĠIqbal": 9151,
  "Ġrescission": 9152,
  "ĠThursday": 9153,
  "Ġmerged": 9154,
  "ibility": 9155,
  "888": 9156,
  "ĠMoney": 9157,
  "ĠIncorporation": 9158,
  "mar": 9159,
  "Ġbulk": 9160,
  "Ġutilize": 9161,
  "Ġpipeline": 9162,
  "ĠHonor": 9163,
  "Ġcontributing": 9164,
  "Ġsubordinate": 9165,
  "599": 9166,
  "ĠAshcroft": 9167,
  "Ġoverwhelming": 9168,
  "Ġdriver's": 9169,
  "gen": 9170,
  "ĠBaltimore": 9171,
  "Ġstatistical": 9172,
  "ĠDem": 9173,
  "Ġannuity": 9174,
  "ĠHAS": 9175,
  "Whether": 9176,
  "itch": 9177,
  "Ġalternatively": 9178,
  "Ġourselves": 9179,
  "639": 9180,
  "ĠCertification": 9181,
  "Ġvillage": 9182,
  "Ġresided": 9183,
  "Ġenrichment": 9184,
  "bank": 9185,
  "Ġproud": 9186,
  "Ġtemperature": 9187,
  "Ġwarn": 9188,
  "Ġfeasible": 9189,
  "Ġbeg": 9190,
  "ico": 9191,
  "<": 9192,
  "Ġinterviews": 9193,
  "ĠSolicitor": 9194,
  "pon": 9195,
  "Ġnations": 9196,
  "904": 9197,
  "Ġdepreciation": 9198,
  "eman": 9199,
  "Ġinforming": 9200,
  "Ġanalyses": 9201,
  "820": 9202,
  "Ġreside": 9203,
  "Ġclearance": 9204,
  "ĠPorter": 9205,
  "715": 9206,
  "Ġ_": 9207,
  "ough": 9208,
  "Ġconstant": 9209,
  "Ġprayer": 9210,
  "ĠSteven": 9211,
  "iers": 9212,
  "691": 9213,
  "ĠMental": 9214,
  "642": 9215,
  "761": 9216,
  "||": 9217,
  "ĠDuty": 9218,
  "Ġdisclosing": 9219,
  "sel": 9220,
  "burn": 9221,
  "-se": 9222,
  "659": 9223,
  "SR": 9224,
  "ĠTRUST": 9225,
  "Ġaccountability": 9226,
  "han": 9227,
  "ime": 9228,
  "ored": 9229,
  "Ġutilities": 9230,
  "ices": 9231,
  "ĠSelf": 9232,
  "ĠGriffin": 9233,
  "Ġint": 9234,
  "Ġcompensated": 9235,
  "Ġshorter": 9236,
  "based": 9237,
  "Ġvol": 9238,
  "ĠLender's": 9239,
  "Ġintercourse": 9240,
  "741": 9241,
  "ĠEarly": 9242,
  "Ġillegally": 9243,
  "ĠUT": 9244,
  "ĠAlan": 9245,
  "Ġonus": 9246,
  "ĠTribal": 9247,
  "ĠIm": 9248,
  "ĠCovered": 9249,
  "ĠMag": 9250,
  "ĠFriends": 9251,
  "LR": 9252,
  "Ġpostage": 9253,
  "Ġliberally": 9254,
  "ĠDemocratic": 9255,
  "693": 9256,
  "she": 9257,
  "Ġcommits": 9258,
  "ĠImprovement": 9259,
  "Ġwit": 9260,
  "Ġadversary": 9261,
  "Ġarguably": 9262,
  "ĠLow": 9263,
  "ĠUp": 9264,
  "Ġcompete": 9265,
  "ORDER": 9266,
  "Ġgeneric": 9267,
  "ĠDepositor": 9268,
  "954": 9269,
  "Ġacre": 9270,
  "Ġcourtroom": 9271,
  "Ġcourier": 9272,
  "Ġplaying": 9273,
  "ĠPersonnel": 9274,
  "ĠMel": 9275,
  "ĠAnswer": 9276,
  "Ġinaccurate": 9277,
  "Ġcontinuously": 9278,
  "647": 9279,
  "Bank": 9280,
  "830": 9281,
  "Ġhandled": 9282,
  "ĠPerez": 9283,
  "846": 9284,
  "ĠPrevention": 9285,
  "Ġperemptory": 9286,
  "Ġannexed": 9287,
  "717": 9288,
  "ĠNATIONAL": 9289,
  "ĠCur": 9290,
  "Ġmainly": 9291,
  "ĠParish": 9292,
  "Ġcleaning": 9293,
  "Ġdrafting": 9294,
  "ĠLight": 9295,
  "Ġpostconviction": 9296,
  "ĠCrime": 9297,
  "ĠHundred": 9298,
  "ĠTreasurer": 9299,
  "Ġgasoline": 9300,
  "ĠOntario": 9301,
  "ĠLeader": 9302,
  "Ġfulfilled": 9303,
  "ĠCoverage": 9304,
  "ĠElec": 9305,
  "OJ": 9306,
  "ĠSimpson": 9307,
  "Ġmistaken": 9308,
  "Ġtransparency": 9309,
  "ĠFixed": 9310,
  "BI": 9311,
  "Appellants": 9312,
  "Ġinsist": 9313,
  "672": 9314,
  "ĠCleveland": 9315,
  "682": 9316,
  "Ġuphold": 9317,
  "ĠMajority": 9318,
  "Ġgovernance": 9319,
  "637": 9320,
  "__": 9321,
  "ĠED": 9322,
  "ĠEuro": 9323,
  "Ġlenders": 9324,
  "can": 9325,
  "ases": 9326,
  "661": 9327,
  "714": 9328,
  "ĠTimes": 9329,
  "Ġtouch": 9330,
  "Ġfeeling": 9331,
  "ĠPeterson": 9332,
  "Court": 9333,
  "ther": 9334,
  "ĠEmployee's": 9335,
  "rad": 9336,
  "Ġadjoining": 9337,
  "Ġhealthcare": 9338,
  "my": 9339,
  "ĠHawaii": 9340,
  "Ġdental": 9341,
  "657": 9342,
  "ĠDA": 9343,
  "Table": 9344,
  "Ġdisplayed": 9345,
  "ĠBus": 9346,
  "Ġprovince": 9347,
  "Ġenjoin": 9348,
  "Ġpieces": 9349,
  "Ġcompetence": 9350,
  "Ġspecially": 9351,
  "ios": 9352,
  "Ġinfluenced": 9353,
  "747": 9354,
  "ĠStudy": 9355,
  "ĠAMENDED": 9356,
  "Ġreg": 9357,
  "Ġprovisional": 9358,
  "Ġrecited": 9359,
  "TT": 9360,
  "Ġprocessed": 9361,
  "Ġpendency": 9362,
  "Ġdecedent's": 9363,
  "Ġinfant": 9364,
  "Mar": 9365,
  "Ġaccidents": 9366,
  "805": 9367,
  "ask": 9368,
  "006": 9369,
  "Ġguarantor": 9370,
  "Ġpenal": 9371,
  "END": 9372,
  "Ġdisaster": 9373,
  "ĠDuncan": 9374,
  "Ġcycle": 9375,
  "Ġunderwriting": 9376,
  "Ġap": 9377,
  "ĠEBITDA": 9378,
  "Ġsight": 9379,
  "Ġrecoverable": 9380,
  "Ġrebuttal": 9381,
  "ĠBaroness": 9382,
  "Ġstamp": 9383,
  "Plan": 9384,
  "'.": 9385,
  "638": 9386,
  "Ġconf": 9387,
  "uted": 9388,
  "ĠSponsor": 9389,
  "ĠAvailable": 9390,
  "Ġentertain": 9391,
  ".,ĊĊ": 9392,
  "ĠJo": 9393,
  "âĢĶa": 9394,
  "Ġappointments": 9395,
  "Ġsw": 9396,
  "ired": 9397,
  "UC": 9398,
  "Ġ?": 9399,
  "Ġineligible": 9400,
  "urs": 9401,
  "Ġwh": 9402,
  "Ġpatrol": 9403,
  "ĠDollar": 9404,
  "ĠFOIA": 9405,
  "Ġwarned": 9406,
  "ij": 9407,
  "643": 9408,
  "Ġabroad": 9409,
  "ĠBall": 9410,
  "Ġculture": 9411,
  "Col": 9412,
  "Ġfullest": 9413,
  "icated": 9414,
  "Ġinvestigative": 9415,
  "ĠUntil": 9416,
  "Ġpartition": 9417,
  "bl": 9418,
  "ĠActivities": 9419,
  "ĠExhibits": 9420,
  "Ġaccountant": 9421,
  "Ġaggrieved": 9422,
  "Ġdrop": 9423,
  "ĠPass": 9424,
  "lands": 9425,
  "ĠLEGAL": 9426,
  "ĠHayes": 9427,
  "Ġconcealed": 9428,
  "Ġtoll": 9429,
  "Ġholdings": 9430,
  "ially": 9431,
  "ĠPledge": 9432,
  "ĠMilitary": 9433,
  "Judge": 9434,
  "IES": 9435,
  "here": 9436,
  "ĠBeck": 9437,
  "--ĊĊ": 9438,
  "Ġinitiatives": 9439,
  "681": 9440,
  "Ġjoinder": 9441,
  "Moreover": 9442,
  "Ġactionable": 9443,
  "iel": 9444,
  "646": 9445,
  "ĠKent": 9446,
  "ĠSubsequently": 9447,
  "811": 9448,
  "Ġprosecutor's": 9449,
  "Ġweather": 9450,
  "ĠUnrestricted": 9451,
  "806": 9452,
  "ĠWalter": 9453,
  "Ġdeter": 9454,
  "Ġmaritime": 9455,
  "Ġenrolled": 9456,
  "rol": 9457,
  "Ġarrange": 9458,
  "aging": 9459,
  "Ġappointing": 9460,
  "745": 9461,
  "ĠLeases": 9462,
  "ĠRepurchase": 9463,
  "Ġleasing": 9464,
  "DO": 9465,
  "ĠITS": 9466,
  "Ġfurniture": 9467,
  "Ġlane": 9468,
  "aded": 9469,
  "lee": 9470,
  "ĠACTION": 9471,
  "732": 9472,
  "Ġhazards": 9473,
  "ĠEng": 9474,
  "689": 9475,
  "Ġquash": 9476,
  "ĠNews": 9477,
  "ĠSingapore": 9478,
  "Ġvoir": 9479,
  "ĠIndemnifying": 9480,
  "ĠProcedural": 9481,
  "ĠCent": 9482,
  "Ġrelocation": 9483,
  "BO": 9484,
  "ĠQuestions": 9485,
  "ĠCopyright": 9486,
  "ways": 9487,
  "ĠThousand": 9488,
  "ĠPS": 9489,
  "rest": 9490,
  "%,": 9491,
  "Ġmatch": 9492,
  "Ġsusceptible": 9493,
  "SW": 9494,
  "MEMORANDUM": 9495,
  "Ġarriving": 9496,
  "Ġfocuses": 9497,
  "ĠRemedies": 9498,
  "âĢĻm": 9499,
  "Ġomit": 9500,
  "Ġeffectuate": 9501,
  "ĠNA": 9502,
  "Ġenjoyment": 9503,
  "UNITED": 9504,
  "726": 9505,
  "Ġadvising": 9506,
  "Ġdeceptive": 9507,
  "aring": 9508,
  "ĠSeparation": 9509,
  "Ġshipping": 9510,
  "Ġsuicide": 9511,
  "697": 9512,
  "ĠHu": 9513,
  "Ġbarriers": 9514,
  "737": 9515,
  "BL": 9516,
  "Ġsupplementary": 9517,
  "664": 9518,
  ");ĊĊ": 9519,
  "ĠExchequer": 9520,
  "Ġdrainage": 9521,
  "ĠMyers": 9522,
  "Ġdeliberations": 9523,
  "ĠJim": 9524,
  "ĠAffidavit": 9525,
  "ĠStep": 9526,
  "ĠTenth": 9527,
  "ns": 9528,
  "Ġretaining": 9529,
  "ores": 9530,
  "Ġliquid": 9531,
  "Ġretains": 9532,
  "Ġscenario": 9533,
  "Ġyesterday": 9534,
  "Page": 9535,
  "Ġlooks": 9536,
  "Ġavail": 9537,
  "iver": 9538,
  "653": 9539,
  "Ġequality": 9540,
  "Ġauthenticated": 9541,
  "Ġband": 9542,
  "</": 9543,
  "ĠRuling": 9544,
  "Ġheadings": 9545,
  "wick": 9546,
  "'clock": 9547,
  "777": 9548,
  "Ġbelonged": 9549,
  "ta": 9550,
  "Ġhistoric": 9551,
  "UT": 9552,
  "\"In": 9553,
  "Ġhuge": 9554,
  "-state": 9555,
  "Ġstores": 9556,
  "were": 9557,
  "Ġthinks": 9558,
  "Ġforeclose": 9559,
  "Ġlitigated": 9560,
  "Ġdecides": 9561,
  "ĠEvid": 9562,
  "lock": 9563,
  "ĠFreedom": 9564,
  "ĠANALYSIS": 9565,
  "ĠFLSA": 9566,
  "685": 9567,
  "Ġlosing": 9568,
  "Ġfishery": 9569,
  "ĠRussia": 9570,
  "Ġdropped": 9571,
  "709": 9572,
  "Ġreforms": 9573,
  "aa": 9574,
  "Ġpreemption": 9575,
  "ĠHEALTH": 9576,
  "808": 9577,
  "812": 9578,
  "ĠSubsequent": 9579,
  "Ġdrew": 9580,
  "ĠReid": 9581,
  "ĠNuclear": 9582,
  "Ġestopped": 9583,
  "itting": 9584,
  "ĠAgencies": 9585,
  "Ġquiet": 9586,
  "ĠParticipating": 9587,
  "UD": 9588,
  "ĠSCHEDULE": 9589,
  "676": 9590,
  "ius": 9591,
  "Ġsurveys": 9592,
  "Ġholiday": 9593,
  "ault": 9594,
  "Ġlawsuits": 9595,
  "634": 9596,
  "Ġwound": 9597,
  "Ġpursuit": 9598,
  "Ġcrop": 9599,
  "Non": 9600,
  "ĠCamp": 9601,
  "NO": 9602,
  "low": 9603,
  "ĠMotors": 9604,
  "ĠUrban": 9605,
  "743": 9606,
  "ĠLi": 9607,
  "Ġsk": 9608,
  "688": 9609,
  "Baroness": 9610,
  "ĠDealer": 9611,
  "ĠBoyd": 9612,
  "Ġintegration": 9613,
  "ĉĉĠĠ": 9614,
  "itions": 9615,
  "Ġforwarded": 9616,
  "-ment": 9617,
  "ĠJR": 9618,
  "ĠSTANDARD": 9619,
  "-In": 9620,
  "bar": 9621,
  "Ġlift": 9622,
  "Ġlaying": 9623,
  "ĠCAA": 9624,
  "Ġwrongfully": 9625,
  "Ġpresiding": 9626,
  "ĠLloyd": 9627,
  "Ġvaccine": 9628,
  "ĠDennis": 9629,
  "Ġtends": 9630,
  "Ġexpensive": 9631,
  "PM": 9632,
  "Ġdisturb": 9633,
  "Ġopt": 9634,
  "Ġinnovation": 9635,
  "ĠAnti": 9636,
  "ĠGer": 9637,
  "Ġvisible": 9638,
  "ĠĠĠĠĠĠĠĠĠĠĠĠĠĠĠĠĠĠĠĠĠĠĠĠĠĠĠĠĠĠĠĠĠĠĠĠĠĠĠĠĠĠĠĠĠĠĠĠĠĠĠĠĠĠĠĠĠĠĠĠĠĠĠĠĠĠĠ": 9639,
  "ĠRegistered": 9640,
  "Ġslight": 9641,
  "ĠSup": 9642,
  "Ġcaught": 9643,
  "ĠBack": 9644,
  "Ġund": 9645,
  ".Stat": 9646,
  "should": 9647,
  "AY": 9648,
  "Ġpistol": 9649,
  "Ġremit": 9650,
  "ication": 9651,
  "ager": 9652,
  "ĠĠĠĠĠĠĠĠĠĠĠĠĠĠĠĠĠĠĠĠĠĠĠĠĠĠĠĠĠĠĠĠĠĠĠĠĠĠĠĠĠĠĠĠĠĠĠĠĠĠĠĠĠĠĠĠĠĠ": 9653,
  "ĠCovenants": 9654,
  "Ġgenerate": 9655,
  "673": 9656,
  "-third": 9657,
  "[deg": 9658,
  "ĠProduction": 9659,
  "ĠMarketing": 9660,
  "Ġnegligently": 9661,
  "Ġalbeit": 9662,
  "Houston": 9663,
  "Ġlocate": 9664,
  "Ġreaction": 9665,
  "ĉĉĉĠ": 9666,
  "ĠWebb": 9667,
  "Ġretroactively": 9668,
  "Ġarrive": 9669,
  "Ġsleep": 9670,
  "rel": 9671,
  "Ġexcused": 9672,
  "Ġlo": 9673,
  "NC": 9674,
  "va": 9675,
  "ani": 9676,
  "Ġdefinitive": 9677,
  "ĠNSWCA": 9678,
  "Ġinsure": 9679,
  "even": 9680,
  "ĠSimon": 9681,
  ".c": 9682,
  "shire": 9683,
  ".Va": 9684,
  "Ġvaried": 9685,
  "Com": 9686,
  "ook": 9687,
  "Ġmoderate": 9688,
  "Ġexcise": 9689,
  "ots": 9690,
  "Ġdesignee": 9691,
  "ĠHAVE": 9692,
  "ĠCnty": 9693,
  "ĠJane": 9694,
  "Ġbuying": 9695,
  "ĠSix": 9696,
  "ĠContracting": 9697,
  "ĠWayne": 9698,
  "ĠLab": 9699,
  "ĠMun": 9700,
  "649": 9701,
  "ĠHal": 9702,
  "ound": 9703,
  "Ġdenominated": 9704,
  "rem": 9705,
  "Ġencounter": 9706,
  "-profit": 9707,
  "Ġconsensus": 9708,
  "Ġancillary": 9709,
  "Comp": 9710,
  "ously": 9711,
  "-moving": 9712,
  "628": 9713,
  "Ġaged": 9714,
  "Ġmaker": 9715,
  "ĠHolmes": 9716,
  "Ġwithdrew": 9717,
  "ĠTRANSFER": 9718,
  "007": 9719,
  "Ġcommodity": 9720,
  "Ġquarters": 9721,
  "Ġmentally": 9722,
  "Ġbipartisan": 9723,
  "ĠBruce": 9724,
  "Ġregulating": 9725,
  "ĠOrleans": 9726,
  "-part": 9727,
  "ĠIndemnification": 9728,
  "773": 9729,
  "Ġdrawings": 9730,
  "Ġhot": 9731,
  "Ġdemocratic": 9732,
  "Ġchildren's": 9733,
  "Ġplate": 9734,
  "ĠâĢĶĊ": 9735,
  "744": 9736,
  "ĠClearly": 9737,
  "ĠDa": 9738,
  "Ġcombat": 9739,
  "Ġexcellent": 9740,
  "677": 9741,
  "/b": 9742,
  "Ġencouraging": 9743,
  "ĠHol": 9744,
  "733": 9745,
  "gin": 9746,
  "-line": 9747,
  "ives": 9748,
  "ĠRecipient": 9749,
  "enn": 9750,
  "Ġgirl": 9751,
  "Ġcomp": 9752,
  "Ġcenters": 9753,
  "Ġmother's": 9754,
  "Ġsuperintendent": 9755,
  "817": 9756,
  "ĠĠĠĠĠĠĠĠĠĠĠĠĠĠĠĠĠĠĠĠĠĠĠĠĠĠĠĠĠĠĠĠĠĠĠĠĠĠĠĠĠĠĠĠĠĠĠĠĠĠĠĠĠĠĠĠĠĠĠĠĠ": 9757,
  "ĠPatterson": 9758,
  "ĠStockholders": 9759,
  "ĠSpain": 9760,
  "ĠTri": 9761,
  "ĠSys": 9762,
  "Ġmouth": 9763,
  "ĠSimmons": 9764,
  "evidence": 9765,
  "Ġacute": 9766,
  "907": 9767,
  "mb": 9768,
  "921": 9769,
  "ĠAmend": 9770,
  "Ġindefinite": 9771,
  "860": 9772,
  "ring": 9773,
  "Ġempowered": 9774,
  "ĠRem": 9775,
  "Ġintermediate": 9776,
  "ĠMadison": 9777,
  "ĠĠĠĠĠĠĠĠĠĠĠĠĠĠĠĠĠĠĠĠĠĠĠĠĠĠĠĠĠĠĠĠĠĠĠĠĠĠĠĠĠĠĠĠĠĠĠĠĠĠĠĠĠĠĠĠĠĠĠĠĠĠĠĠĠĠ": 9778,
  "ĠDIS": 9779,
  "Ġanywhere": 9780,
  "ĠSS": 9781,
  "fer": 9782,
  "837": 9783,
  "Ġattainment": 9784,
  "Ġskilled": 9785,
  "ĠWednesday": 9786,
  "Ġrestored": 9787,
  "-client": 9788,
  "ĠInstructions": 9789,
  "light": 9790,
  "809": 9791,
  "ĠMarks": 9792,
  "Ġweak": 9793,
  "Ġdisagreed": 9794,
  "Ġrelieved": 9795,
  "Ġstrengthen": 9796,
  "ĠCarl": 9797,
  "ese": 9798,
  "Ġsewer": 9799,
  "Ġcapability": 9800,
  "ĠAfghanistan": 9801,
  "part": 9802,
  "Ġimplies": 9803,
  "Ġseconds": 9804,
  "Ġpremise": 9805,
  "782": 9806,
  "683": 9807,
  "Ġemails": 9808,
  "Ġinherently": 9809,
  "ĠCM": 9810,
  "Subject": 9811,
  "Ġfields": 9812,
  "ĠPalmer": 9813,
  "ĠRequirement": 9814,
  "Ġwear": 9815,
  "Ġsuffers": 9816,
  "ĠMortgaged": 9817,
  "Ġadds": 9818,
  "ocation": 9819,
  "ĠLast": 9820,
  "ĠAirport": 9821,
  "ĠDebentures": 9822,
  "644": 9823,
  "ĠDeath": 9824,
  "Ġresponds": 9825,
  "ĠFrancis": 9826,
  "Ġdidn": 9827,
  "king": 9828,
  "CON": 9829,
  "ĠHampshire": 9830,
  "ĠBorder": 9831,
  "*Ċ": 9832,
  "Ġsat": 9833,
  "881": 9834,
  "ural": 9835,
  "hr": 9836,
  "Ġpointing": 9837,
  "Ġindividual's": 9838,
  "Ġenjoyed": 9839,
  "734": 9840,
  "840": 9841,
  "Ġant": 9842,
  "ĠBO": 9843,
  "Ill": 9844,
  "910": 9845,
  "June": 9846,
  "Ġhurt": 9847,
  "ouse": 9848,
  "ae": 9849,
  "ĠAtl": 9850,
  "str": 9851,
  "ĠAsh": 9852,
  "813": 9853,
  "means": 9854,
  "Ġportfolio": 9855,
  "ĠPan": 9856,
  "Ġrenewable": 9857,
  "ĠSubscriber": 9858,
  "ĠDen": 9859,
  "718": 9860,
  "].âĢĿ": 9861,
  "Ġsells": 9862,
  "Ġsafely": 9863,
  "ESS": 9864,
  "Ġabide": 9865,
  "Ġchoices": 9866,
  "Ġro": 9867,
  "ild": 9868,
  "Ġimages": 9869,
  "Th": 9870,
  "792": 9871,
  "767": 9872,
  "Ġgets": 9873,
  "Ġstrikes": 9874,
  "Ġgrievances": 9875,
  "759": 9876,
  "ĠMining": 9877,
  "Ġliquidator": 9878,
  "FE": 9879,
  "ĠFIRST": 9880,
  "ĠEnterprises": 9881,
  "765": 9882,
  "Ġturning": 9883,
  "Ġgrantor": 9884,
  "Ġkitchen": 9885,
  "ĠConstitutional": 9886,
  "ĠLibrary": 9887,
  "Ġpoll": 9888,
  "686": 9889,
  "Ġsummarily": 9890,
  "Ġabortion": 9891,
  "TABLE": 9892,
  "Ġconvention": 9893,
  "Ġcounterclaims": 9894,
  "ĠGovernments": 9895,
  "Ġagriculture": 9896,
  "-pocket": 9897,
  "ĠPO": 9898,
  "Ġorganizational": 9899,
  "Ġtransit": 9900,
  "ĠCorrectional": 9901,
  "Ġsuffice": 9902,
  "Ġpartnerships": 9903,
  "Ġminus": 9904,
  "684": 9905,
  "Ġfurnishing": 9906,
  "ald": 9907,
  "ĠFCR": 9908,
  "Ġdoubts": 9909,
  "ĠRevision": 9910,
  "ills": 9911,
  "Ġestates": 9912,
  "ĠAP": 9913,
  "usion": 9914,
  "Ġtendency": 9915,
  "/d": 9916,
  "ĠREV": 9917,
  "Ġwillingness": 9918,
  "Ġpicked": 9919,
  "ury": 9920,
  "Ġincumbent": 9921,
  "Ġdual": 9922,
  "ĠKenneth": 9923,
  "ĠGP": 9924,
  "ĠSheet": 9925,
  "ĠInstitution": 9926,
  "Ġquo": 9927,
  "Ġforming": 9928,
  "-claim": 9929,
  "Ġplastic": 9930,
  "Ġcloser": 9931,
  "768": 9932,
  "Ġduplication": 9933,
  "Ġsubrogation": 9934,
  "Ġrecognizing": 9935,
  "ĠCT": 9936,
  "ken": 9937,
  "ĠIncremental": 9938,
  "ader": 9939,
  "669": 9940,
  "Ġaccruing": 9941,
  ".The": 9942,
  "Ġac": 9943,
  "ĠPrison": 9944,
  "ĠJapan": 9945,
  "Ġisolated": 9946,
  "Ġboys": 9947,
  "FO": 9948,
  "724": 9949,
  "692": 9950,
  "ĠAlliance": 9951,
  "Ġrested": 9952,
  "Ġsuggestions": 9953,
  "Ġmile": 9954,
  "ĠMur": 9955,
  "ĠInstruction": 9956,
  "824": 9957,
  "Ġdam": 9958,
  "dy": 9959,
  "Ġcomputation": 9960,
  "ĠEnterprise": 9961,
  "Ġdiscern": 9962,
  "787": 9963,
  "Ġdisqualification": 9964,
  "ĠNSWLR": 9965,
  "elle": 9966,
  "ĠSignature": 9967,
  "Ġloaded": 9968,
  "ĠCERTIFICATE": 9969,
  "QU": 9970,
  "LAND": 9971,
  "Ġaccountable": 9972,
  "875": 9973,
  "ĠMisc": 9974,
  "ĠGrants": 9975,
  "ĠPen": 9976,
  "Ġpractically": 9977,
  "Ġcivilian": 9978,
  "ĠOwnership": 9979,
  "Ġstake": 9980,
  "Ġconsummated": 9981,
  "ĠColo": 9982,
  "Ġimpermissible": 9983,
  "Ġimply": 9984,
  "ĠDebtor's": 9985,
  "ĠTariff": 9986,
  "Ġassigning": 9987,
  "ĠAF": 9988,
  "ĠAreas": 9989,
  "Ġavoiding": 9990,
  "Ġrare": 9991,
  "Ġcollections": 9992,
  "ĠPurpose": 9993,
  "ĠMack": 9994,
  "Ġafraid": 9995,
  "Ġdeclining": 9996,
  "ulate": 9997,
  "Ġdeduct": 9998,
  "Ġsheets": 9999,
  "ĠOwens": 10000,
  "757": 10001,
  "Ġsurely": 10002,
  "together": 10003,
  "Ġparcels": 10004,
  "ĠInterstate": 10005,
  "ĠGregory": 10006,
  "ying": 10007,
  "Ġdel": 10008,
  "ĠLOAN": 10009,
  "ĠTor": 10010,
  "ĠSess": 10011,
  "815": 10012,
  "Ġdu": 10013,
  "Ġnominal": 10014,
  "ĠGil": 10015,
  "Ġbids": 10016,
  "Ġcounted": 10017,
  "851": 10018,
  "ĠSpanish": 10019,
  "ĠRussian": 10020,
  "ĠMountain": 10021,
  "Ġcouncils": 10022,
  "ĠSon": 10023,
  "ĠInstrument": 10024,
  "Ġresign": 10025,
  "Ġobligor": 10026,
  "\"It": 10027,
  "Ġdecades": 10028,
  "Ġrecollection": 10029,
  "Ġcorrective": 10030,
  "Ġmissed": 10031,
  "sen": 10032,
  "807": 10033,
  "Ġcanceled": 10034,
  "Ġmeat": 10035,
  "EP": 10036,
  "Ġascribed": 10037,
  "ĠReturn": 10038,
  "Ġaccelerated": 10039,
  "Ġlove": 10040,
  "amb": 10041,
  "Ġinfliction": 10042,
  "ĠUniv": 10043,
  "kins": 10044,
  "ero": 10045,
  "Ġuniversal": 10046,
  "Ġcapitalized": 10047,
  "663": 10048,
  "Ġshut": 10049,
  "818": 10050,
  "umb": 10051,
  "723": 10052,
  "Ġglad": 10053,
  "ĠDow": 10054,
  "ĠDescription": 10055,
  "Ġaltogether": 10056,
  "win": 10057,
  "729": 10058,
  "Ġpremised": 10059,
  "ĠSupplier": 10060,
  "ady": 10061,
  "HR": 10062,
  "Ġassurances": 10063,
  "ĠAPA": 10064,
  "ĠEs": 10065,
  "ĠEM": 10066,
  "Ġunpublished": 10067,
  "ĠPrimary": 10068,
  "Ġamounting": 10069,
  "Ġcommented": 10070,
  "905": 10071,
  "Ġassisting": 10072,
  "Ġchancellor": 10073,
  "ĠExpiration": 10074,
  "Ġsupplements": 10075,
  "Ġhair": 10076,
  "ĠDisposition": 10077,
  "ĠSherman": 10078,
  "Ġwholesale": 10079,
  "Ġrescinded": 10080,
  "ĠPlacement": 10081,
  "Ġcomposed": 10082,
  "ĠHartford": 10083,
  "Ġel": 10084,
  "Ġrooms": 10085,
  "Ġlogic": 10086,
  "ĠâĢķ": 10087,
  "ĠHC": 10088,
  "Ġsomebody": 10089,
  "ĠEvaluation": 10090,
  "ĠEEA": 10091,
  "Ġliterature": 10092,
  "Ġprincipally": 10093,
  "illo": 10094,
  "Ġticket": 10095,
  "771": 10096,
  "Ġwillfully": 10097,
  "ration": 10098,
  "Ġpackaging": 10099,
  "ĠHHS": 10100,
  "ĠFramework": 10101,
  "&P": 10102,
  "Ġtroops": 10103,
  "736": 10104,
  "Ġdeclares": 10105,
  "Ġguns": 10106,
  "Ġmotorist": 10107,
  "sell": 10108,
  "ĠRichmond": 10109,
  "-r": 10110,
  "Ġsm": 10111,
  "Ġlegend": 10112,
  "ART": 10113,
  "ĠNOTICE": 10114,
  "Ġhundreds": 10115,
  "Ġarisen": 10116,
  "Ġfighting": 10117,
  "719": 10118,
  "Ġcomparative": 10119,
  "nes": 10120,
  "ĠSwap": 10121,
  "Ġfutile": 10122,
  "ĠAndrews": 10123,
  "action": 10124,
  "ura": 10125,
  "ĠAffirmed": 10126,
  "they": 10127,
  "ĠSl": 10128,
  "ACK": 10129,
  "Ġ\"ĊĊ": 10130,
  "Ġbeer": 10131,
  "ĠBills": 10132,
  "ĠHong": 10133,
  "ĠCompetition": 10134,
  "PI": 10135,
  "Ġauthorisation": 10136,
  "Ġscheduling": 10137,
  "ĠFax": 10138,
  "Ġincapacity": 10139,
  "754": 10140,
  "hl": 10141,
  "Ġmedications": 10142,
  "Ġattract": 10143,
  "Ġpurportedly": 10144,
  "Ġfitness": 10145,
  "ĠNoteholders": 10146,
  "ĠEL": 10147,
  "Ġuninsured": 10148,
  "Ġgrow": 10149,
  "ĠES": 10150,
  "834": 10151,
  "ĠSr": 10152,
  "Ġreferendum": 10153,
  "Signature": 10154,
  "ĠGonzales": 10155,
  "880": 10156,
  "Ġswitch": 10157,
  "-fact": 10158,
  "844": 10159,
  "Ġamends": 10160,
  "Minn": 10161,
  "ason": 10162,
  "Ġ*ĊĊ": 10163,
  "Ġproviso": 10164,
  "ĠRobertson": 10165,
  "ĠInvestigation": 10166,
  "âĢĻ.": 10167,
  "Ġseventy": 10168,
  "Ġterritorial": 10169,
  "significant": 10170,
  "Ġresiding": 10171,
  "755": 10172,
  "Ġinconsistencies": 10173,
  "Ġkidnapping": 10174,
  "Regulation": 10175,
  "ops": 10176,
  "Ġincorrectly": 10177,
  "upon": 10178,
  "ĠKn": 10179,
  "Ġinvitation": 10180,
  "Ġbalanced": 10181,
  "Ġverdicts": 10182,
  "ĠRICO": 10183,
  "866": 10184,
  "Ġdefaulted": 10185,
  "ĠRehabilitation": 10186,
  "Ġunacceptable": 10187,
  "Ġsilence": 10188,
  "-established": 10189,
  "ĠItaly": 10190,
  "Ġadvocate": 10191,
  "lement": 10192,
  "inal": 10193,
  "Ġswap": 10194,
  "ĠRail": 10195,
  "Ġexperiences": 10196,
  "\\Ċ": 10197,
  "ĠLicensor": 10198,
  ")-": 10199,
  "Ġholidays": 10200,
  "Ġnationally": 10201,
  "Ġreporter": 10202,
  "LP": 10203,
  "790": 10204,
  "ĠCrimes": 10205,
  "ĠEACH": 10206,
  "ĠFreeman": 10207,
  "Ġdrilling": 10208,
  "ĠCB": 10209,
  "\"ĊĊ": 10210,
  "Ġoccasionally": 10211,
  "ĠSte": 10212,
  "Ġtribe": 10213,
  "ĠPool": 10214,
  "749": 10215,
  "Ġreplacing": 10216,
  "Ġexit": 10217,
  "ĠChambers": 10218,
  "Ġversus": 10219,
  ".);": 10220,
  "Ġforest": 10221,
  "ba": 10222,
  "ĠMotions": 10223,
  "ĠSERVICE": 10224,
  "OW": 10225,
  "ĠFact": 10226,
  "Ġsidewalk": 10227,
  "Ġservicing": 10228,
  "ĠShortly": 10229,
  "ext": 10230,
  "ĠSol": 10231,
  "Ġminors": 10232,
  "ĠHarvey": 10233,
  "hart": 10234,
  "ĠSchedules": 10235,
  "Ġsubscription": 10236,
  "/Ċ": 10237,
  "ĠCompare": 10238,
  "ĠPierce": 10239,
  "Ġsu": 10240,
  "ĠFinding": 10241,
  "-defendant": 10242,
  "753": 10243,
  "Ġobstruction": 10244,
  "ĠZealand": 10245,
  "ĠApproved": 10246,
  "Ġdoesn't": 10247,
  "ĠEngineering": 10248,
  "Ġflexible": 10249,
  "Ġtrucks": 10250,
  "Ġhusband's": 10251,
  "Ġclothes": 10252,
  "Ġwherever": 10253,
  "695": 10254,
  "ĠDixon": 10255,
  "Ġworkforce": 10256,
  "ĠWarner": 10257,
  "Ġstringent": 10258,
  "Ġyounger": 10259,
  "Ġward": 10260,
  "Ġputs": 10261,
  "WS": 10262,
  "Ġsand": 10263,
  "716": 10264,
  "865": 10265,
  "ĠRULE": 10266,
  "ĠSim": 10267,
  "696": 10268,
  "Ġpensions": 10269,
  "Ġabatement": 10270,
  "ĠTucker": 10271,
  "Ġchecked": 10272,
  "Ġquantum": 10273,
  "Ġintentions": 10274,
  "794": 10275,
  "Ġcorroborated": 10276,
  "Ġsolutions": 10277,
  "877": 10278,
  "ĠKevin": 10279,
  "igan": 10280,
  "Ġgenerality": 10281,
  "Ġperjury": 10282,
  "urn": 10283,
  "Ġcertifies": 10284,
  "011": 10285,
  "ility": 10286,
  "766": 10287,
  "Change": 10288,
  "Department": 10289,
  "843": 10290,
  "870": 10291,
  "ĠRonald": 10292,
  "âĢĿĊĊ": 10293,
  "Ġcold": 10294,
  "Ġraw": 10295,
  "Ġanticipate": 10296,
  "ĠĠĠĠĠĠĠĠĠĠĠĠĠĠĠĠĠĠĠĠĠĠĠĠĠĠĠĠĠĠĠĠĠĠĠĠĠĠĠĠĠĠĠĠĠĠĠĠĠĠĠĠĠĠĠĠĠĠĠĠĠĠĠ": 10297,
  "Ġprint": 10298,
  "ĠIssuance": 10299,
  "746": 10300,
  "Ġcontradicted": 10301,
  "ĉH": 10302,
  "ĠLy": 10303,
  "ĠWould": 10304,
  "Ġengines": 10305,
  "DER": 10306,
  "Ġnominated": 10307,
  "ĠAllstate": 10308,
  "osis": 10309,
  "Ġsessions": 10310,
  "781": 10311,
  "Ġanybody": 10312,
  "ĠOpportunity": 10313,
  "ĠREGISTRATION": 10314,
  "Ġundertook": 10315,
  "ĠBerry": 10316,
  "814": 10317,
  "Ġcomplicated": 10318,
  "ĠKnight": 10319,
  "ĠLegislative": 10320,
  "berry": 10321,
  "Ġcur": 10322,
  "ĠTraffic": 10323,
  "ris": 10324,
  "Ġbreath": 10325,
  "Ġgained": 10326,
  "Ġtribes": 10327,
  "Ġquota": 10328,
  "762": 10329,
  "Ġunderwriters": 10330,
  "Ġeighty": 10331,
  "could": 10332,
  "ended": 10333,
  "vin": 10334,
  "ĠBros": 10335,
  "772": 10336,
  "ĠLucas": 10337,
  "don": 10338,
  "ĠRice": 10339,
  "get": 10340,
  "Ġnearby": 10341,
  "-ex": 10342,
  "Ġinsists": 10343,
  "ĠSB": 10344,
  "ĠLove": 10345,
  "Ġpreempted": 10346,
  "Ġvicinity": 10347,
  "Ġnoncompliance": 10348,
  "Ġrestrain": 10349,
  "Ġpose": 10350,
  "Ġtitles": 10351,
  "ĠPolicies": 10352,
  "ĠBryant": 10353,
  "ĠRepublicans": 10354,
  "Ġfinder": 10355,
  "748": 10356,
  "ĠExposure": 10357,
  "Ġquorum": 10358,
  "Ġarbitrate": 10359,
  "Ġhabitual": 10360,
  "Ġshipped": 10361,
  "ĠJoe": 10362,
  "Ġinteraction": 10363,
  "Ġencumbrance": 10364,
  "bridge": 10365,
  "ĠToday": 10366,
  "atch": 10367,
  "ĠBest": 10368,
  "oun": 10369,
  "ĠFDIC": 10370,
  "ĠSAR": 10371,
  "Ġimportation": 10372,
  "ĠCALIFORNIA": 10373,
  "980": 10374,
  "Ġcompetitors": 10375,
  "ality": 10376,
  "claim": 10377,
  "Ġresidue": 10378,
  "ĠVenture": 10379,
  "ĠSeverance": 10380,
  "Ġaccumulated": 10381,
  "ĠHand": 10382,
  "Ġlock": 10383,
  "Ġratified": 10384,
  "ĠItems": 10385,
  "845": 10386,
  "ingly": 10387,
  "Ġrescind": 10388,
  "VEN": 10389,
  "ĠArmstrong": 10390,
  "821": 10391,
  "ĠStrategy": 10392,
  "discussing": 10393,
  "940": 10394,
  "Ġdiminished": 10395,
  "Ġcompare": 10396,
  "ĠLines": 10397,
  "ĠPut": 10398,
  "ced": 10399,
  "ites": 10400,
  "842": 10401,
  "Ġcotton": 10402,
  "Ġanswering": 10403,
  "eas": 10404,
  "uses": 10405,
  "Commission": 10406,
  "Ġexpressing": 10407,
  "Ġexempted": 10408,
  "ĠCommittees": 10409,
  "Ġadvantages": 10410,
  "Ġrelatives": 10411,
  "Ġarrears": 10412,
  "ĠBob": 10413,
  "Ġdetective": 10414,
  "Ġaudited": 10415,
  "either": 10416,
  "Ġabusive": 10417,
  "ĠPROVISIONS": 10418,
  "Ġfather's": 10419,
  "ACH": 10420,
  ".Cr": 10421,
  "ĠPetroleum": 10422,
  "ĠOCGA": 10423,
  "Ġbelong": 10424,
  "Ġem": 10425,
  "ĠCabinet": 10426,
  "Ġnarrowly": 10427,
  "Pursuant": 10428,
  "Ġcodified": 10429,
  "ĠLimitations": 10430,
  "Ġfalsely": 10431,
  "ĠSenators": 10432,
  "Ġfisheries": 10433,
  "Ġdeterminative": 10434,
  "Ġministerial": 10435,
  "***": 10436,
  "ARY": 10437,
  "Ġtele": 10438,
  "âĢĺs": 10439,
  "Ġslow": 10440,
  "ĠSur": 10441,
  "832": 10442,
  "699": 10443,
  "ĠLang": 10444,
  "ĠInstruments": 10445,
  "Ġrespectfully": 10446,
  "ĠCovenant": 10447,
  "Ġnegotiating": 10448,
  "ĠBC": 10449,
  "iously": 10450,
  "-being": 10451,
  "Ġdiseases": 10452,
  "-income": 10453,
  "ĠMT": 10454,
  "Ġnaturally": 10455,
  "Except": 10456,
  "Ġowe": 10457,
  "URE": 10458,
  "822": 10459,
  "008": 10460,
  "trans": 10461,
  "Ġfinancially": 10462,
  "Ġ//": 10463,
  "783": 10464,
  "Ġfore": 10465,
  "Ġer": 10466,
  "Ġrank": 10467,
  "Ps": 10468,
  "912": 10469,
  "Ġadvertisement": 10470,
  "-two": 10471,
  "Ġunwarranted": 10472,
  "Ġdeclines": 10473,
  "ĠUltimately": 10474,
  "ĠDebenture": 10475,
  "Ġparliamentary": 10476,
  "Ġwalls": 10477,
  "ĠIrish": 10478,
  "Ġfactually": 10479,
  "ĠBarr": 10480,
  "893": 10481,
  "Ġunconditionally": 10482,
  "Borrower": 10483,
  "him": 10484,
  "Ġshape": 10485,
  "ĠHard": 10486,
  "July": 10487,
  "ĠInterim": 10488,
  "ĠClinton": 10489,
  "ĠRoth": 10490,
  "IAN": 10491,
  "BY": 10492,
  "Ġpornography": 10493,
  "Ġlisten": 10494,
  "Ġfailures": 10495,
  "Ġreiterated": 10496,
  "Ġacknowledgment": 10497,
  "Ġbalances": 10498,
  "Ġbeliefs": 10499,
  "816": 10500,
  "Ġtied": 10501,
  "ope": 10502,
  "rew": 10503,
  "Ġloading": 10504,
  "ĠProc": 10505,
  "ĠBig": 10506,
  "http": 10507,
  "ades": 10508,
  "ĠWyoming": 10509,
  "Ġextrinsic": 10510,
  "Ġfraudulently": 10511,
  "Ġadvisors": 10512,
  "763": 10513,
  "ĠStores": 10514,
  "Ġchest": 10515,
  "Ġinflicted": 10516,
  "room": 10517,
  "Ġconscious": 10518,
  "Ġremitted": 10519,
  "Ġexhibited": 10520,
  "030": 10521,
  "paragraph": 10522,
  "erv": 10523,
  "Ġgrandmother": 10524,
  "ĠKong": 10525,
  "ĠOthers": 10526,
  ".\").ĊĊ": 10527,
  "ille": 10528,
  "ĠCam": 10529,
  "ĠVermont": 10530,
  "Ġdownward": 10531,
  "739": 10532,
  "Ġwheel": 10533,
  "--``(": 10534,
  "Ġacid": 10535,
  "ĠBank's": 10536,
  "ĠTH": 10537,
  "ray": 10538,
  "Ġconcepts": 10539,
  "Ġver": 10540,
  "ĠRet": 10541,
  "oul": 10542,
  "ella": 10543,
  "ĠMargin": 10544,
  "Res": 10545,
  "Ġsealed": 10546,
  "erc": 10547,
  "Ġheating": 10548,
  "Ġcorrections": 10549,
  "Ġactor": 10550,
  "ĠAlternatively": 10551,
  "ĠMCA": 10552,
  "906": 10553,
  "Ġtownship": 10554,
  "Ġunconditional": 10555,
  "827": 10556,
  "ĠLind": 10557,
  "iled": 10558,
  "-I": 10559,
  "ĠSet": 10560,
  "Further": 10561,
  "ination": 10562,
  "\"[": 10563,
  "Ġsubsidy": 10564,
  "788": 10565,
  "Ġbrokers": 10566,
  "ĠAssuming": 10567,
  "ĠMatthew": 10568,
  "oph": 10569,
  "-examine": 10570,
  "first": 10571,
  "ĠAggregate": 10572,
  "776": 10573,
  "Donnell": 10574,
  "728": 10575,
  "791": 10576,
  "Based": 10577,
  "Ġenrollment": 10578,
  "(v": 10579,
  "Ġbrothers": 10580,
  "Ġpandemic": 10581,
  "ĠZone": 10582,
  "rit": 10583,
  "ĠClarke": 10584,
  "Ġtouching": 10585,
  "Cont": 10586,
  "Vol": 10587,
  "871": 10588,
  "Ġsomehow": 10589,
  "Ġdominant": 10590,
  "Ġstatutorily": 10591,
  "ĠAid": 10592,
  "Ġevaluations": 10593,
  "ley's": 10594,
  "oma": 10595,
  "-existing": 10596,
  "LO": 10597,
  "imp": 10598,
  "Ġcomplexity": 10599,
  "pping": 10600,
  "Ġcomplainants": 10601,
  "Â£": 10602,
[...]
